、 13117677
▁ 10232551
。 7772728
の 4920447
は 3267124
を 2317955
が 2295333
に 2009192
と 1864592
で 1467810
, 1275685
) 1232807
. 1203169
・ 1075413
: 875418
( 829568
」 758564
や 708334
から 626910
です 592822
し 575264
する 496426
も 462973
▁( 446387
▁- 441103
「 438464
した 374133
- 371595
年 363747
1 356979
ます 349790
" 344747
2 335026
か 333691
な 332606
s 329268
には 315093
では 303536
月 302582
? 294631
します 294406
日 289886
この 288543
して 280896
る 280683
/ 280638
3 274774
た 274640
として 274004
▁: 263963
▁この 262299
である 256702
! 256220
または 254092
その 248453
された 238958
] 230244
ス 228851
および 221949
、「 214006
によって 211093
て 210311
▁「 197146
▁[ 186375
5 182533
している 179281
ました 176866
4 174233
など 173357
という 167531
▁また 166795
について 162749
への 161685
しています 158892
しました 144150
い 143222
人 142462
ている 142418
ト 142192
S 139669
10 139329
り 136825
6 136370
ています 134586
より 134419
される 132677
ア 132063
C 131922
ク 131604
ので 131379
7 131036
的な 130123
による 127078
大 125156
情報 124697
すべての 124277
D 123182
あなたの 121742
のために 121569
へ 119936
▁しかし 119467
サービス 119051
こと 119044
され 118563
まで 118246
により 117022
A 117012
8 116951
ラ 115077
G 114354
ように 113837
のための 112914
▁これは 111303
す 111053
ために 110906
B 110886
▁/ 110608
com 110598
性 110238
されます 109454
私は 108298
することができます 107182
ら 106452
お 105389
つの 105381
く 105177
▁" 104961
さ 104681
リ 104678
時間 104025
時 103326
山 103181
▁S 103054
_ 103039
的 102868
機能 102756
ない 102672
に関する 102659
日本 102068
F 101587
そして 101000
中 99830
及び 98447
化 98153
があります 97838
ファイル 97469
新しい 97343
X 97152
されている 97144
ド 96909
ル 95613
▁私は 95245
9 95226
y 94337
であり 94290
▁– 94114
プログラム 93509
方法 93507
での 93482
本 93374
m 92966
▁1 92774
分 92345
き 92247
などの 91542
T 91368
タ 90615
▁そして 89536
がある 89157
でも 89103
年に 88947
多くの 88738
er 88275
水 87993
国 87409
場合 87131
▁2 86856
だ 85654
にも 85181
用 85117
設定 85014
ナ 84941
12 84707
にある 84627
M 84578
った 84431
できます 84220
ことを 83599
カ 83352
P 83018
マ 82778
における 82440
環境 82369
み 81904
また 80957
ロ 80795
者 80470
数 80305
って 80304
ー 79687
一 79494
それは 79385
できる 79236
H 79075
ズ 78868
▁A 78851
において 78644
イ 78524
されています 78516
技術 78141
からの 77970
シ 77632
ことができます 77613
システム 77571
ジ 76976
レ 76765
他の 76394
ため 76296
▁それは 76040
K 75982
▁その 75836
11 75509
後 75273
c 74906
非常に 74852
もの 74704
... 74302
う 73846
名 73432
コ 72932
ミ 72879
つ 72651
法 72120
上 72076
手 71422
研究 71296
約 71175
データ 70973
▁3 70559
▁B 70465
管理 70453
製品 70382
これらの 70335
18 69997
オ 69922
彼の 69723
ダウンロード 69720
20 69274
使用 68910
イン 68836
V 67871
高 67068
行 67007
▁C 66712
上の 66708
N 66560
g 66483
E 66194
30 66188
市 65733
e 65636
ブ 65582
バ 65568
ム 65311
p 65301
回 65121
d 64726
人の 64602
ダ 64016
al 63575
W 63490
写真 63478
開発 63109
▁P 62654
場所 62432
活動 62388
Cookie 62382
いた 62302
力 62189
ま 62133
時に 61954
ある 61759
等 61537
フ 61357
私の 61263
見 61255
バー 61237
表示 61194
R 60736
エ 60734
とは 60621
)」 60531
' 60508
だった 60371
ing 60001
点 59943
色 59925
サイト 59832
地 59737
いる 59657
するために 59626
になります 59623
ご 59174
L 59045
問題 59016
ウ 58400
金 58367
あなたが 58299
変更 58176
▁F 58040
生 57921
処理 57893
不 57769
のような 57558
中国 57388
▁M 57244
キ 57156
に対する 57099
地域 57011
t 56982
線 56803
in 56768
ください 56731
19 56726
会 56698
それ 56664
▁H 56660
すると 56580
道 56490
リー 56468
大きな 56440
的に 56352
されました 56337
ッ 56290
15 56269
わ 56244
サ 55698
前 55653
第 55639
ドル 55582
▁T 55564
プ 55528
企業 55493
でした 55401
型 55371
家 55312
いくつかの 55288
前に 55128
川 55087
になる 54420
のみ 54309
に対して 54292
子 54208
彼は 54092
ニ 53969
ネ 53960
体 53929
大学 53847
長 53831
& 53655
デ 53653
出 53634
事業 53556
なく 53463
新 53451
これは 53292
を含む 53284
度 53137
▁D 53109
のある 53057
物 53048
チ 52999
a 52934
の中で 52924
内 52814
ません 52799
ことができる 52683
~ 52496
してください 52385
or 52219
よう 52077
世界 51651
め 51646
グループ 51601
元 51520
プロジェクト 51493
国際 51283
▁G 51254
; 51253
海 51121
事 51102
▁ローマ 51093
外 51048
田 51033
J 50923
パ 50876
のように 50757
旅行 50736
でしょう 50700
ん 50558
ン 50519
ための 50444
o 50433
各 50194
▁E 50180
ホテル 50153
を選択し 50092
コン 50088
号 50078
下 49875
島 49805
テ 49394
▁これらの 49251
』 49215
場合は 49140
16 48931
様々な 48835
en 48807
自分の 48612
▁No 48528
ビ 48511
っ 48506
関係 48456
を使用して 48189
▁R 48113
ノ 47947
文化 47885
のです 47629
計画 47585
ユーザー 47515
デザイン 47493
ね 47420
店 47390
ed 47289
あなたは 47243
部 47039
セ 46959
f 46913
マン 46854
メ 46850
モデル 46824
n 46772
販売 46647
ではない 46555
ディ 46547
ページ 46532
学 46360
います 46303
心 46207
方 46205
画像 46175
ことは 46149
センター 46011
上で 45977
i 45935
都市 45855
車 45797
会社 45754
だけ 45661
それを 45620
面 45284
良い 45263
光 45156
気 45132
v 45088
イベント 45067
を持つ 45049
目 44941
条件 44923
州 44872
利用 44798
状況 44623
すること 44578
ゲーム 44557
値 44465
となる 44376
間 44266
▁あなたは 44174
あ 44091
よりも 44089
最も 43806
私たちの 43781
だけでなく 43731
場 43621
円 43603
版 43583
小 43555
内の 43369
社会 43335
年の 43328
▁4 43316
石 43300
口 43250
よ 43160
何 43023
ネットワーク 42992
b 42943
社 42880
南 42703
保証 42666
無 42612
経済 42543
所 42537
させる 42519
彼らの 42517
なら 42484
▁K 42464
観光 42374
ビジネス 42311
のか 42290
惑星 42055
こ 42013
神 41974
じ 41944
品 41666
先 41655
ビデオ 41532
があり 41476
特に 41457
· 41394
el 41354
ツ 41299
モ 41215
▁ゆんフリー写真素材集 41163
▁V 40907
とき 40905
ガ 40877
風 40858
】 40842
別の 40810
要素 40779
ツール 40763
ティ 40588
む 40577
米国 40562
転送 40472
ハ 40424
▁我々は 40420
っている 40351
on 40338
x 40219
アン 40115
機 40027
リンク 40019
それが 39980
天 39956
le 39781
100 39729
エネルギー 39645
商品 39631
今 39599
花 39597
船 39570
については 39350
接続 39339
14 39331
我々は 39331
え 39318
しない 39316
ですが 39269
原 39258
Y 39143
k 39026
▁W 38995
オプション 38988
したい 38961
レベル 38928
ていた 38808
同 38798
していた 38726
▁7 38705
三 38677
多 38643
▁私たちは 38627
熱 38626
私たちは 38564
ことが 38552
編集 38478
日に 38428
であった 38394
リング 38357
生産 38353
グ 38278
もあります 38266
同じ 38159
市場 38113
13 38103
のため 38092
木 38056
Z 37993
▁・・・ 37883
アプリケーション 37854
支援 37847
スト 37808
教育 37755
人が 37747
ボ 37663
する必要があります 37659
すぐに 37619
んだ 37591
21 37489
日本の 37384
万 37344
を使って 37318
を行う 37240
17 37150
協力 37118
▁5 37097
ば 37091
▁本 37090
re 37078
50 37037
ター 36966
リスト 36939
をタップします 36916
h 36907
チーム 36828
ソ 36802
彼女の 36798
られた 36794
サイズ 36722
投資 36632
さらに 36605
れ 36583
リン 36478
式 36475
ような 36342
彼らは 36332
産業 36330
書 36327
白 36315
ではなく 36287
検索 36111
実行 36082
▁彼は 36056
重要な 36046
▁10 36045
▁J 36001
音楽 35972
ながら 35952
ソフトウェア 35907
次の 35901
キー 35845
選択 35796
フィ 35795
ましょう 35794
以上の 35785
生活 35767
『 35741
したり 35714
よく 35649
ており 35619
さまざまな 35603
▁さらに 35463
インターネット 35449
ラン 35448
必要があります 35391
デバイス 35355
を選択します 35342
とともに 35315
小さな 35280
主 35155
オン 35110
全 35090
ット 35059
映画 35049
カー 35026
特定の 35023
24 34994
高い 34993
▁あなたの 34973
ポイント 34891
us 34885
北 34883
▁彼らは 34861
異なる 34806
愛 34791
感 34648
サポート 34637
ときに 34614
村 34591
作業 34577
co 34415
例 34389
it 34364
= 34346
着 34336
構造 34315
調査 34211
言語 34159
後に 34127
西 34112
ライン 34107
文 33910
評価 33909
25 33891
u 33890
非 33859
料理 33838
町 33786
以上 33731
カメラ 33700
区 33661
― 33641
カード 33628
土 33600
01 33598
▁L 33585
なかった 33540
量 33477
O 33401
ファイル拡張子 33351
設計 33259
プロセス 33232
結果 33207
現在 33180
r 33146
すべて 33138
についての 33077
ar 33064
県 33021
の間に 32948
能力 32827
バス 32807
美しい 32764
メール 32744
最初の 32725
z 32716
常に 32678
台 32648
月に 32576
ロー 32569
コード 32531
音 32489
登録 32439
人は 32429
施設 32410
東 32402
関連 32383
シー 32340
変化 32337
経験 32328
▁デジタル台風 32299
これ 32259
城 32235
形 32214
コンテンツ 32185
け 32172
状態 32158
[ 32111
理由 32110
まだ 32065
40 32041
保護 32014
ベ 31990
作品 31971
東京 31867
ヤ 31809
I 31775
ち 31685
▁N 31639
表 31609
だろう 31511
ゴ 31475
ず 31453
組織 31320
自然 31320
発表 31288
少し 31278
to 31249
たい 31235
空 31216
28 31206
されて 31128
ウェブサイト 31064
入力 30974
変換 30955
そう 30919
体験 30797
取引 30795
アクセス 30789
にとって 30727
するための 30726
ものです 30720
室 30692
成長 30678
へと 30639
ではありません 30604
クラス 30604
和 30597
頭 30546
@ 30470
ワ 30464
Q 30457
対応 30439
以下 30427
発 30427
トラック 30398
率 30384
王 30380
▁日本 30352
平 30323
契約 30321
味 30295
▁9 30294
科学 30278
ほど 30253
自動 30179
しかし 30176
ur 30175
られる 30147
制御 30106
ラー 30031
▁あなたが 30012
プラットフォーム 29942
楽 29933
▁ア 29928
又は 29788
器 29779
私たち 29777
▁< 29735
理解 29721
位置 29718
項目 29694
流 29578
ch 29521
を通じて 29511
th 29496
必要 29491
の間 29456
文字 29417
): 29416
新たな 29413
あるいは 29408
w 29339
話 29316
にて 29304
製造 29291
確認 29284
年間 29209
▁【 29131
内容 29114
素晴らしい 29080
図 29072
を見 29012
最高の 28994
分析 28981
ケ 28953
を見て 28942
株式会社 28926
有 28876
▁Windows 28870
正 28850
プロ 28842
星 28837
ヒ 28818
の中に 28790
種 28788
低 28755
予約 28727
中の 28720
テキスト 28671
期間 28652
ポ 28634
最大 28628
以下の 28595
波 28583
省 28575
することで 28567
語 28541
入 28531
寺 28518
家族 28508
交換 28491
通信 28453
メディア 28418
参加 28409
いて 28395
メーカー 28386
〜 28372
コース 28338
ファ 28329
48 28325
▁6 28323
セキュリティ 28323
購入 28319
メッセージ 28294
net 28292
提供 28289
日の 28286
定 28264
来 28235
移動 28133
によると 28123
テスト 28098
ペ 28067
行動 28006
野 27980
注文 27928
いい 27914
健康 27807
保存 27787
ソリューション 27782
ること 27775
装置 27737
安全 27650
報告 27602
薬 27587
▁of 27488
女性 27485
et 27453
コミュニティ 27450
60 27430
時計 27424
全ての 27419
番号 27413
ところ 27387
通 27372
ブランド 27347
l 27341
仕事 27316
電子 27305
しており 27301
部品 27289
操作 27258
▁すべての 27253
トン 27243
部分 27233
の使用 27207
食 27193
するには 27139
出力 27068
現在の 27015
ですか 26967
公 26962
an 26959
できない 26930
橋 26855
ピ 26828
が表示されます 26813
かつ 26781
配置 26781
エラー 26758
予測 26725
び 26699
かもしれない 26681
となります 26676
クチコミ 26652
説明 26636
予定 26461
カル 26448
品質 26439
はありません 26380
駅 26379
政府 26376
ia 26361
シリーズ 26340
課題 26326
ほとんど 26313
セット 26313
直 26175
ことで 26151
タイ 26116
▁今 26108
可能な 26094
身 26045
▁第 26044
どのように 26042
足 26022
▁O 26009
黒 26001
ツアー 25978
▁I 25972
材料 25964
デジタル 25911
になった 25894
取り 25890
さん 25868
ion 25842
追加 25839
個人 25800
それらの 25798
広告 25767
氏 25731
複数の 25731
台風 25687
un 25624
スタイル 25620
オンライン 25614
効果 25553
赤 25543
OK 25519
タイプ 25471
コンピュータ 25412
お客様の 25403
中に 25372
価格 25345
達 25341
エン 25324
再 25322
質 25316
戦 25315
総 25303
会議 25295
火 25287
ことに 25258
id 25226
開始 25197
細胞 25191
代 25185
層 25185
機関 25185
私が 25176
リア 25156
マー 25143
二 25121
道路 25108
私 25063
美 25027
そのような 25019
80 25003
々 24963
アプリ 24948
重 24907
湖 24901
その後 24888
曲 24848
簡単に 24845
世界の 24826
ザ 24822
ガイド 24809
していない 24803
ent 24768
を通して 24726
工場 24672
ation 24671
イメージ 24632
成 24627
極 24610
を持っている 24530
いたします 24497
+ 24493
用の 24448
地球の 24380
ブロック 24361
地球 24342
at 24321
23 24315
サー 24290
街 24273
ケース 24251
合 24238
ていました 24231
当 24229
ガス 24218
作成 24218
何か 24150
名前 24142
あなた 24121
アル 24114
メートル 24113
学生 24088
賞 24079
銀行 24066
レン 24052
目標 24040
のでしょうか 23985
22 23967
系 23930
ぐ 23913
考え 23894
半 23876
▁the 23871
29 23840
長い 23836
00 23821
に基づいて 23819
ジェ 23807
チャンネル 23779
® 23773
ぎ 23758
許可 23755
ホ 23740
IP 23724
人々 23706
コントロール 23686
安 23685
la 23681
ていない 23678
唯一の 23669
位 23665
がない 23662
ギ 23650
場合があります 23645
の場合 23571
ライ 23566
作 23564
国の 23550
植物 23534
あります 23525
▁海外 23486
彼らが 23485
パス 23479
公開 23475
ック 23469
スポーツ 23426
芸術 23399
とも 23392
▁Apache 23390
ro 23382
させ 23375
あらゆる 23346
せ 23330
U 23324
内で 23315
am 23313
レストラン 23304
空港 23294
ランド 23278
ad 23277
ふ 23275
在 23255
通知 23255
スター 23219
実際に 23125
温度 23117
ゼ 23108
別 23092
付き 23089
記録 23086
パー 23084
通り 23074
適切な 23065
可能 23038
宇宙 23028
決定 23014
▁例えば 22994
▁18 22925
電 22923
治療 22900
どのような 22854
メニュー 22832
ニュース 22822
ang 22817
共有 22765
ファン 22720
モード 22706
定義 22706
もう 22694
付け 22694
ガラス 22668
ライセンス 22661
ことです 22647
▁新しい 22646
動画 22610
▁8 22593
エリア 22575
病 22569
明 22559
再生 22537
血 22531
シュ 22507
ローマ 22501
を持っています 22461
は非常に 22444
することができる 22443
の開発 22440
バック 22419
られ 22395
馬 22380
ID 22372
攻撃 22351
方法で 22293
範囲 22287
電気 22285
優れた 22277
んで 22274
ri 22259
紙 22239
印刷 22209
強い 22196
右 22182
とても 22172
園 22147
▁12 22143
そ 22128
機会 22111
アジア 22103
表現 22101
ic 22085
特別な 22084
すれば 22077
フィウミチーノ 22058
あり 22037
悪 22018
の設定 21994
法律 21991
サン 21983
死 21960
宮 21952
期待 21932
太陽 21895
節 21883
お客様 21867
アカウント 21850
無料 21849
26 21838
必要な 21809
レポート 21804
ジャ 21768
それら 21766
それぞれ 21739
期 21739
27 21738
政策 21723
▁& 21710
年度 21681
残 21675
特徴 21659
調整 21658
機器 21650
de 21619
より多くの 21603
月の 21595
* 21590
フェ 21556
米 21550
認識 21543
空間 21539
動 21537
▁私たちの 21536
行く 21535
かどうか 21531
▁その後 21530
どんな 21523
になりました 21514
製 21513
と共に 21501
設備 21498
再び 21488
素材 21486
解決 21483
横 21470
になり 21455
上に 21450
リスク 21439
改善 21426
ボタン 21412
要求 21412
前の 21409
存在 21404
責任 21404
タン 21387
岩 21387
オープン 21379
根 21365
MA 21359
産 21359
PC 21354
基準 21353
Aurotek 21340
地震 21339
可能性があります 21334
直接 21305
英語 21299
コスト 21298
を使用する 21295
▁1. 21290
▁もし 21267
次 21266
子供 21260
標準 21232
中央 21228
認証 21183
mm 21175
どの 21171
トリ 21164
▁2. 21146
古い 21125
内に 21119
等の 21119
かもしれません 21115
アイテム 21115
▁X 21103
領域 21009
情報を 21001
対 20989
試験 20968
パートナー 20956
母 20951
、[ 20928
70 20925
間の 20909
とする 20904
物質 20854
者の 20852
歴史 20851
研究所 20851
男性 20849
紹介 20846
友人 20845
es 20841
▁Pro 20835
取得 20823
no 20792
されていない 20783
親 20783
があった 20777
ロード 20777
門 20775
マップ 20774
章 20774
を提供する 20769
本当に 20743
団 20739
). 20731
st 20731
▁次に 20712
アップ 20675
と思います 20670
その他 20658
夏 20657
記事 20657
といった 20640
以来 20638
と同じ 20633
完全に 20618
ex 20613
夜 20608
民 20602
旅 20601
Windows 20598
国家 20572
提案 20556
人々は 20544
ry 20520
特別 20485
と呼ばれる 20474
相 20460
撮影 20451
路 20438
削除 20430
il 20423
実 20422
▁各 20416
▁私の 20410
理 20410
未 20392
なる 20382
となった 20379
ナー 20378
テーブル 20372
グローバル 20367
になって 20355
ぶ 20339
一番 20306
を提供します 20305
れば 20287
いました 20264
ぼ 20223
ブル 20214
回転 20213
を行い 20210
j 20189
解析 20174
っています 20170
測定 20145
秒 20144
ジュ 20140
自 20092
付 20090
するか 20088
料金 20083
立 20049
青 20040
iPhone 20030
▁Rome 20025
動き 20006
を与える 20005
シン 20003
人々が 19999
感じ 19991
資源 19985
更新 19975
質問 19963
含んでいます 19958
終了 19958
スペース 19954
io 19952
医療 19951
▁壁紙 19942
all 19941
計 19909
者は 19908
であろう 19901
無料ライブセックスチャット 19888
31 19872
公園 19856
計算 19855
構成 19853
ひ 19851
戦略 19848
かった 19841
を提供しています 19832
をお 19791
アメリカ 19781
もっと 19754
だけで 19753
歳 19753
超 19750
その他の 19713
反応 19710
停止 19708
バージョン 19692
顧客 19690
35 19655
送信 19647
団体 19626
館 19619
自動車 19617
油 19604
ビュー 19586
核 19568
当社 19562
人間 19557
独自の 19555
発見 19554
リリース 19553
目的 19551
の名前 19524
自由 19521
データベース 19498
増 19481
と一緒に 19475
に関して 19469
▁現在 19465
地域の 19464
リクエスト 19454
の上に 19415
$ 19405
▁In 19405
ly 19400
ダー 19387
御 19386
パッケージ 19369
肉 19364
平和 19342
海外 19332
▁JAPAN 19317
役 19308
▁m 19291
発展 19284
当社の 19278
トップ 19277
ファイルを 19274
修正 19263
化学 19256
を受け 19239
市民 19213
可能性 19207
▁2018 19205
高速 19190
私達の 19185
真 19184
階 19184
格安ホテル予約 19183
▁世界のホテル情報 19179
ホテルを探して最安値でホテル予約 19176
データを 19156
▁つの 19146
運動 19118
ロン 19113
電話 19104
一緒に 19100
▁19 19097
0 19078
このような 19053
500 19049
パン 19041
▁2017 19023
をご覧ください 19020
分野 19020
時の 19011
ティー 19002
意味 18994
2017 18991
雪 18990
業務 18963
それぞれの 18962
絵 18948
価値 18943
is 18936
彼女は 18935
に対応しました 18932
▁それ 18927
後の 18921
権利 18920
ニー 18919
なければならない 18915
ると 18908
部門 18860
クライアント 18852
注意 18847
のない 18842
春 18833
▁我々 18826
角 18818
制限 18814
学校 18811
松 18792
座 18791
員 18767
45 18758
CO 18754
任意の 18750
急 18749
▁in 18748
実施 18741
希望 18736
ルーム 18724
建設 18706
▁満 18695
フル 18694
セクション 18682
たちは 18677
ソン 18676
引き 18675
▁拡張子に 18674
供給 18665
ホール 18654
テレビ 18647
しません 18644
明らかに 18641
仕様 18639
ロック 18635
カン 18628
▁Re 18617
業界 18617
動作 18612
IT 18607
規則 18605
300 18599
有名な 18598
時代 18592
準備 18585
クローネ 18576
知 18568
▁U 18563
の動画のダウンロード 18562
利益 18543
倍 18531
となり 18530
画面 18518
とその 18516
チェック 18501
キロ 18490
オーディオ 18471
今日 18471
委員会 18457
影響 18444
歌 18441
速度 18433
全体の 18424
200 18420
世 18411
列 18392
カラー 18365
税 18365
教 18361
局 18356
加工 18328
▁当サイトは 18312
バン 18306
他 18305
成功 18284
が必要です 18277
しか 18276
実験 18262
たはずです 18254
人々の 18251
▁20 18235
ハイ 18232
ならば 18231
展示 18228
ニア 18217
意識 18216
の歴史 18211
製品の 18211
Facebook 18206
インド 18188
IN 18173
性的なマテリアルを 18173
際 18172
でき 18168
文書 18164
キャ 18161
一般 18155
権 18146
ウィンドウ 18136
マスター 18135
フラン 18127
食品 18116
茶 18102
ろ 18097
彼が 18094
場ください 18085
ai 18080
剤 18067
Web 18064
込み 18061
金属 18060
の一部 18054
するように 18049
後ご入 18043
歳の方 18040
ルールに同意 18039
山の 18037
のみクッキー 18026
機構 18018
電力 18014
彼 17986
に沿って 17983
下さい 17983
ノート 17949
そこに 17944
解 17943
op 17932
近 17923
大統領 17911
タイム 17900
クラブ 17893
▁※ 17875
韓国 17870
収集 17864
群 17845
変 17843
im 17840
種類の 17837
までの 17826
知識 17822
類 17821
利用可能 17807
にあります 17804
mo 17803
ate 17797
向け 17796
元の 17790
テーマ 17767
MP 17747
機械 17734
ガン 17731
江 17729
私達は 17700
ど 17693
検査 17687
訪問 17664
すでに 17638
雨 17626
人間の 17618
最大の 17608
バッグ 17603
原因 17597
左 17596
ほぼ 17594
あらゆるファイル拡張子を 17577
対策 17573
▁特に 17561
フォーム 17552
夢 17547
になっている 17540
言う 17527
軍 17512
▁for 17509
を取り 17509
ワイン 17509
初めて 17503
▁ただし 17497
開催 17497
▁Q 17482
男 17475
院 17472
▁東京 17467
とした 17466
ケーブル 17461
アート 17457
選手 17454
最新の 17452
することを 17449
AL 17422
障害 17420
となっています 17414
最 17380
ヘ 17364
マーク 17358
てください 17354
氏は 17349
経 17334
アドレス 17327
に応じて 17318
ロシア 17315
てきた 17304
億 17303
ダウン 17295
の下で 17293
te 17289
魚 17282
コレクション 17268
様 17235
▁0 17220
Google 17214
向上 17210
像 17202
▁11 17201
マーケティング 17200
▁大 17184
▁2016 17180
▁* 17171
古 17165
初 17161
パスワード 17134
雲 17133
ベル 17123
一覧 17123
コピー 17117
通常 17115
▁File 17113
第一 17113
36 17101
開 17086
いない 17058
管 17054
02 17053
思い 17049
深い 17031
両 17028
患者 17012
対象 17000
最高 16976
詳細 16967
える 16960
プレイ 16956
制作 16935
の前に 16934
▁それでも 16920
四 16916
官 16901
トラ 16892
ざ 16867
のうち 16865
特 16857
▁3. 16856
戦争 16840
少なくとも 16819
年から 16817
パターン 16816
▁Japan 16809
強 16807
投稿 16802
距離 16798
の両方 16796
観測 16788
谷 16783
07 16777
一般的な 16773
and 16759
規制 16759
穴 16757
人気 16722
葉 16714
フィールド 16706
議論 16706
フリー 16703
モジュール 16695
命 16687
as 16679
エル 16669
国内 16668
▁したがって 16660
HD 16656
翻訳 16652
金融 16650
堂 16649
最近 16646
を追加 16631
ここで 16605
鉄 16604
教授 16599
建物 16597
90 16596
毎日 16566
指定 16560
我々の 16558
サブ 16552
▁De 16531
なさい 16519
利 16510
を作る 16504
例えば 16504
統合 16501
▁... 16485
屋 16463
たち 16452
いつでも 16449
ませんでした 16423
最初に 16411
▁Nature 16400
実際の 16396
協会 16395
かけ 16379
拡張 16373
中国の 16364
努力 16357
監視 16356
生命 16346
しい 16336
林 16325
なぜ 16300
クッキー 16292
答え 16292
料 16285
なので 16276
交流 16257
方向 16257
資金 16257
li 16256
教会 16256
ステップ 16254
アウト 16248
千 16248
フランス 16247
公式 16241
台湾 16233
サイ 16226
ir 16225
ユーザ 16223
平均 16222
▁これで 16209
▁and 16207
尾 16204
なり 16203
32 16202
業 16197
ニュー 16196
06 16177
重要 16166
ボックス 16158
活用 16151
これを 16146
▁p 16145
に対し 16140
ディレクトリ 16134
セル 16127
観 16117
大きく 16113
ごとに 16092
だと 16085
生まれ 16085
サーバー 16080
源 16056
博物館 16054
日本語 16054
コメント 16053
IC 16040
入れ 16039
ヨーロッパ 16031
を持って 16030
側 16022
会員 15998
段階 15998
予想 15996
マシン 15993
に行く 15991
しながら 15987
海洋 15968
拡大 15960
としての 15959
チケット 15946
過 15930
シャ 15929
症 15924
華 15915
げ 15914
おり 15913
引 15906
の間の 15895
を表示 15886
場合には 15885
反 15882
もしくは 15872
ーション 15861
条 15860
連絡先 15860
ライト 15858
声 15848
▁x 15845
ac 15838
人に 15817
れる 15802
脳 15802
女 15794
仏 15789
インストール 15787
それらを 15782
EN 15780
言葉 15779
09 15778
動物 15774
の問題 15769
▁だから 15765
まず 15758
ユーザーが 15757
ファッション 15755
経営 15715
警告 15705
に従って 15704
顔 15694
渡 15680
の中 15676
すべき 15670
ボール 15664
外部 15655
たり 15648
▁お 15631
指 15628
加 15616
イエス 15611
銅 15602
サンプル 15600
拠点 15598
毛 15595
ルール 15594
をクリックします 15588
何も 15580
五 15574
保 15564
64 15563
信号 15556
行為 15556
の種類 15546
パネル 15533
< 15532
空気 15530
交通 15527
資料 15520
を見る 15507
ベース 15507
塩 15503
レンタカー 15495
per 15489
建築 15480
をする 15475
▁これにより 15470
RE 15464
主に 15464
プレート 15461
参照 15459
分の 15457
展開 15457
しく 15455
テンプレート 15455
連 15455
トーク 15452
貿易 15439
配信 15438
ショー 15431
LE 15422
マイ 15410
自己 15410
大会 15404
プラン 15403
のホテル 15402
基 15393
▁これ 15392
ヌ 15387
論 15364
必ず 15359
▁このような 15345
04 15344
ine 15344
信 15323
メント 15320
多く 15316
布 15316
ブログ 15312
ソフト 15302
精 15295
することは 15294
よい 15287
輸送 15285
ポート 15279
板 15274
me 15270
けれども 15270
ブラウザ 15265
制度 15260
を示す 15254
としても 15243
」「 15242
サーバ 15240
メンバー 15239
アフリカ 15238
客 15238
関数 15236
ルート 15235
オフ 15232
大きい 15225
05 15216
師 15212
ックス 15206
の後 15203
アーティスト 15190
者が 15180
▁他の 15172
受 15165
スキャン 15160
返 15149
レイ 15148
務 15148
魂 15139
モバイル 15137
」( 15136
可能です 15134
全国 15125
した後 15124
シート 15123
ES 15110
ことがあります 15107
ミニ 15106
ダイ 15102
既存の 15096
lo 15092
パフォーマンス 15092
乗 15089
調 15067
▁私達は 15059
媒体 15058
ard 15054
ビル 15052
検出 15048
骨 15047
▁古い 15025
できません 15016
従業員 15013
ちょうど 15012
▁to 15005
おそらく 15001
お金 14988
▁' 14985
費用 14971
se 14970
リーダー 14967
英国 14957
正しい 14955
ヴィ 14951
学習 14938
であること 14934
um 14920
▁e 14917
聖 14913
どう 14904
米国の 14900
CD 14887
主要な 14882
のですか 14874
スタ 14873
ダンス 14870
若い 14866
MO 14862
最後の 14856
投票 14842
固定 14841
減 14839
差 14838
あなたに 14831
に加えて 14825
▁たとえば 14814
額 14813
ge 14809
▁ファイル 14796
意 14785
ガー 14774
世紀 14768
単に 14767
フィルター 14764
温泉 14763
する方法 14759
▁ホテル 14754
ウェブ 14754
満足 14751
ホット 14749
専門 14747
チャ 14729
発生 14722
強く 14721
素 14714
one 14700
の結果 14700
井 14700
os 14688
クト 14688
ダイヤモンド 14679
こう 14674
集 14674
ol 14671
特性 14671
彼等の 14669
自分 14667
▁パンドラ 14646
ra 14638
主張 14633
太 14631
サウンド 14621
ワン 14621
した場合 14619
エンジン 14618
ta 14616
近く 14614
されており 14611
ドライブ 14607
つく 14606
運営 14605
ソース 14593
レス 14593
球 14586
はまだ 14585
ディスク 14571
席 14571
▁このサイトは 14564
心配 14557
でしょうか 14554
ヘルプ 14550
異 14546
フォー 14538
ian 14534
の高い 14534
ハン 14534
マルチ 14529
合わせ 14529
と思う 14522
バイ 14514
士 14497
手順 14494
ネット 14472
▁15 14467
▁by 14465
既知の 14464
材 14462
ビーチ 14461
断 14451
もし 14437
ドア 14435
▁サーバ 14427
コミュニケーション 14427
を作成する 14420
ライブ 14419
十分な 14405
べ 14404
システムの 14400
TE 14394
にもかかわらず 14388
の間で 14388
ほとんどの 14380
用途 14379
アイ 14372
Booking 14355
Mac 14350
を用いて 14344
オブジェクト 14334
必要がある 14332
はまた 14323
具 14318
のすべての 14313
派 14313
プラ 14311
試 14309
突然 14307
人生 14297
週間 14285
55 14275
かなり 14274
真実 14259
ッシュ 14250
監督 14250
しております 14240
するため 14230
増加 14230
ありません 14224
▁The 14218
国連 14213
ul 14208
病気 14202
店舗 14201
であると 14190
事実 14186
酸 14182
助け 14170
起動 14169
草 14160
伝統的な 14153
ペン 14138
かれ 14134
▁若い 14129
時間の 14129
ング 14117
作り 14108
簡単な 14102
密 14098
庭 14093
ショップ 14088
何を 14081
十 14081
ブルー 14060
小さい 14055
端 14055
ていく 14042
アイデア 14036
モン 14031
以外の 14026
人口 14025
地方 14023
ことができない 13999
私に 13996
を使う 13986
記 13982
方法は 13980
回復 13978
ゆ 13975
記載 13974
!! 13973
応答 13973
レー 13969
電子メール 13967
輪 13958
強化 13957
ゾ 13953
の下に 13940
▁ロシア 13935
滞在 13917
冷 13913
訓練 13912
タグ 13909
バンド 13906
OS 13898
ビー 13892
傷 13886
▁Aurotek 13884
ベスト 13883
インドネシア 13876
go 13862
cm 13860
温 13849
一つの 13847
毎年 13837
持ち 13834
好 13829
テクノロジー 13828
プロパティ 13824
下の 13818
▁ここで 13813
▁もちろん 13811
我々 13809
▁だけでなく 13806
クラ 13785
切り 13780
完全 13780
立ち 13777
ール 13771
祭 13771
費 13768
これが 13767
ション 13767
試み 13764
ボード 13762
色の 13756
ity 13739
スタッフ 13732
▁« 13721
ow 13710
▁オーストラリア 13710
チュ 13709
塔 13707
フォーラム 13695
▁a 13690
午後 13686
となりました 13671
住宅 13669
同期 13669
企業の 13668
関心 13663
食事 13661
新規 13639
界 13639
▁Cookie 13622
見つけることができます 13620
プール 13612
満 13610
危険 13609
農業 13607
オフィス 13606
ということ 13605
79 13603
ログイン 13603
ウイルス 13602
を参照してください 13601
ファイルを開く 13599
圧力 13599
▁2015 13596
バックアップ 13580
フレンドリーな 13576
現象 13572
PS 13569
ER 13567
代表 13567
破壊 13565
信頼 13552
込む 13546
ru 13540
髪 13540
100% 13539
安定 13538
完成 13536
常 13535
手段 13528
の詳細 13520
比 13518
パワー 13514
表面 13514
日付 13508
ill 13504
ケー 13499
映像 13492
ここに 13486
現代 13474
かな 13469
コー 13469
大規模な 13467
出す 13466
副 13446
33 13440
龍 13428
さえ 13423
見て 13421
全体 13417
▁彼の 13415
皮 13414
完全な 13412
巨大な 13411
MS 13403
に基づく 13403
出し 13396
▁現時点では 13389
AS 13383
清 13383
禁止 13383
▁多くの 13380
注目 13374
形式 13365
時には 13364
時代の 13364
花配達を提供 13361
メイン 13359
ME 13355
クリック 13354
現 13354
▁その他 13349
▁All 13339
流れ 13339
AR 13331
服 13331
起こる 13330
▁ここでは 13329
▁ページ 13329
AC 13328
ポンド 13327
水の 13323
となっている 13322
実装 13321
取 13320
age 13318
up 13314
▁人々 13312
種類 13311
▁エ 13309
行き 13308
ON 13305
2018 13303
造 13300
アクション 13298
クロ 13298
ゲ 13293
SA 13282
地元の 13281
ザー 13272
銀 13259
デン 13258
つき 13246
ie 13245
組 13238
▁de 13230
閲覧 13227
ご注文 13221
38 13219
望 13215
と言う 13214
ポリシー 13209
店舗を見て 13209
SP 13208
朝 13207
ジュエリー 13202
you 13198
先生 13195
党 13176
テン 13172
▁のダウンロード 13171
科 13162
まさに 13160
電源 13158
na 13157
プレイヤー 13151
の変化 13148
の数 13145
減少 13140
37 13138
合意 13136
押し 13134
保管 13132
ということです 13131
ようです 13130
アー 13113
土地 13109
マル 13108
労働 13102
時間を 13097
としては 13096
全て 13082
どうすればよいですか 13080
日から 13077
遺伝子 13075
2016 13071
注 13068
広 13064
法人 13060
RO 13057
ヶ月 13052
▁Y 13051
est 13050
武 13049
悪い 13048
要 13035
承認 13031
それぞれの所有者に帰属します 13020
シーズン 13015
玉 13009
共同 13003
部屋 13000
ay 12996
番 12987
起 12983
そのまま 12980
地区 12974
▁mod 12963
参加者 12962
防 12962
知っている 12960
個人情報 12959
神の 12958
欧州 12957
限り 12955
検討 12952
落ち 12949
書き 12946
能 12944
工業 12940
の花 12936
演奏 12936
イタリア 12933
コマーシャル 12930
過去 12928
車の 12927
データの 12923
▁+ 12922
▁HTTP 12917
スーパー 12908
転 12906
つか 12901
進化 12901
▁彼女は 12900
することはできません 12891
がありました 12882
弱 12881
配布 12867
軸 12866
会場 12862
支配 12860
っていた 12858
ビール 12857
著作権 12853
不具合を修正しました 12852
徳 12851
ag 12850
▁2019 12850
最近の 12837
ne 12831
到着 12830
することが 12822
スマートフォン 12817
▁私たちのサイトでは 12811
神社 12807
ジー 12806
太陽の 12797
中で 12790
義 12789
▁Ch 12788
ただ 12784
者達 12784
発行 12776
していました 12771
要因 12771
長期 12769
ブラ 12759
床 12759
シーン 12750
ベッド 12750
個 12746
世界中の 12742
の作成 12741
未来 12738
ものである 12737
などを 12734
焼 12726
▁= 12718
▁ファイル拡張子 12718
スタート 12710
週 12699
ショッピング 12693
連携 12690
香港 12684
の変更 12683
収 12682
連続 12677
変数 12675
運転 12675
していく 12668
▁スイス 12667
ジャー 12667
タブを開きます 12664
プリント 12663
▁スケジュール 12658
ニング 12658
ファイルを取り扱うプログラム 12655
強力な 12655
問題が解決しない場合は 12654
連絡 12652
コンポーネント 12644
上昇 12639
乳 12638
行う 12637
可能性がある 12627
されません 12626
はこの 12621
これまで 12617
ホーム 12616
の中の 12613
しばしば 12608
フォーマット 12608
振 12606
vi 12603
示 12600
好きな 12593
いつも 12591
のですが 12589
されない 12586
住民 12579
取り組み 12579
逆 12573
メン 12570
コマンド 12568
フェスティバル 12562
年には 12562
生き 12559
▁Z 12554
スマート 12553
タブ 12544
一般的に 12543
留 12543
03 12542
ers 12542
中心 12540
ファイルを開くには 12532
時頃より 12531
事故 12528
統計 12528
通常の 12524
を持つファイル 12523
分子 12523
▁ご迷惑をお 12510
ST 12509
しましょう 12493
鳥 12493
600 12492
陽 12492
▁f 12488
まる 12486
▁面白い 12480
ていません 12477
幅 12476
ap 12471
マイル 12471
旧 12468
交 12467
結 12465
ファイル名の後に 12464
広く 12456
を見ることはできません 12455
ディスプレイ 12455
リゾート 12453
▁# 12449
の中心 12445
セッション 12444
女性の 12444
なければなりません 12442
雰囲気 12441
現実 12434
配 12431
ここ 12428
ment 12427
コンピューター 12413
ong 12412
圧 12410
各種 12395
400 12392
掛けして申し訳ございません 12392
IS 12384
砂 12377
▁少女 12376
表示されるようになっ 12375
を与え 12374
▁ご迷惑をおかけしました 12373
▁それが 12373
▁2016.11.2 12372
エラーが生じてい 12372
お問い合わせください 12369
性能 12369
2018.06.23 12368
▁ご利用ください 12368
脱 12367
動画の変換に 12366
2016.06.14 12365
▁Javynow 12364
▁最終手段ダウンロードページ 12364
災害 12363
を得る 12360
ピー 12356
08 12353
の存在 12340
ログ 12334
カテゴリー 12331
されていた 12326
AN 12324
意見 12321
発売 12320
トロ 12314
ファイル拡張子が 12314
▁シンガポール 12313
言 12313
フォルダオプション 12310
AI 12309
▁Extension 12308
コンピュータのユーザー 12306
標準設定では 12302
▁16 12299
拡張子が表示され 12295
のオプションを見つけ 12294
ファイルを含むすべての 12290
なし 12289
キーでそれを確 12285
具体的な原因を 12285
問題が解決しないこと 12285
診断すべ 12285
▁コンピュータにファイル 12284
がインストールされていても 12284
く専門家に 12284
そのチェックを外し 12284
それは簡単に変更することができ 12284
サービスを要請し 12284
ファイルの取り扱いに関する 12284
定してください 12284
拡張子を隠 12284
▁時にはコンピュータに 12283
▁新 12279
▁でも 12275
が必要 12272
はその 12272
冬 12266
記憶 12265
瞬間 12261
ぬ 12260
ドライバ 12258
▁MIDI 12251
事件 12251
マウス 12250
内部 12238
88 12234
保険 12229
▁iPhone 12228
父 12227
を持ち 12225
多数の 12222
一度 12220
太平洋 12216
制 12215
ッド 12213
は存在しません 12209
そこ 12206
頃 12206
箱 12201
適用 12194
既に 12192
▁料金 12191
携帯電話 12189
限定 12182
今後 12178
使用する 12176
職 12176
細 12175
ポリ 12165
2015 12151
ギャラリー 12146
年齢 12146
の公開を 12142
▁¥2 12140
に向けて 12137
ライブラリ 12133
研究者 12128
▁当社は 12125
適 12119
▁Ma 12115
を行います 12111
ユ 12105
防止 12104
できるように 12102
34 12094
AT 12091
国立 12091
▁c 12088
首 12081
成都 12079
霊 12075
指示 12074
完了です 12073
ロール 12070
ほか 12068
衛星 12063
のいずれか 12058
感情 12057
良く 12054
ジョ 12052
と助言 12043
遠く 12036
抵抗 12034
豊かな 12031
▁日本の 12030
受け 12028
深く 12027
▁女性たち 12026
支払い 12024
がん 12023
▁4. 12017
ベン 12012
man 12011
ブッシュ 12007
▁サイトには 12005
であります 12003
オーストラリア 12001
メディアコンテンツ 12000
▁JKT 11999
インチ 11999
める 11998
75 11997
進 11997
たくさんの 11995
八 11988
べき 11987
シャツ 11986
非常に人気がある 11985
▁少年たち 11984
池 11981
固 11977
低い 11975
LO 11971
を介して 11970
ドイツ 11970
情報は 11970
を持つことである 11969
▁笑う 11968
を見つける 11968
▁失敗する 11967
▁2014 11964
▁苦しむ 11964
タイトル 11960
# 11954
れた 11954
手法 11947
運用 11944
▁皆のために 11941
▁30 11939
▁ミーム 11939
事項 11937
困難 11937
▁私が 11934
▁そう 11932
▁最初の目標は 11930
同意 11928
流し釣り 11928
録音 11927
▁このサイト上のすべての 11925
▁内容物を 11925
▁錯視 11925
達は 11924
▁風刺画 11923
するように選択される 11923
卵 11923
▁または任意の他の 11922
を通して楽しみ 11922
46 11921
ess 11921
▁おもしろビデオ 11920
▁保持すること 11920
のグループにリンクされている 11920
場所となることを目指してい 11920
注意深く品質 11920
誰もが共有できる 11920
壁 11917
午前 11914
政治 11911
状 11909
安全な 11906
▁プロフェッショナル 11896
女の子 11890
SI 11886
あと 11879
グリーン 11877
▁製品 11872
ee 11871
背景 11871
消費 11869
だが 11868
正確な 11866
構築 11865
窓 11862
要件 11860
ハウス 11855
達成 11852
周辺 11848
を取る 11847
タクシー 11845
風景 11845
外国人 11840
の影響 11833
酒 11832
アップデート 11830
したこと 11828
集団 11825
出荷 11819
身体 11819
▁TRY 11818
してきた 11818
コーヒー 11812
44 11803
ファイルを含め 11796
レプリカが 11791
ant 11788
ことができ 11787
していること 11783
hi 11782
問題は 11779
son 11775
▁• 11774
通貨 11766
だまされてはいけません 11762
センサー 11758
数字 11751
サポートする単一の 11749
選挙 11749
入り 11745
レベルの 11735
【 11731
られている 11731
の写真 11730
の位置 11728
良 11721
日本人 11709
地図 11705
見る 11702
▁一方 11692
SE 11689
を提供 11689
推進 11689
ときは 11687
ニーズ 11682
専門家 11681
貢献 11666
末 11665
EU 11663
フィードバック 11660
コア 11659
越 11659
sh 11658
を提供し 11658
すぐ 11654
ブリ 11651
ベトナム 11649
理論 11647
▁14 11644
丸 11642
の世界 11639
効率 11638
ノー 11633
フォルダ 11631
ell 11629
周波数 11627
ou 11623
落 11623
感謝 11620
US 11618
ります 11615
展 11611
ローカル 11602
ce 11595
守 11592
次元 11591
場所で 11590
将来 11588
結合 11580
TM 11579
第三者 11574
それに 11573
苦 11561
の制作元 11560
管理者 11554
の長さ 11544
ix 11543
カバー 11542
▁St 11538
の最初の 11537
美術館 11536
ップ 11530
ピン 11527
ユーザーの 11524
権限 11522
接 11520
ハード 11514
勝 11512
イメージを保存 11507
アプリを起動します 11505
以前 11502
皮膚 11500
▁100 11498
同時に 11493
チン 11489
を有する 11486
言い 11486
家の 11472
壁紙に設定 11469
▁との 11468
▁ユーロ 11466
部分をタップし 11464
画像の赤枠 11462
▁ホーム画面に戻り 11461
切 11461
画像は 11461
設定したい箇所を選択し 11461
▁ダウンロードした画像 11460
▁赤枠部分 11460
の保存と変更 11460
画像を長押しして 11460
弾 11458
生物 11458
をもたらす 11444
▁なお 11442
Pandora 11435
を設定します 11434
キリスト 11431
end 11430
ご使用 11427
相手 11427
申請 11421
MI 11417
にあり 11410
pe 11409
からです 11405
無料の 11405
do 11404
ユニークな 11404
給 11399
判断 11395
パラメータ 11390
洪水 11389
con 11387
弁 11384
観光客 11381
セミナー 11380
▁そこで 11378
殺 11368
言った 11368
使う 11362
2014 11359
多分 11358
傾向 11356
ファイルの 11355
画 11354
論文 11352
ヨ 11343
オー 11342
楽しい 11342
の利用 11341
キャンペーン 11341
を使用しています 11337
▁バージョン 11335
年以上 11334
成分 11332
諸国 11332
ha 11330
事務所 11329
と同様に 11319
まり 11319
基本 11315
装飾 11315
▁ゲーム 11310
を設定する 11307
感覚 11301
夫 11299
キャンセル 11298
を使用します 11288
体制 11287
レース 11284
速 11281
することもできます 11280
京都 11276
トレーニング 11274
In 11272
▁MDR 11272
都 11264
プル 11263
校 11262
見え 11262
プリ 11261
を取得 11248
証拠 11247
違う 11245
長く 11245
スピード 11240
レンズ 11238
記述 11235
違い 11233
▁24 11220
九 11218
緑 11217
ブラック 11216
▁そのため 11208
深 11206
日間 11204
引き続き 11200
▁ゼータトーク 11199
▁IP 11197
レイアウト 11196
導入 11193
強制 11190
グル 11189
笑 11188
宿泊 11187
便 11186
られます 11179
削減 11163
スポット 11162
履歴 11160
読み 11157
合い 11156
ミリメートル 11154
もない 11153
受信 11148
させた 11147
お問い合わせ 11146
隠 11142
を超える 11141
基盤 11141
意図 11141
our 11139
好み 11135
▁光州観光 11134
ロンドン 11131
一部 11122
させて 11119
つけ 11117
をクリックして 11117
場所に 11113
に加え 11109
覚 11109
使い 11108
季節 11105
のお 11103
ものは 11096
ずっと 11094
ok 11085
離 11084
輸出 11081
感染 11078
ver 11077
肌 11075
はそれだけではありません 11074
ユニット 11074
47 11072
のに役立ちます 11072
km 11070
する前に 11070
庭園 11069
退 11068
ET 11066
売 11066
ローマ空港 11063
車両 11063
タスク 11062
AP 11059
人と 11058
始まり 11054
創 11053
▁Web 11050
39 11049
森 11032
に関する問題の原因 11017
EX 11016
ビット 11015
浮 11013
を中心に 11012
港 11012
終 11012
るように 11009
送迎 11003
68 11002
99 11002
スの 11001
記念 11001
遊 10997
時間が 10995
爆発 10993
認定 10987
アプローチ 10986
時間は 10982
わずか 10981
ci 10976
観察 10974
ホスト 10971
何が 10967
任 10964
CA 10963
巻 10963
150 10962
ポール 10960
重量 10957
割引 10953
プロジェクトの 10951
地域で 10950
やすい 10949
ab 10947
てきました 10943
年代 10942
ることができます 10939
下げ 10939
▁Part 10938
パラ 10931
総合 10927
いただけます 10925
ますます 10922
ジン 10922
ウォッチ 10921
▁13 10920
音声 10920
思い出 10916
私達が 10912
の一つ 10907
病院 10906
▁Mo 10905
▁中国 10896
一日 10896
過去の 10895
カテゴリ 10893
程度 10887
バル 10885
、30 10882
精度 10881
歯 10877
の場合は 10867
カップ 10866
モノ 10862
ルー 10861
リソース 10858
今まで 10858
枚 10857
セン 10854
選 10854
精神 10853
ファー 10852
請求 10844
宗教 10840
業者 10838
らない 10836
会社の 10831
アイコン 10830
自動的に 10827
間に 10826
されること 10823
▁『 10817
誰 10816
形成 10815
株 10815
カット 10809
主義 10807
ホワイト 10803
Re 10801
大臣 10800
されていません 10797
敵 10794
ゲスト 10793
来る 10790
静 10788
ことによって 10786
▁USD 10784
q 10772
▁Le 10768
維持 10768
きました 10763
」、「 10756
工 10756
の内容 10755
インポート 10753
庁 10750
福 10747
-1 10744
検証 10743
通過 10743
キング 10736
になっています 10734
下記の 10733
チェ 10732
バランス 10726
レーション 10722
級 10716
試合 10715
気持ち 10713
▁ID 10703
秋 10699
順 10693
pro 10692
専用 10687
の流れ 10685
彼ら 10684
最後に 10681
42 10680
ボー 10678
プラグイン 10677
クリ 10675
グラ 10667
メモリ 10661
▁ディレクティブ 10657
ba 10654
ヘッド 10653
できた 10651
クロス 10641
クレジットカード 10638
ちょっと 10636
ページの 10636
署名 10632
財団 10626
航空 10624
視 10621
86 10616
たら 10615
の上 10614
SC 10610
幅広い 10608
にする 10607
快適さ 10607
▁La 10605
軌道 10605
進行 10603
を行った 10602
を見た 10600
コンセプト 10599
燃料 10598
留学 10595
自身の 10594
AM 10592
性の 10592
▁つまり 10589
竹 10588
家庭 10585
推奨 10584
▁° 10575
営業 10572
ステ 10570
ソー 10564
側面 10559
企画 10558
ジョン 10548
▁お問い合わせ 10544
十分 10538
に必要な 10537
表示されます 10535
短い 10534
時期 10533
マーケット 10532
伝統 10530
プロフィール 10529
金額 10529
袋 10528
2019 10522
ものを 10522
応用 10521
▁ニュージーランド 10518
財布 10518
▁スウェーデン 10513
2000 10510
NO 10510
早く 10507
を受けた 10506
ベースの 10506
社の 10506
なります 10505
基本的な 10501
AV 10496
白い 10496
リアルタイム 10495
帯 10492
シェア 10488
裏 10487
国民 10485
上げ 10484
銀河 10480
気候 10470
に対応 10465
最終 10462
疾患 10462
▁今回の 10460
レビュー 10453
考慮 10453
od 10449
ボディ 10448
継続 10447
恐れ 10446
の範囲 10442
カスタマイズ 10438
グループの 10435
湾 10434
無料で 10431
従来の 10425
河 10425
1000 10422
海の 10422
妻 10420
デザイナー 10419
に関連する 10416
暗号化 10416
いっそう 10411
せる 10409
被 10408
罪 10406
カスタム 10405
州の 10400
ti 10393
圧縮 10393
これら 10391
そうです 10383
郡 10383
偉大な 10382
DC 10379
合う 10377
完了 10375
電圧 10375
wigs 10374
飛行 10373
伝 10371
タイプの 10370
パート 10370
ミン 10369
失 10365
大人 10364
圏 10349
余 10347
あまりにも 10344
勝利 10342
資産 10342
力を 10338
スペイン 10332
ニューヨーク 10329
▁Android 10327
▁米国 10327
スタン 10323
49 10322
▁プロジェクト 10317
興味 10308
個々の 10304
混乱 10300
AD 10299
の選択 10298
▁データ 10295
実現 10295
過程 10294
2012 10291
URL 10291
にして 10290
遠 10287
規定 10284
裁判所 10283
スキー 10281
野菜 10279
カフェ 10275
域 10274
氷 10274
史 10268
赤い 10267
▁詳細経路情報 10260
▁~ 10258
することにより 10255
あまり 10250
SD 10248
であれば 10245
▁2013 10242
ルド 10241
医師 10235
複雑な 10235
さんの 10226
の増加 10225
を実行する 10225
...... 10224
ていること 10218
英 10208
自分自身 10206
犬 10204
兵 10203
選択した 10201
fe 10195
除 10195
消 10193
▁17 10188
はない 10187
レコード 10186
軽 10184
についても 10181
▁チェコ 10179
番目の 10178
来た 10176
決して 10173
バイオ 10171
結婚 10169
ユーロ 10167
にアクセス 10166
の原因 10166
▁なぜ 10164
に戻る 10159
競争 10154
シフト 10153
フィリピン 10153
チャット 10146
神経 10145
▁カ 10143
役割 10140
へのアクセス 10139
十分に 10139
ist 10138
CC 10135
炎 10135
人たち 10133
とし 10130
分離 10125
型の 10115
義務 10112
鉄道 10111
商 10109
われ 10105
採用 10104
▁そのような 10102
▁ウクライナ 10102
・・・ 10096
タル 10095
2013 10091
DE 10089
もある 10088
向 10087
▁OS 10084
靴 10084
ho 10081
だから 10080
目に 10080
ルーブル 10077
起こ 10077
set 10074
ub 10073
ma 10070
▁次の 10070
公式サイト 10067
湯 10066
65 10065
初期 10064
破 10064
より良い 10061
参 10055
▁County 10053
客室 10052
張 10050
走 10047
難しい 10047
複製 10046
に参加 10041
うまく 10040
する必要がある 10037
天然 10037
を引き 10029
措置 10028
まれ 10024
いただく 10023
フロー 10023
喜び 10023
振り 10019
二つの 10017
最初 10006
▁同 10003
スキル 10000
▁リ 9998
が含まれています 9997
際に 9997
ワークショップ 9996
▁CAD 9995
フレーム 9991
指導 9991
乾燥 9989
鋼 9980
きます 9979
桜 9974
設置 9974
▁南アフリカ 9972
アメリカの 9970
近くの 9967
のだ 9961
修復 9960
▁サウジアラビア 9959
宣言 9959
▁これが 9948
59 9945
彼女 9945
形で 9943
膜 9942
古代 9937
▁お客様は 9936
ak 9931
ton 9927
をご 9922
ニビル 9917
雇用 9915
bi 9909
することができ 9908
▁Tokyo 9906
方針 9906
お客様に 9905
クリップ 9905
名の 9905
を作り 9904
メールアドレス 9903
マクロ 9900
休 9900
商業 9896
一致 9894
▁$ 9892
方法を 9892
焼き 9892
育 9891
損害 9888
会話 9887
からのタクシー 9884
秘密 9884
信頼性 9881
追跡 9881
高級 9880
写真を 9879
ブロックチェーン 9877
保持 9876
居 9876
久 9872
当該 9869
▁g 9865
大型 9865
グラス 9862
みんな 9860
早 9859
万人 9855
しなければならない 9851
石油 9851
クローナ 9848
最適化 9847
黄 9842
をした 9839
▁EUR 9838
ドキュメント 9838
形状 9838
点で 9832
いくつか 9830
▁ノルウェー 9821
送 9818
TO 9816
少ない 9815
独立 9814
広場 9810
一つ 9808
を開催 9798
彫刻 9796
LA 9793
損失 9792
いかなる 9791
今年 9786
スレッド 9785
ive 9784
私たちが 9782
▁無料 9781
最新 9781
加速 9780
▁Co 9779
トークン 9778
市の 9776
オリジナル 9770
が可能です 9767
生成 9765
失敗 9760
共和国 9757
ut 9753
▁高 9753
自身 9749
をして 9748
なければ 9747
ダイヤル 9747
特許 9747
マーカー 9746
ツリー 9741
ことになります 9740
案 9740
高度な 9739
価 9738
舞台 9736
レンタル 9735
BA 9732
いく 9730
▁デンマーク 9727
ゴールド 9726
に追加 9725
もので 9721
を使った 9719
物語 9708
すべてが 9707
世界で 9706
EL 9705
▁5. 9705
積 9703
香 9701
訳 9700
ストラップ 9699
ud 9698
RI 9695
火山 9694
を使用 9690
とか 9689
気が 9689
ことも 9683
コイン 9683
は何 9680
報 9680
をはじめ 9678
段 9675
個人情報を 9674
プロファイル 9672
▁米ドル 9671
ああ 9671
づ 9670
▁Di 9667
個の 9666
んです 9663
の高さ 9660
を選択する 9660
▁システム 9659
をもって 9658
最終的に 9655
▁Con 9654
乱 9652
合成 9645
抗 9643
実際には 9642
TA 9641
担当 9640
サイド 9639
里 9627
までに 9626
を実行 9622
クス 9621
我々が 9620
状態で 9618
長さ 9618
ないように 9617
の各 9609
out 9608
友達 9607
進む 9606
練習 9604
込まれ 9603
るために 9600
液 9599
ハー 9597
投資家 9597
億円 9596
ec 9595
マイクロ 9591
全く 9587
▁更に 9584
単位 9583
58 9576
The 9576
もちろん 9574
フィート 9574
LIMU 9573
▁イ 9572
43 9569
やって 9556
子供たち 9554
▁日本円 9550
▁概要 9548
ものの 9545
洋 9543
メキシコ 9541
方は 9541
世界遺産 9540
国際的な 9537
粉 9533
が可能 9531
エイ 9524
許 9517
▁ステップ 9514
▁写真 9513
京 9512
両方の 9510
に向けた 9508
▁AUD 9504
ロボット 9503
する場合 9502
▁いくつかの 9500
容量 9494
工学 9493
センチ 9489
ダン 9487
牛 9484
▁カナダドル 9481
ワー 9480
人々に 9480
ph 9478
ケア 9478
大学の 9476
格 9473
へのリンク 9471
▁中国人民元 9468
ロレックス 9468
博士 9466
85 9462
iz 9462
朝鮮 9460
▁SAR 9459
マドリード 9459
チャンス 9456
創造 9455
厳しい 9452
ターゲット 9451
DA 9449
milfs 9443
ポスト 9438
be 9434
St 9433
▁一 9430
広い 9430
▁GBP 9429
ピクセル 9427
▁当 9425
百 9424
Fi 9423
ステージ 9423
▁JPY 9420
件 9420
労働者 9420
の木 9419
▁b 9415
54 9413
1) 9408
チャー 9406
行った 9400
殿 9396
製作 9396
テロ 9395
▁今回 9394
っと 9392
などが 9390
▁ブレスレット 9389
らず 9384
大阪 9378
留学生 9374
▁SEK 9371
仲間 9371
▁スターリング 9370
bo 9369
支払 9369
▁ヘルプ 9367
達が 9367
蔵 9366
▁ご注文 9362
上記の 9360
▁詳細 9359
の研究 9357
商標 9357
コルナ 9355
イラン 9354
医学 9349
やかな 9348
▁CHF 9341
オイル 9341
▁CZK 9339
字 9339
▁CNY 9338
の状態 9338
プレーヤー 9332
方式 9331
研修 9331
誌 9330
ect 9328
片 9328
eng 9326
フロント 9324
の向上 9322
お使いの 9320
▁RUB 9319
でない 9315
暗号 9313
ウェイ 9309
カナダ 9309
おいしい 9306
いません 9304
不動産 9304
約束 9302
開発者 9300
消費者 9298
mi 9296
いつ 9294
祭り 9294
しても 9291
当たり 9287
ラベル 9286
大変 9285
オブ 9284
チップ 9283
栽培 9283
の一 9280
公演 9280
可 9278
▁NOK 9277
を変更 9275
宿泊施設 9274
ピーク 9272
比較的 9268
▁このように 9267
オーバー 9263
リヤル 9262
文字列 9259
▁ZAR 9255
シンガポール 9254
称 9253
ファイ 9248
PANDORA 9246
などで 9244
切れ 9242
クロノグラフ 9238
の活動 9234
▁SGD 9232
キャリア 9231
▁HKD 9227
かかる 9224
▁香港ドル 9223
もまた 9222
念 9222
52 9220
▁KRW 9220
ことはできません 9220
スクリーン 9220
緊急 9220
▁BRL 9216
▁UAH 9215
証 9213
▁DKK 9212
一方 9211
日本で 9210
ティング 9209
トルコリラ 9209
提出 9209
ブラジルレアル 9208
▁NZD 9207
ものではありません 9205
シティ 9203
フリヴニャ 9201
彼女が 9201
大韓民国ウォン 9200
破損 9198
依存 9195
▁2012 9185
▁国際 9185
高く 9183
▁ローマテルミニ 9180
出発 9178
システムは 9175
者に 9170
見られる 9170
▁マ 9169
ノード 9164
伝説 9163
lu 9162
ust 9159
手に 9157
治 9156
回路 9155
66 9152
ためには 9152
port 9150
利用者 9150
促進 9147
コール 9145
ポー 9145
エフェクト 9144
▁つ 9143
島の 9143
ence 9140
の下 9140
ast 9136
ボート 9136
必要性 9135
ダイアログ 9133
診断 9133
降 9132
数は 9131
2008 9130
日まで 9128
56 9127
新たに 9127
言及 9124
将来の 9118
まとめ 9114
樹 9114
至 9114
に保存 9112
需要 9108
の特徴 9107
ております 9105
仕事を 9105
願 9102
ショ 9101
▁Wiki 9096
一部の 9096
得る 9091
症状 9090
比較 9087
トランプ 9085
体の 9085
モー 9083
クラウド 9079
一人 9075
を作成 9073
やすく 9072
で最も 9065
お勧め 9064
の色 9063
豊富な 9062
登場 9061
が多く 9059
調理 9057
軍事 9057
アルバム 9055
,5 9053
パリ 9053
小型 9053
貴重な 9052
2007 9051
充電 9051
紛争 9050
tion 9049
彼に 9047
仲裁 9044
log 9042
ディング 9040
ようになった 9036
けど 9035
暗号通貨 9031
難 9030
▁d 9022
出て 9022
jp 9020
SO 9019
開示 9018
TV 9015
da 9015
老 9013
基金 9012
確かに 9011
磁 9010
ina 9003
ぜひ 9002
割 9001
耐 9000
69 8998
人類 8996
少年 8988
に入る 8986
危機 8984
定期的に 8979
散 8976
を受ける 8972
沈 8970
LED 8968
バラ 8968
順序 8968
PA 8967
フォ 8964
以降 8963
招待 8961
損傷 8954
なしで 8952
警察 8952
78 8950
世代 8950
始め 8948
原料 8946
課 8945
面積 8944
有効 8937
ラム 8936
あった 8935
政府の 8934
オバマ 8932
周 8932
選択肢 8931
束 8930
ゴルフ 8928
支持 8923
カラ 8920
美術 8918
アップグレード 8917
を開く 8916
▁水 8908
なのです 8902
関係者 8897
しよう 8895
ヴァ 8892
53 8891
テル 8890
ホテルの 8890
▁京都 8887
聖書 8887
隊 8886
もなく 8881
講演 8881
勉強 8879
時刻 8878
耳 8878
が多い 8875
焦点 8870
補助 8870
代わりに 8868
手続き 8868
結び 8868
自転車 8863
製品は 8856
▁2011 8853
訪問者 8852
ゾーン 8850
プレ 8850
問 8848
チベット 8846
の説明 8843
作家 8843
ビジョン 8839
なくて 8835
項 8835
▁まず 8832
手紙 8832
UN 8825
スクリプト 8822
ack 8821
皆様 8819
どこ 8818
多様な 8818
それから 8814
ite 8810
作用 8806
劇場 8806
た場合 8798
オリンピック 8797
を使用すると 8796
▁コマンド 8793
することによって 8792
工程 8792
反対 8790
虫 8790
盤 8789
衝撃 8789
62 8785
娘 8783
有機 8782
RA 8779
振動 8774
▁ゼータ 8772
ですね 8768
EC 8767
押 8767
解釈 8764
mon 8763
...€ 8760
の発展 8760
復元 8758
他に 8756
政 8756
違反 8755
森林 8752
ホイヤー 8749
撃 8748
▁三 8747
新鮮な 8746
子ども 8745
ip 8744
は常に 8744
寺院 8744
ビン 8743
大陸 8743
好き 8741
荷 8741
を行って 8739
単語 8738
-2 8735
向き 8735
差し 8735
族 8734
が必要な 8731
半分 8730
の管理 8724
der 8723
if 8723
リード 8722
放送 8721
諸 8721
をインストール 8716
同様に 8716
飛行機 8716
コンサート 8713
識別 8713
と述べた 8709
本サイト 8709
魅力 8709
CH 8707
岡 8706
の新しい 8701
ーン 8701
予算 8701
ウィ 8699
▁コ 8698
宝 8697
レッド 8694
益 8694
▁株式会社 8693
見た 8692
無線 8691
わり 8688
集中 8688
吹き 8687
証明 8686
を用いた 8684
上海 8684
使用される 8684
変動 8684
せず 8683
の場所 8682
ps 8680
統一 8679
の動画 8675
社は 8675
立て 8671
アリ 8670
5% 8669
場合に 8666
利用可能な 8664
安全保障 8664
放 8664
絶 8664
人を 8663
初の 8663
に合わせて 8662
息子 8659
はすべて 8658
オリ 8658
衝突 8658
きた 8653
グリ 8651
藤 8651
▁通常の 8649
tra 8648
昨年 8644
を楽しむ 8643
法的 8641
今後の 8637
刺激 8636
を高める 8631
インフラ 8629
ハードウェア 8623
▁図 8619
侵害 8619
明るい 8616
頻繁に 8616
ミックス 8615
気圧 8614
弊社は 8612
こともできます 8611
ラジオ 8610
▁世界 8606
づくり 8605
ヒト 8604
除去 8603
% 8602
事前に 8600
そこで 8599
手数料 8597
-8 8594
共 8593
川の 8593
の大 8591
屋根 8590
羽 8587
エディター 8585
のメンバー 8579
レート 8576
▁h 8575
トルコ 8575
洗浄 8572
を利用して 8571
するのは 8565
▁on 8564
話を 8564
姿 8563
天気 8561
民間 8559
地下 8557
民族 8557
たちの 8556
▁イベント 8554
懸念 8548
菌 8548
端末 8547
ベー 8545
働き 8545
跡 8540
さんは 8537
援助 8537
Android 8536
シミュレーション 8533
▁最初の 8529
パーティー 8528
筋 8527
お店 8521
柱 8519
かつて 8516
▁Av 8514
自分が 8511
\ 8501
メソッド 8500
北京 8500
寝 8499
皆 8498
ワーク 8497
▁現在の 8494
眼 8492
ゼータ 8487
していません 8485
仕上げ 8485
▁以下の 8479
tri 8477
ギリシャ 8477
生地 8477
分野で 8471
収益 8471
北極 8470
95 8468
においては 8468
楽しみ 8468
情報の 8465
済み 8463
▁ある 8462
を利用する 8462
信仰 8462
ものと 8458
単 8455
top 8454
快適な 8453
クリーム 8451
海岸 8451
写真は 8450
▁同じ 8447
が高い 8447
の可能性 8447
▁ご 8446
ほ 8445
▁re 8439
ストア 8438
機能を 8435
更に 8434
貴 8434
をより 8431
-5 8430
プロモーション 8421
IR 8418
ka 8418
粒子 8418
編 8418
のデータ 8416
データは 8416
適切に 8416
に関する情報 8412
形態 8411
NE 8407
に位置し 8407
▁最後に 8406
ue 8402
目の 8401
プライバシー 8399
実践 8398
スコア 8397
度の 8397
▁従って 8384
を知る 8384
スタンプ 8384
LINE 8383
李 8381
演 8381
so 8380
41 8376
プラスチック 8374
今回の 8371
泊 8371
Bitcoin 8369
MB 8368
グラフ 8368
富 8368
アップロード 8367
がこの 8366
オペレーティングシステム 8366
を購入する 8365
になると 8364
のひとつ 8364
に基づき 8358
の値 8358
着用 8355
▁それから 8352
本社 8351
寄 8350
スパ 8345
OR 8341
に接続 8340
キャンプ 8339
理由は 8336
ana 8335
事前 8333
からの送迎 8331
興味深い 8329
ter 8327
tube 8322
▁v 8318
× 8315
利用できる 8311
徒歩 8310
フォト 8307
が含まれます 8304
一方で 8300
活躍 8299
掛け 8298
閉 8297
すぎる 8296
の表示 8295
マレーシア 8295
極めて 8295
徐々に 8291
ner 8290
▁CGI 8288
の後に 8288
▁ボックス 8285
に近い 8282
シングル 8282
ける 8280
に関しては 8280
何らかの 8280
陰 8279
を確認 8277
ide 8276
反射 8274
合計 8273
規模 8269
だけです 8267
向けの 8266
誰も 8266
印象 8265
協定 8261
オランダ 8259
▁Wikia 8258
ピア 8255
恐怖 8252
kg 8250
120 8248
ないこと 8248
正確に 8246
犯罪 8245
パック 8240
▁本日 8237
歳の 8236
ラル 8234
▁PDF 8231
ドライバー 8230
数値 8230
したら 8227
able 8226
▁2010 8219
▁— 8219
▁日付 8218
の製造 8218
ポンプ 8218
考える 8218
Wiki 8213
ていきます 8212
条約 8210
の違い 8207
社長 8206
▁w 8204
スイッチ 8199
ロシアの 8199
技術の 8198
を参照 8196
弊社 8196
著者 8194
西暦 8193
券 8191
を表示します 8190
Adobe 8187
パンダ 8187
であることを 8186
持 8183
ash 8182
ゲームの 8181
運 8180
角度 8176
打 8175
授業 8175
複数 8174
津 8171
電流 8171
時代に 8170
ラウンド 8169
打ち 8169
シンボル 8165
頼 8165
丘 8162
主要 8162
を置く 8159
照明 8159
現場 8156
的で 8156
を削除 8155
が始まった 8154
フィルム 8154
の生活 8149
Wallpapers 8147
人達 8144
光の 8144
戻 8143
規格 8140
ヒント 8138
分割 8135
印 8134
▁Li 8133
▁サポート 8133
トル 8133
▁画像 8127
po 8124
▁» 8120
させること 8117
に参加する 8117
洗 8117
話す 8116
▁Ro 8111
ファイルが 8111
兼 8111
発電 8110
HA 8109
2003 8108
胸 8108
サル 8106
経路 8104
スケール 8103
がその 8102
対話 8102
相互 8102
融合 8102
900 8101
▁当社の 8101
ページに 8100
本当の 8099
見える 8098
NA 8096
むしろ 8096
改革 8096
合金 8095
にわたって 8093
he 8090
汚染 8089
クリスマス 8087
自分で 8087
市場の 8086
どこに 8085
以前の 8077
ary 8073
回答 8072
整備 8072
連邦 8070
もう一つの 8065
縁 8063
インタビュー 8058
エア 8057
ED 8056
歩 8053
サイクロン 8051
輸入 8049
なって 8048
ナン 8048
デイ 8040
挿入 8039
高度 8038
るべき 8035
水を 8034
を求め 8032
ていて 8031
に向かって 8031
エクスポート 8029
善 8028
朝食 8028
▁ビデオ 8026
と同時に 8026
▁25 8023
魅力的な 8021
科学技術 8018
ance 8017
om 8017
製の 8017
リティ 8014
盛 8014
分散 8011
組み合わせ 8011
もはや 8009
品種 8009
を再 8007
資格 8004
なっている 8003
ロス 8002
六 7999
古代の 7999
▁サイズ 7998
レッスン 7998
を実現 7996
皆さん 7996
解像度 7995
最小 7994
に同意 7993
ty 7992
ダム 7990
プログラムは 7990
ぐらつき 7989
si 7988
夏の 7986
ミー 7985
ost 7984
交渉 7984
▁Research 7982
をダウンロード 7981
67 7979
ミス 7979
離れた 7978
リモート 7973
を使用した 7972
研究開発 7971
▁花 7968
オメガ 7967
備え 7965
▁チャーム 7964
の提供 7964
乗り 7963
荒 7962
ct 7960
▁記事 7959
若者 7959
2. 7957
場合によっては 7956
ご予約 7954
優先 7953
ヘル 7952
DB 7949
イノベーション 7949
はず 7946
ところで 7944
ほう 7939
イラク 7939
ことにより 7935
回収 7934
2010 7933
日本時間 7932
詩 7932
スタジオ 7930
値を 7930
祈り 7929
当サイト 7927
鍋 7925
たちが 7923
ループ 7923
活動を 7923
滅 7923
新聞 7919
ようになりました 7918
クレ 7917
ドー 7916
投げ 7915
チェーン 7914
旨 7912
製品を 7911
後で 7909
ron 7907
ムーブメント 7905
tal 7903
コック 7902
仕組み 7901
普通 7899
ロゴ 7898
国境 7896
載 7896
キュ 7894
予防 7893
がある場合 7891
ナイ 7890
炭 7890
出版 7889
会長 7886
営 7886
防水 7884
こそ 7881
使用することができます 7881
お客様が 7876
完璧な 7876
DO 7873
所有 7872
人気の 7869
修 7868
ますが 7866
タングステン 7866
のウェブサイト 7865
CM 7862
社会的 7862
現地 7861
フィルタ 7860
出した 7857
画面上 7855
を食べる 7851
きて 7850
を感じ 7850
含まれ 7850
アフガニスタン 7849
置 7849
ドン 7844
を感じる 7842
▁i 7841
網 7840
Wi 7838
▁その他の 7838
700 7837
個人情報の 7837
政府は 7836
若 7836
仕 7830
サービスを 7829
相談 7829
ドゥ 7827
写 7826
IE 7825
感じる 7824
主な 7822
事を 7822
プライベート 7821
影 7817
行政 7810
-3 7809
だけが 7807
眠 7807
成果 7805
短 7805
ストレス 7800
-7 7798
▁私達 7798
宗 7795
関 7795
96 7793
ミング 7792
▁支払い 7790
時は 7786
クター 7785
過去に 7783
底 7779
日常 7779
OP 7778
▁詳しくは 7776
おき 7776
▁FANDOM 7775
セックス 7774
NASA 7772
過ぎ 7772
側の 7767
空の 7763
礼 7762
お支払い 7761
建 7760
▁これらは 7759
、『 7758
ご利用 7758
七 7757
powered 7756
搭載 7755
TR 7751
を購入 7750
ベルト 7750
情 7748
地上 7743
致しました 7743
当時 7741
を指定します 7740
みな 7739
出来事 7739
ミッション 7735
ユーザーは 7734
方が 7732
プリセット 7731
ウェ 7729
独 7729
られました 7727
込んだ 7725
養 7725
為 7723
2020 7721
ッチ 7718
sc 7716
▁Al 7716
土壌 7716
を行いました 7715
基礎 7714
当局 7714
厚 7710
閉じ 7706
利点 7703
口座 7703
天候 7702
ろう 7694
不可能 7694
大学院 7692
ケーキ 7688
ドレス 7687
サイクル 7686
▁ただ 7685
かす 7683
つまり 7682
スは 7682
ものに 7681
特定 7680
ara 7672
レベルで 7672
分類 7671
ドメイン 7670
にお 7669
優 7669
無効 7669
Pro 7668
▁サイト 7667
閣 7666
グループは 7665
に含まれる 7664
のリスト 7661
包 7661
解説 7661
高さ 7661
なくても 7658
世界に 7658
を入力します 7653
に特化し 7652
の人々 7652
人材 7651
COM 7650
あなたがた 7648
してから 7643
▁This 7642
PDF 7641
花屋 7641
ノイズ 7640
便利な 7640
環境変数 7640
忘れ 7639
腕 7639
手を 7638
デバイスの 7632
方向に 7628
株式 7628
詳細な 7628
説 7626
サービスの 7624
メンズ 7624
害 7623
脆弱性 7621
車種 7620
プレートの 7619
98 7618
97 7613
を支援する 7613
▁オプション 7609
なしに 7609
すなわち 7607
は本当に 7607
を求める 7607
シャワー 7607
ドラム 7607
タンパク質 7603
BR 7602
を必要とする 7602
ボディー 7602
カリ 7598
少 7598
決済 7598
トピック 7597
実績 7597
するのに 7596
住所 7594
lic 7593
があれば 7592
不安 7592
2006 7591
突 7591
つつ 7589
スイス 7589
得 7589
数が 7589
保有 7588
用語 7585
"( 7583
にいる 7583
まったく 7583
羊 7582
のページをご覧ください 7581
人民 7581
吸収 7581
イギリス 7580
連合 7575
通販 7573
プラス 7572
発信 7572
雑誌 7572
を獲得 7568
栄養 7568
次に 7568
歩いて 7568
続く 7565
議会 7564
在庫 7563
ホームページ 7560
となって 7558
数の 7557
酸化 7556
▁Onlinesaleus 7555
LI 7554
2005 7552
位置に 7549
してきました 7546
襲 7546
かり 7545
mer 7544
クリア 7544
2) 7543
だけの 7541
間で 7540
されると 7539
ヘッダ 7537
Su 7534
社員 7533
フレ 7531
獲得 7529
のおかげで 7520
ランキング 7520
PR 7519
di 7516
リム 7515
彩 7515
築 7513
確信 7512
柄 7510
はとても 7508
実証 7505
2011 7502
シナリオ 7501
▁オンライン 7500
端子 7499
sa 7496
シング 7495
▁小 7493
例外 7493
les 7492
ハワイ 7492
共通 7492
DI 7491
が起こる 7488
免疫 7485
磁気 7485
▁21 7484
をクリック 7483
を選択して 7483
▁6. 7482
否定 7482
疑問 7482
それらは 7479
の機能 7478
77 7476
まま 7476
稲 7473
▁Com 7470
アドバイス 7470
審査 7470
と呼ばれ 7466
接触 7466
ることができる 7465
様式 7465
?」 7464
メンテナンス 7457
を取得する 7456
ヨーロッパの 7454
およそ 7453
誰か 7450
針 7450
報告書 7448
などに 7446
エンド 7446
私たちに 7444
IA 7439
最低 7435
情熱 7430
▁SE 7429
▁今日 7428
荷物 7427
ポールシフト 7426
岸 7426
負 7426
▁API 7424
ゼロ 7424
個人的な 7423
-4 7422
糖 7419
az 7418
の重要性 7418
したもの 7416
安心 7416
負担 7410
を促進する 7408
資本 7407
アンド 7406
JP 7404
Com 7401
を設定 7400
レプリカ 7399
old 7398
ass 7396
用意 7396
ストレージ 7394
真の 7393
果 7392
原則 7390
政権 7390
佐 7388
▁2.4 7386
が有名 7386
全部 7385
ても 7384
割り当て 7384
宮殿 7383
宿 7383
nd 7381
つは 7380
チームは 7380
チャン 7378
予定です 7377
▁当施設は 7376
94 7375
遊び 7375
露 7374
▁バー 7373
溝 7373
強制的に 7371
人物 7369
想像 7369
灯 7369
DS 7368
猫 7368
のサイズ 7367
ゲン 7365
ウェア 7363
▁Twitter 7362
に位置する 7362
該当する 7362
以内 7361
追 7360
切り替え 7359
che 7358
させます 7358
名様 7355
寸法 7355
にあった 7354
▁この場合 7351
物の 7351
が装備されています 7349
リズム 7349
不足 7348
離れて 7345
を体験 7344
報酬 7343
することです 7342
捕 7342
漢 7340
無視 7340
を助ける 7339
年まで 7338
ens 7337
盗 7332
値は 7331
せずに 7330
生まれた 7330
らしい 7329
レッ 7328
られています 7326
状の 7325
純 7325
毎 7323
主催 7322
カレンダー 7320
歓迎 7320
くらい 7316
残りの 7316
疲れ 7314
抱 7313
▁前 7309
撮 7307
ber 7305
計測 7302
にした 7301
掲載 7300
防衛 7300
暗い 7299
ばかり 7298
▁メニュー 7297
はるかに 7297
一覧表 7297
ブラジル 7295
長い間 7295
の良い 7294
sta 7292
異なる場合があります 7292
パラメーター 7291
シェル 7290
吸 7290
地帯 7290
− 7289
TI 7288
リアル 7288
再度 7286
イスラエル 7285
ことから 7282
航空機 7281
豆 7277
は約 7276
▁安全性 7272
の動き 7272
伝え 7271
トランス 7270
▁Ar 7269
▁ユーザー 7269
からも 7269
ni 7264
終わり 7262
先に 7260
Realm 7258
司 7258
しなかった 7256
を得 7255
兄弟 7255
直径 7254
くなる 7251
ものが 7251
に表示されます 7246
ようと 7246
強度 7246
の概要 7244
の経験 7243
にわたる 7242
志 7241
を進め 7240
繰り返し 7239
▁As 7238
幸せ 7236
Hoimi 7235
はい 7235
できること 7234
タッチ 7232
特殊 7230
min 7229
ナビゲーション 7223
リンチェンドルジェ 7223
挑戦 7220
を学ぶ 7219
MIDI 7217
込んで 7217
61 7216
ペット 7216
57 7214
てくれる 7214
エー 7214
▁約 7210
するよう 7209
のではなく 7208
を実現する 7208
待ち 7207
気象 7207
彼を 7201
org 7199
3/ 7198
HO 7196
母親 7196
テー 7195
国々 7194
関連しています 7194
解決策 7192
地元 7191
私達 7191
遅れ 7191
一連の 7190
最適な 7190
類似 7190
▁西 7189
られない 7189
使用できます 7186
整 7186
▁n 7184
目を 7183
▁彼等は 7182
の生産 7182
を保護します 7182
量の 7181
▁説明 7180
カ国 7180
初め 7180
▁オ 7179
ようだ 7179
II 7178
射 7175
ブック 7174
ワールド 7174
▁サ 7173
誇り 7173
泡 7172
推定 7170
さない 7169
▁Se 7168
概念 7168
高品質の 7168
のレベル 7167
♡ 7164
ストリート 7163
下に 7163
外国 7162
ヤン 7161
jav 7160
があって 7160
当事者 7160
sp 7156
CK 7155
NI 7155
関連する 7155
会合 7154
ヒラリー 7152
普及 7152
> 7147
ぞ 7145
アクセサリー 7145
▁複数の 7144
以前に 7143
が高く 7141
に出 7140
偽 7136
置き換え 7136
チュー 7135
KO 7134
に達する 7134
72 7133
これから 7133
腹 7133
るか 7132
もあり 7131
エジプト 7131
公共 7130
積極的に 7128
を選択 7127
このように 7125
案内 7125
においても 7124
鍵 7124
本の 7123
改 7122
備 7119
有効な 7119
痛 7119
SM 7118
彼等は 7118
お茶 7117
イー 7116
水準 7116
記号 7115
配送 7115
▁ジャパン 7114
ご自身で 7114
オンラインで 7114
概要 7114
黄色 7114
ナノ 7113
ピンク 7113
Fandom 7111
重力 7111
▁タイプ 7110
▁サイトマップ 7107
▁詳しくはこちら 7107
▁Maps 7104
部の 7104
沖縄 7103
の一つです 7101
あたり 7099
景 7096
▁PC 7095
気分 7094
時頃 7093
者達は 7093
▁Me 7092
▁22 7090
GA 7089
賀 7087
利用規約 7086
列車 7084
なか 7082
に達し 7082
君 7082
一定料金 7081
プレビュー 7080
個人情報を使用します 7078
リス 7077
本物の 7077
ケン 7076
であるか 7073
休日 7073
市場で 7072
香り 7072
の距離 7070
グラフィック 7070
近い 7070
ot 7068
新しく 7067
グラム 7066
脅威 7066
条項 7065
農 7064
微 7063
セグメント 7060
800 7058
外観 7058
延 7058
財務 7057
吉 7055
返金 7054
を達成 7053
ギフト 7053
棒 7052
FA 7051
Videos 7051
緑の 7051
従 7046
▁通常 7045
異常 7044
▁私たち 7042
繊維 7042
キーワード 7041
の手 7040
を開始 7040
止め 7039
アーカイブ 7038
フォント 7037
循環 7036
にとり 7034
付属 7034
息 7033
ずに 7032
指摘 7032
移住 7031
ヴ 7030
▁cm 7028
いただいた 7028
と思った 7028
ウン 7028
自然の 7027
クル 7020
マス 7020
そば 7018
始めた 7018
引数 7017
現れ 7017
リオ 7011
代替 7011
盛り 7011
降り 7010
ホー 7007
提供することです 7006
必須 7004
一般の人々 7002
分解 7001
所で 7001
それらが 7000
駆動 6999
ニック 6998
液体 6998
働く 6995
彼らに 6994
車で 6993
と言って 6990
に従い 6988
昇 6987
機能は 6987
策 6987
の際に 6986
ボリューム 6986
tic 6985
んでいる 6983
▁新着 6982
程 6982
メリット 6978
ジャンル 6977
チーズ 6974
CL 6973
▁サン 6973
雷 6973
:1 6972
キャッシュ 6971
▁Tw 6968
ts 6967
しようと 6967
ことになる 6964
用に 6963
▁しかしながら 6961
観光スポット 6961
em 6960
に直接 6960
の情報 6958
駐車場 6958
多くの場合 6956
するという 6952
ank 6951
基地 6951
を選ぶ 6948
キン 6948
整理 6947
お金を 6945
物体 6945
説教 6945
権力 6943
それで 6938
安全システム 6937
クタ 6934
しさ 6933
貸 6932
▁アル 6931
抽出 6931
に変更 6929
価格は 6929
描写 6928
要請 6928
分け 6926
滑 6926
リフト 6923
したがって 6921
レーザー 6921
ave 6919
ようになる 6919
立って 6919
確実に 6918
簡単 6918
シリア 6917
(1 6915
てしまう 6913
を使い 6913
デル 6911
属性 6911
はずです 6910
気温 6909
作られ 6907
月から 6907
帰 6905
大気 6900
提携 6900
配列 6897
を開始する 6896
を入れ 6894
洞窟 6891
につながる 6890
プロセッサ 6890
霧 6890
の中から 6889
効果的な 6889
巻き 6887
結論 6887
収入 6881
を提示します 6880
生徒 6880
腸 6880
はほとんど 6879
の魅力 6878
海水 6877
観客 6875
ものとします 6874
消え 6873
雄 6873
最も重要な 6872
CR 6870
▁To 6868
ができる 6868
▁An 6867
サステナビリティ 6865
WA 6864
原子 6863
ビア 6861
払 6859
に感謝 6857
ライフ 6857
共通の 6857
典 6856
指導者 6856
を確保します 6855
していて 6854
らせ 6854
の第 6853
を食べ 6853
ゲート 6851
パートナーシップ 6850
開く 6850
もっとも 6847
第二 6847
時点で 6844
ish 6843
小さく 6842
プライ 6841
デー 6839
学会 6838
強調 6835
混 6834
はこちら 6832
左右 6831
を行っています 6830
スパイ 6830
依頼 6830
及び携帯電話 6827
然 6826
公表 6825
ake 6824
ダブル 6824
ステータス 6823
週末 6823
IO 6822
ase 6819
ng 6818
▁グループ 6818
いただき 6818
ましたが 6817
uo 6815
抜け 6815
RC 6814
考えて 6814
行って 6812
眺め 6811
ep 6810
というのは 6810
当初 6810
聴 6810
ゆっくりと 6807
羅 6807
▁レンタル料金 6804
▁全 6801
府 6800
▁特定の 6799
報道 6799
気候変動 6799
▁弊社が提供する 6797
を保存 6797
シア 6796
済 6796
0° 6794
始める 6794
En 6793
▁France 6792
化された 6790
があること 6789
マネージャー 6789
時々 6789
参考 6788
活性化 6788
Cam 6787
モーター 6787
ve 6785
▁50 6785
景色 6785
を維持する 6783
すぎ 6781
暖かい 6781
続ける 6781
中間 6780
暴 6780
あなたを 6779
フォルダー 6778
▁全ての車に 6777
キャプチャ 6773
のサポート 6770
植物および 6770
食べる 6770
乾 6769
フラッシュ 6768
考え方 6768
を発表 6767
マニュアル 6767
▁彼らの 6765
に設定 6765
レット 6765
の役割 6763
宣伝 6762
ッタ 6760
知られている 6760
▁Share 6756
ができます 6756
読 6755
ベイ 6754
誰もが 6754
誰かが 6753
▁最近 6752
汚れ 6752
衛生 6752
銃 6751
ft 6747
ure 6747
▁Tr 6747
に属しています 6747
をしている 6744
でさえ 6742
屋外 6742
をご覧いただけます 6741
タイミング 6740
の水 6739
家に 6739
食べ 6739
武器 6738
修理 6737
津波 6736
募集 6735
照 6735
私達のチームは 6735
ギフトのバスケット 6733
画像を 6733
▁2007 6730
このファイルは 6728
そうな 6726
亜 6726
今後も 6724
だけではなく 6723
教え 6723
思って 6722
持っている 6721
麻 6721
ここでは 6720
初期の 6719
早期 6719
ドラッグ 6718
▁カ国以上の 6717
間違い 6716
がありません 6714
でしたが 6714
ome 6713
▁プロの花屋の 6713
の素晴らしい顧客サービス 6713
もう一度 6713
を残し 6713
する主要な国際 6711
品質の花 6711
昨日 6710
No 6709
を備えた 6708
取る 6705
をクリックすると 6704
レシピ 6704
観光情報 6698
art 6697
お客様は 6693
解放 6692
000 6689
拡張子を持つファイルを 6688
続き 6688
飛び 6687
▁は世界中の 6685
を用意しました 6685
Net 6683
導 6683
混合 6682
エコ 6681
セント 6681
投 6681
泥 6681
▁いいえ 6680
下で 6680
探偵事務所 6679
ストーリー 6676
心臓 6676
技術を 6675
種の 6674
臨 6673
やり 6671
ゴー 6670
フィレンツェ 6669
有名 6669
脂肪 6668
受賞 6663
いわゆる 6661
アクティビティ 6661
Fiumicino 6660
戸 6660
いき 6658
プライバシーに関するお知らせ 6656
JFS 6655
スープ 6655
大手 6654
商品の 6653
安い 6653
欲しいものリストを 6653
競技 6652
こうした 6651
坂 6650
荷物を運ぶ 6650
89 6649
、2017 6648
厳 6643
派生的 6643
アニメーション 6642
ストリーム 6640
企業が 6640
Auto 6639
甘い 6635
ファイルは 6634
絵画 6632
51 6631
シス 6631
彼等が 6630
薄 6629
外交 6628
ひと 6623
クラシック 6622
chi 6620
プッシー 6617
De 6616
アルゴリズム 6615
watches 6614
結果として 6613
▁Mar 6612
崩壊 6611
閉鎖 6611
自由に 6610
ポケット 6609
経済的 6609
don 6606
▁アプリケーション 6606
回数を 6606
指標 6606
が見 6605
助 6605
具体的な 6604
いること 6602
互いに 6602
持続可能な 6602
革新的な 6602
のほか 6599
把握 6599
TS 6598
調達 6598
大使 6597
女優 6596
キーボード 6595
辺 6593
発生する 6592
技術的 6591
チャネル 6590
パーク 6589
現状 6589
▁重量 6588
水素 6588
装 6585
のデザイン 6584
腕時計 6584
革 6583
▁Mac 6582
HTML 6581
今日の 6581
の大きさ 6580
ja 6579
厳密には 6579
ステーション 6578
セー 6578
サプライヤー 6576
ペア 6575
▁こうした 6573
▁我々について 6571
イオン 6571
アパート 6570
ボランティア 6570
墓 6570
に乗って 6569
さらなる 6568
まるで 6567
炭素 6566
研究室 6566
▁Inc 6565
欲 6564
▁Media 6560
不正 6560
を引き起こす 6558
伴 6557
物を 6557
を示します 6555
VE 6551
沿岸 6551
確立 6551
ッツ 6550
▁Gmail 6545
うる 6543
ear 6542
たくさん 6542
76 6540
の建設 6540
を完了 6540
インターフェース 6539
▁一時間 6536
▁Sh 6534
するもの 6534
hu 6533
法令 6533
▁Xhamster 6532
他の人 6532
My 6531
山々 6530
面白い 6528
取引所 6526
楽器 6526
調和 6526
算 6525
道を 6525
を目指し 6524
▁su 6523
が増え 6523
▁の動画 6521
命令 6521
250 6519
人も 6519
当時の 6517
シルバー 6516
職人 6516
属 6515
の専門家 6514
くまなく 6511
現代の 6511
▁is 6510
互換性 6510
を使用し 6509
低下 6509
学び 6508
We 6506
ポルノ 6506
固定価格で 6506
設立 6505
習慣 6503
が好き 6502
術 6502
自分の名前で 6499
の中には 6496
ult 6495
付ける 6495
周辺において 6495
ておりました 6494
中東 6494
研究科 6493
ことはありません 6492
言って 6491
に関連していること 6490
負荷 6490
public 6485
▁我々のドライバーは 6483
る税関 6483
サイトの 6482
メカニズム 6479
ルーティング 6479
の旅 6478
送迎を予約することができます 6478
でもレンタルできます 6477
ゾーンから出 6477
ミラノやその 6477
単位のレンタル 6477
弊社が提供する車 6477
炉 6477
でお会いします 6476
プレートを固定して 6476
一時間単位 6476
空港とチャンピーノ空港から 6475
は通常 6474
分布 6474
が表示され 6473
ワイヤ 6473
姿勢 6473
明確な 6472
フランスの 6470
呼び出し 6470
かを 6468
シェ 6467
洗い 6467
収穫 6466
▁Google 6465
ピッチ 6464
プレミアム 6464
分間に 6462
▁私のアカウント 6460
イタリアの 6460
!」 6459
決 6456
変わり 6454
▁For 6453
file 6449
ポジション 6449
毒 6449
82 6448
を拒否 6448
ガル 6448
電話番号 6448
▁Th 6446
会計 6446
高齢者 6446
▁デザイン 6445
想 6445
USB 6444
一体 6444
煙 6443
職員 6441
としています 6438
▁アカウントを作成します 6437
イル 6437
状態に 6436
性を 6435
経路図 6435
の表面 6434
の時間 6433
マネジメント 6433
担当者 6433
作成した 6429
冬の 6429
学部 6429
電車 6429
63 6428
延長 6427
急速に 6426
nt 6423
PI 6422
児 6422
くる 6420
冷たい 6420
▁自分の 6418
83 6417
お母さん 6417
フライ 6416
▁北 6411
目撃 6411
ボタンを押して 6410
郷 6406
なった 6405
に貢献 6404
神は 6403
犯 6402
スケジュール 6400
に関する重要な情報を 6399
の皆様 6399
を使用することができます 6397
後ろ 6397
OL 6395
でもある 6391
いている 6390
や編集 6390
サッカー 6389
現金 6389
る可能性がございます 6388
検 6388
を掲載しております 6386
フラ 6386
名称 6385
gi 6384
iv 6383
スカイ 6382
子どもたち 6382
以内に 6381
を受け付けた 6380
すこと 6379
を展開 6379
フード 6379
作られた 6379
起こった 6376
を設けました 6375
▁40 6374
する際に 6374
当て 6374
そんな 6372
作る 6372
▁その結果 6370
達の 6368
世話 6367
伊 6367
FS 6365
転換 6363
廃棄物 6360
作品を 6357
数多くの 6357
残り 6357
のタイプのファイルと 6356
電池 6353
の不具合が生じ 6352
▁デ 6350
わる 6350
使 6350
を適用することができます 6348
チューブ 6348
1.5 6347
に変換 6346
療法 6343
しかった 6342
世界的な 6341
コート 6340
始 6340
奥 6339
首相 6339
及 6337
73 6336
▁その種類の 6336
町の 6335
知る 6334
SU 6333
行われ 6333
の場合もそうで 6332
業績 6332
納 6332
dy 6330
を含め 6330
▁ウィキペディアで 6329
に関するデータを提供し 6329
ger 6328
たる 6328
サイトの目的は 6327
▁ファイル拡張子が 6326
いくつかのファイル形式 6326
だ有用 6326
詳細な情報を含ん 6326
そして保存できる 6325
なサイトへのリンク 6324
を認め 6324
に関する情報を検索し 6323
の最も一般的な形式 6323
ゴム 6322
スライド 6322
のもと 6321
これらのごく 6320
一般的な質問に対 6320
事項に関するより 6320
専門的な回答 6320
の方 6318
増え 6318
分野の 6316
件の 6315
▁フランスのホテル 6314
私を 6314
にご利用ください 6313
ための花 6312
▁復旧 6311
抑制 6311
を行うこと 6309
承 6309
替え 6309
詳しく 6309
を開き 6307
大衆 6307
心の 6307
エントリ 6303
ファイルを何 6303
基本的に 6303
RT 6302
SH 6301
を使って開く 6301
ながらゆったりと 6300
ier 6299
▁Ciampino 6299
フォン 6299
求め 6299
地点 6296
しなければなりません 6295
折 6294
革命 6294
心を 6292
を経て 6291
きれい 6290
という事実 6288
92 6287
寄り 6287
IL 6286
▁動画 6286
日間の 6284
違法 6281
の改善 6280
を追加する 6280
静かな 6280
▁最も近代的な技術 6279
クション 6278
ビザ 6278
RAR 6277
ページで 6276
側に 6275
越え 6275
リセット 6273
イベントの 6272
っぱ 6271
調節 6271
人工 6270
提示 6270
立場 6269
を可能としました 6268
熱帯 6268
演劇 6265
ジャン 6264
さま 6260
癌 6260
の追加 6258
を作成します 6258
立つ 6257
によれば 6255
2009 6254
動画ページ 6254
被害 6254
PO 6249
しなさい 6248
トー 6248
ama 6246
を読む 6246
ファミリー 6246
不具合が生じ 6246
探偵機関 6246
締結 6245
慎重に 6244
cc 6243
を受けて 6243
複合 6243
▁2016.06.0 6239
オート 6239
排出 6237
廃 6234
▁MOVIE 6233
回までの 6233
続いて 6232
▁Apparel 6231
自体 6231
EM 6229
していきます 6225
復活しました 6225
書き込み 6222
夜の 6221
濃度 6219
平成 6218
育成 6218
永 6217
ように見える 6216
止 6216
my 6214
両国 6214
沢 6214
疑 6210
▁SHARE 6209
作品は 6209
問題修正 6206
上記商品イメージ 6205
▁2018.04.2 6203
略 6203
適切となる 6203
が存在する 6202
の権利 6202
応 6201
その実行に 6200
子供の 6200
2016.09.21 6199
お知らせ 6199
使用できる 6199
熟 6198
▁オペレーティングシステムや 6197
がうまく機能してい 6197
オファー 6197
ベルギー 6197
検索結果 6197
2016.12.14 6194
▁2018.07.1 6194
2016.05.18 6193
▁こちらから最新 6193
のまま 6193
を利用することにより 6193
借り 6193
潮 6193
行いたします 6193
触 6193
Cl 6192
▁2016.09.0 6192
バイト 6192
▁2016.05.1 6191
その形式を認識 6191
ファイル拡張子により 6191
ユーザーご自身は 6191
▁ThisA 6190
-0 6189
▁2017.06.1 6189
ファイルをどうやって開くか 6188
▁2017.06.0 6187
の終わり 6187
▁2017.06.03 6186
▁の動画をダウンロード 6186
ご迷惑をおかけし申し訳ありません 6186
コンテンツの 6186
システムメンテナンスを実 6186
rovideo 6185
カウントとして 6185
ダウンロードが成功した 6185
2018.04.29 6184
ach 6184
出来ない問題を解決しました 6184
回数ではなく 6184
図書館 6184
2016.09.10 6183
▁動画のダウンロード機能 6183
お届け 6183
でログイン出来ない 6183
のダウンロードに対応しま 6183
動画がストリーミング形式 6183
動画のダウンロードに 6183
方法で上手く 6183
日ほど前から 6183
浴 6183
Javynow 6182
ダウンロード出来ない 6182
プレー 6182
鉱 6181
当然 6180
ano 6179
の組み合わせ 6178
2.5 6176
▁2018.07.30 6176
情報が 6175
出席 6171
になること 6170
という疑問 6168
火災 6168
いだ 6166
lin 6164
▁注意 6163
に移動 6163
ローマの 6162
アナ 6161
ga 6160
チェックアウト 6160
高温 6160
使用されている 6158
迫 6158
の合計 6157
抑え 6156
(3 6154
ネー 6154
議 6154
の仕事 6153
84 6152
弁護士 6152
一層 6151
使用されます 6151
移転 6147
センサ 6145
名は 6145
の主な 6144
ニュ 6143
多数 6143
証明書 6143
進展 6143
湿 6142
メッセージを 6141
ING 6138
▁ApparelGoods 6138
▁何 6136
ブレーキ 6136
講師 6136
ゴン 6135
典型的な 6135
容易に 6134
▁名前 6133
を利用し 6132
ビルド 6131
▁そんな 6129
ない場合は 6128
コミュニティの 6127
▁惑星 6126
なのか 6125
ケイ 6125
あなたはおそらく 6124
デフォルト 6122
オス 6121
本体 6120
ボル 6119
出会い 6117
や他の 6115
下部 6115
北米 6115
CI 6114
ブース 6114
▁これら 6113
深刻な 6113
背 6112
インデックス 6108
年間の 6108
を高め 6106
2002 6105
洞 6104
のいくつかの 6102
ヴェ 6102
PT 6101
ブロ 6099
慶 6097
複雑 6097
られて 6096
技 6096
気に 6096
▁はい 6093
卒業 6093
しないでください 6089
▁プロパティ 6085
テック 6085
プレス 6084
早い 6084
ミャンマー 6081
なくなる 6080
リック 6080
]: 6079
払い 6078
況 6076
プロモーター 6075
ランク 6075
以外 6075
暮らし 6075
PE 6074
起こり 6074
教師 6073
を削除する 6071
グランド 6071
探 6071
休暇 6070
綿 6070
DVD 6068
ドラマ 6068
隠蔽工作 6066
のこと 6065
エイリアン 6065
復興 6065
確認できます 6065
支 6064
ミリ 6063
火星 6062
▁レプリカ 6060
そのもの 6060
form 6059
に役立つ情報 6059
▁規約と条件 6058
▁どのように 6057
設定により 6057
軍隊 6056
▁私たちはあなたの 6055
の家 6055
につき 6054
とは異なり 6051
を適用 6048
寄付 6048
舞 6046
▁プレスリリース 6045
似 6045
▁注 6044
理想的な 6044
寺の 6043
最適 6039
▁アプリ 6036
▁今後 6035
ジャケット 6034
保健 6031
システムを 6030
▁コメント 6029
を解決することができます 6029
ブレスレット 6027
乗馬 6026
使われる 6026
呼吸 6026
mp 6024
エージェント 6024
ジャパン 6024
接近 6024
テント 6022
-10 6021
亡 6021
政治的 6021
を示しています 6020
普通の 6020
示唆 6019
テンプレートを 6018
ヒット 6018
今では 6018
ウス 6017
の多くは 6016
Con 6015
tor 6013
ことなく 6011
箇所 6011
自社 6011
PP 6010
を採用 6010
声明 6010
と同様 6008
▁MP 6007
ないでしょう 6007
pi 6006
エンジニア 6005
限 6005
先の 6004
食べ物 6004
しっかりと 6003
スロット 6003
増加する 6002
エリート達 6001
コンパイル 6001
に入って 6000
内側 6000
夕食 6000
チョ 5999
性と 5998
▁自動 5996
は現在 5993
プログラムの 5993
za 5992
脚 5990
を実施 5988
Po 5987
軽減 5987
時間に 5986
上空 5984
工事 5984
are 5982
を強化する 5982
チームの 5982
▁私立探偵 5981
▁タグ 5980
紫 5980
han 5979
res 5977
ターミナル 5976
時間と 5976
開放 5976
大規模 5973
登 5969
ディー 5968
飲 5967
▁最も 5966
すべてを 5966
引用 5966
ことができた 5964
コネクタ 5964
することなく 5963
対応する 5963
ki 5962
以上に 5961
家族の 5961
▁大抵の場合 5958
ワード 5958
増大 5957
奇妙な 5956
西洋 5956
さと 5954
▁Car 5953
中断 5953
事例 5952
来て 5949
節約 5947
行われた 5946
ies 5944
▁Sp 5944
進歩 5943
アス 5942
ファイル名 5942
ハンドル 5940
誕生 5935
適切なプログラム 5935
しゃ 5933
ドイツの 5932
ものであり 5931
▁トラック 5930
当社は 5930
悪化 5930
を示し 5929
カーソル 5929
糸 5929
トイレ 5928
当社が 5927
樹脂 5927
を使用すること 5926
出展 5926
問題を 5925
赤ちゃん 5925
あの 5922
パイ 5922
うち 5921
を変更する 5921
調べ 5921
今回 5919
何度も 5919
チョコレート 5918
場合でも 5918
仮想 5917
ませ 5916
クロー 5916
ore 5915
のユーザープロフィール 5915
当日 5914
続け 5913
アクティブ 5912
の場 5911
VI 5910
することに 5910
わたし 5909
モンゴル 5909
応募 5909
を除いて 5908
コンピュータの専門家 5908
物理 5908
闘 5906
韓 5906
▁メール 5904
死亡 5904
Mo 5903
自動化 5903
を開いて 5902
北部 5902
機能が 5900
ky 5897
を負 5896
▁すべて 5895
に来る 5894
キット 5894
グリッド 5894
重い 5894
ムー 5893
外の 5893
パル 5892
指定された 5892
速く 5892
スク 5891
NT 5890
にわたり 5890
簡単です 5890
戦い 5889
個人の 5885
ical 5884
ラス 5884
驚き 5884
zi 5883
けなかった場合 5882
していくうちに 5880
コル 5879
ワイ 5878
はあなたの 5877
デスクトップ 5876
専門家のアドバイスや 5876
▁mm 5874
より高い 5874
介 5872
存在する 5872
74 5870
私たちのサイトにあ 5870
ファイルの開閉に関する問題 5869
快 5869
ファイルの開閉 5868
売り 5868
に助けを求める必要 5867
を持つファイルを開 5867
▁通販 5865
を見せ 5865
回の 5865
衣 5865
FT 5864
折り 5864
の前 5862
の保護 5860
トゥ 5860
▁ほとんどの 5859
▁アイテム 5859
嘘 5859
を理解する 5858
各国 5858
神様 5858
その結果 5857
開発した 5857
Li 5856
を有し 5856
外側 5856
見せ 5856
▁ネットワーク 5855
方法です 5855
チャーム 5852
楼 5848
PL 5847
▁t 5847
▁それらの 5847
枝 5846
独特の 5845
bit 5843
そこから 5843
枠 5843
嵐 5841
-6 5839
Me 5839
の強化 5839
縦 5839
事は 5838
か遭遇し 5837
に対する答えを探 5835
泉 5835
ソフトウェアに何度 5834
動向 5834
激 5834
開くことができるという 5834
系の 5833
▁それで 5831
同一 5831
使える 5830
活 5830
メル 5828
に関する通知 5827
はすでに 5824
そういう 5823
どこか 5823
国籍 5821
大切な 5820
Res 5819
ブランドの 5819
があると 5817
するので 5816
やその他の 5814
ise 5813
▁2009 5812
を引き起こし 5812
UI 5809
キャラクター 5809
物事 5808
qu 5807
の意味 5807
にくい 5806
の建物 5806
美しく 5806
ug 5804
べきである 5804
教室 5804
を集め 5803
を迎え 5800
グラフィックス 5800
両親 5800
鏡 5800
50% 5799
タワー 5798
をクリックし 5796
に連絡してください 5794
加え 5794
必要に応じて 5794
どちらか 5792
日本では 5790
いかに 5789
求められ 5788
LAN 5787
精密 5787
記入 5786
▁モジュール 5785
マラ 5785
環 5783
見学 5783
ティック 5780
に準拠 5778
を指定する 5778
クー 5778
デュ 5778
損 5778
鳴 5778
の風景 5776
多い 5776
を理解し 5775
滝 5775
自分達の 5775
手で 5774
ティン 5770
TT 5769
鉱山 5768
戻って 5767
変わる 5766
測 5766
MD 5765
の価値 5764
▁23 5763
に行って 5763
グレー 5763
▁今回は 5762
サイン 5762
正しく 5762
ってきた 5761
を保証する 5761
▁今年 5759
を持った 5759
の時代 5758
毎日の 5757
結果は 5757
動く 5756
の実施 5755
顧客の 5755
書いて 5754
pa 5753
これまでの 5753
便利 5753
中止 5752
生きる 5752
が記載されています 5751
に来て 5751
蓄積 5751
住 5749
宝石 5747
歴史的 5747
に対応する 5746
談 5745
ice 5744
スタンド 5744
諸島 5744
を向上させる 5742
API 5740
シンプルな 5740
ator 5739
単純な 5739
だと思います 5737
単一の 5737
又 5737
遅延 5737
ca 5735
を取り扱うプログラムのリスト 5735
ですので 5734
エス 5730
まった 5729
いで 5727
クレジット 5727
を簡単に 5725
モードで 5725
省の 5725
倒 5724
あなた方の 5723
移行 5723
天皇 5722
認定された 5720
の販売 5719
博 5719
に入れ 5718
唐 5718
ディス 5716
さんが 5714
にかけて 5714
▁ニュース 5713
いただける 5712
ピース 5705
一般に 5703
形式で 5702
FE 5701
ほんの 5701
の美しさ 5699
ハイライト 5698
願い 5698
ランプ 5697
リサイクル 5696
ますか 5692
ys 5690
▁レプリカ時計 5690
スペ 5690
固体 5690
移 5690
▁デバイス 5689
化する 5689
▁弊社は 5687
後は 5685
からタクシー 5681
、2016 5680
ロータリー 5680
晩 5680
に比べて 5679
内容を 5678
は何ですか 5676
サークル 5676
部分は 5675
信じ 5673
所在地 5673
切断 5672
に掲載 5671
を読み 5671
FC 5670
地球に 5667
▁まだ 5666
石の 5666
を探 5665
ランチ 5665
と比較して 5664
はもちろん 5663
スカ 5663
執行 5663
su 5662
についての詳細を知っています 5661
の前で 5661
を防ぐ 5661
安全に 5661
JAV 5660
事が 5659
所有者 5658
郎 5656
を開きます 5655
甘 5655
第三 5655
耐久性 5655
財政 5654
の構築 5653
まわり 5653
モニター 5653
永続 5653
の形 5651
業界の 5651
ナイト 5650
ならびに 5649
はっきりと 5649
を守る 5649
スタイルの 5648
ドロップダウン 5648
日米 5648
おすすめ 5647
ろうと 5646
政府が 5646
ないので 5643
name 5641
強さ 5641
僕は 5640
並びに 5638
危険な 5636
FI 5635
少女 5633
四半期 5632
しているか 5630
を送る 5629
チェックイン 5629
を停止 5627
北朝鮮 5625
ris 5624
書式 5624
アニメ 5623
書類 5623
間違いなく 5622
興 5621
酸素 5621
とり 5620
わからない 5620
を受け取る 5620
異なります 5620
寿命 5619
ソウル 5618
広がり 5618
キュー 5617
サイズの 5617
を付け 5616
を拡大 5616
特長 5616
▁mUniSm 5615
これまでに 5614
分間 5614
▁バ 5613
に最適な 5612
ガイドライン 5612
美しさ 5612
従来 5611
陳 5611
ことができました 5607
もともと 5607
担 5607
行われる 5606
禁 5603
腫瘍 5603
LL 5602
すべてのレプリカのサイト 5602
レプリカへようこそアウトレット店 5602
繁栄 5602
発現 5601
欠 5600
して下さい 5598
を作って 5597
思わ 5597
村の 5597
をもつ 5596
正常に 5596
故 5595
極端な 5595
自然な 5595
ひとり 5594
出来る 5594
壮大な 5592
日曜日 5591
垂直 5590
送り 5590
▁アン 5589
▁Italy 5588
の対象 5588
化合物 5587
段階で 5587
どうやって 5586
▁10. 5585
▁26 5585
自宅 5585
戦闘 5584
ドロップ 5583
手術 5583
棟 5582
▁彼らが 5581
途 5581
▁アクセス 5580
自ら 5580
Edit 5578
ko 5578
▁Portal 5578
しようとする 5578
確 5577
地球が 5576
を用いる 5575
血液 5575
懐 5573
緊張 5573
お客さま 5572
格納 5572
組み 5572
トマト 5570
施行 5569
溶 5569
結局 5569
lia 5568
IF 5567
▁材料 5567
を指定 5567
スピ 5567
を変える 5566
ゴール 5566
パーツ 5565
出現 5565
Crypto 5564
使って 5564
浦 5564
活性 5563
VR 5562
の全 5562
インストゥルメント 5562
同様の 5562
視覚 5562
中国語 5561
候補 5561
独立した 5561
を学び 5559
何の 5559
プレゼント 5558
ボトル 5557
集め 5555
をとる 5554
上部 5554
Trans 5553
既 5553
の完全な 5549
インターナショナル 5549
クーポン 5549
と考え 5548
家具 5548
知らない 5547
道路の 5547
bu 5546
独自に発行する 5546
とおり 5545
ユニ 5545
▁HD 5544
暴力 5544
迷 5544
の他の 5541
タンク 5541
を含みます 5540
を完全に 5540
と考えています 5539
ディレクティブ 5539
食料 5538
とします 5537
° 5534
プレゼンテーション 5534
ound 5532
コーティング 5532
関与 5532
プロジェクトは 5529
20% 5528
思う 5527
▁私 5526
▁URL 5525
の実現 5523
land 5522
視点 5521
特殊な 5519
2004 5518
ごとの 5517
カラー設定 5517
ニン 5516
東部 5516
それほど 5515
amp 5514
がい 5512
キッチン 5512
ah 5511
贈 5510
スペイン語 5509
▁Ex 5508
の成長 5508
麺 5508
iPad 5507
ディレクター 5507
ick 5505
ノン 5505
87 5504
読み込み 5504
EP 5503
1: 5501
ようになります 5501
データが 5501
想定 5501
男の子 5501
年前 5500
コンタクト 5499
1995 5497
いたしました 5495
梅 5495
vo 5493
大量の 5492
没 5492
1999 5489
を覚え 5489
沿い 5489
ジャンプ 5488
東南アジア 5488
濃 5488
▁までお問い合わせください 5486
(「 5485
が非常に 5485
時計の 5485
をチェック 5484
dia 5483
を得た 5483
▁同時に 5482
カイ 5482
保守 5482
因 5482
共に 5481
Air 5480
IoT 5480
知られ 5480
解明 5479
を参照して 5477
▁チャット 5476
なっています 5476
シャン 5476
ためです 5474
帽子 5474
であっても 5473
パソコン 5472
南極 5471
前後 5470
人々を 5469
NS 5468
の編集 5468
can 5465
するでしょう 5463
文学 5463
探偵 5461
タップ 5460
時から 5460
ling 5459
oc 5459
会社は 5459
att 5458
は実際のものと多少 5458
タイヤ 5458
言えば 5458
メニューから 5457
崎 5454
月には 5454
我 5452
シュー 5451
豊 5451
太陽系 5450
問題が 5449
市内 5448
スピーカー 5447
次世代 5447
思え 5446
改良 5446
を表示する 5442
スクリーン等の 5442
多くの人々 5442
のカラーイメージ 5441
▁ご使用コンピューターの 5440
ハンド 5440
含む 5436
木材 5436
芸 5436
▁27 5435
ずつ 5435
第三者に 5435
の導入 5434
iTunes 5433
レプリカ時計 5433
一定の 5433
広大な 5433
順番 5432
指定した 5431
追加の 5431
上にある 5430
執 5430
隣 5430
しないように 5429
本部 5428
台の 5427
:" 5423
dis 5423
メイ 5423
明治 5422
マリア 5421
ウォーター 5420
を共有する 5419
劇 5419
を提供すること 5418
話題 5416
に大きな 5415
値が 5415
発送 5415
返す 5415
スクール 5414
広島 5413
インターフェイス 5412
過ごし 5411
各地 5410
二重 5409
このサイト 5407
高品質 5407
MC 5406
捨て 5406
ker 5404
▁CD 5404
の関係 5404
バグ 5404
フラット 5403
app 5402
補償 5402
ica 5399
が出 5399
翼 5399
黙 5399
覚え 5398
▁アドレス 5395
成功した 5395
臨床 5395
iamo 5393
と私は 5393
上がって 5393
の壁 5391
▁沖縄 5390
最高品質の花 5390
目的で 5390
謎 5390
の上で 5389
不明 5389
致します 5388
ことがある 5387
ジング 5384
▁World 5383
ついた 5382
チームが 5382
リラックス 5382
落下 5382
になるでしょう 5381
生じる 5381
EXEC 5380
を満たす 5380
水が 5379
このページ 5377
有料 5376
水平 5376
YO 5375
ご連絡 5375
▁コンテンツ 5374
街の 5374
int 5373
の簡単な説明 5373
一歩 5373
企業は 5373
欲しい 5373
マスク 5371
奨学金 5371
▁Booking 5370
を構築する 5369
足を 5369
0.0 5368
▁これには 5368
を見つけ 5368
習 5368
興奮 5368
を知っている 5367
湖の 5367
を始め 5366
を扱う 5366
迅速に 5366
歩く 5365
あって 5363
マッチ 5363
Link 5362
接続ポイント 5362
緩 5362
UFO 5361
online 5361
と同じように 5361
結晶 5360
パーセント 5359
上がる 5359
を目指す 5358
pre 5355
▁コード 5355
くて 5355
に影響 5355
染 5355
向けに 5354
地面 5354
復 5353
表示される 5353
刻 5350
はじめ 5349
ナンシー 5348
処 5348
詰め 5348
OT 5347
▁そのファイル 5347
ial 5343
していると 5343
é 5342
の方が 5342
ny 5341
ニャ 5341
南米 5341
▁フル 5340
世紀の 5339
まい 5338
ていることが重要です 5337
の方々 5337
を行っている 5337
fi 5336
アド 5334
原子力 5334
氏の 5333
利用できます 5332
CE 5330
排出量 5329
対処 5328
sk 5327
大西洋 5327
模 5327
ワシントン 5326
信用 5326
なお 5325
由来 5324
はどこにでもあり 5323
安定した 5323
いま 5322
のページの 5322
隠れ 5322
経過 5320
JR 5318
重要である 5317
ッカ 5315
プロトコル 5315
をサポートする 5314
フォード 5314
拡張子 5314
融資 5314
睡眠 5312
透明 5312
eo 5311
を開発 5311
XML 5310
ポップアップ 5310
するまで 5309
▁私たちのサイトに 5307
筋肉 5307
box 5304
移民 5303
ハイブリッド 5302
インドの 5300
▁2008 5298
シャル 5298
数量 5296
貨物 5296
1% 5293
vel 5293
内部の 5293
年前に 5293
形の 5291
換え 5291
世界中で 5290
▁白 5289
、2018 5289
ない限り 5289
DR 5288
長年 5288
▁素敵な 5287
造り 5286
を助け 5285
喜んで 5285
峰 5285
海上 5285
▁質問 5284
付けられ 5284
関連付け 5284
それはあなたが今日 5281
の市場で利用可能な最 5281
を保護する 5281
冷却 5281
▁どの 5280
するのが 5280
善を取得し 5280
ッカー 5279
素敵な 5279
覆 5279
量は 5279
関連の 5279
ヒル 5277
車を 5277
手の 5276
des 5275
狂 5275
▁(2) 5274
▁Lo 5274
▁それぞれの 5273
に関する情報とそ 5273
リーグ 5272
要約 5272
の取り扱いが可能 5269
ロイ 5269
for 5268
ung 5268
植え 5268
およびそのファイル 5267
すべてのファイル拡張子 5267
全員 5267
回り 5267
畑 5267
なプログラムについて 5266
私も 5266
避難 5266
▁ダイアログ 5265
▁(1) 5264
する場合は 5264
テラス 5264
ロング 5264
プロの 5263
旅行者 5261
しっかり 5260
ホイール 5260
読者 5257
)] 5256
国内の 5256
3% 5255
べきです 5254
キロメートル 5254
▁別の 5253
送られ 5253
避け 5253
たま 5252
発生した 5251
!!! 5249
▁2003 5249
果物 5249
▁総合情報 5248
を作成し 5247
トランザクション 5247
風の 5247
をサポート 5246
技術は 5246
講 5245
▁同様に 5244
堅 5244
歩き 5242
可能な限り 5241
オレンジ 5240
庫 5239
非難 5239
gr 5238
を知って 5237
助言 5237
心に 5237
景観 5237
筆 5236
財 5236
薬剤 5234
ami 5232
the 5232
入手 5232
星の 5232
を修正 5230
いろいろな 5229
両方 5228
九寨溝 5228
内蔵 5228
快適 5228
はかなり 5227
この問題 5225
RF 5224
との関係 5224
りました 5224
ナル 5223
文献 5223
DNA 5221
ない場合 5221
偶然 5220
生存 5219
誰でも 5219
鼻 5219
詐欺 5217
緩和 5216
IM 5214
ちゃ 5213
原理 5213
ino 5212
ケット 5212
ロケーション 5212
oll 5211
の設計 5211
提供される 5211
ジェン 5210
索 5210
事業者 5209
幾 5208
勢 5207
エアコン 5206
もありません 5204
▁をクリックします 5203
を考え 5203
南部 5203
日々 5203
流行 5203
チャート 5201
ning 5198
らす 5197
囲 5197
成形 5197
者たち 5197
▁International 5195
▁ちょうど 5194
されることを 5194
環境で 5193
たとえば 5192
メートルの 5192
つながり 5191
社内 5191
できるだけ 5190
付近 5188
ML 5187
の作品 5187
ティブ 5187
の大きな 5186
準 5186
の高 5185
付いて 5185
をもとに 5184
▁オーディオ 5183
の技術 5183
クリントン 5182
の新 5181
半導体 5181
意義 5181
方に 5181
氏が 5181
うこと 5179
ダイアログで 5179
私達に 5179
方の 5178
の伝統 5177
▁Ad 5176
を忘れ 5176
▁CO 5175
キシ 5175
山脈 5175
続 5175
一律 5174
上げる 5174
上位 5173
使用することはできません 5172
飛 5172
わない 5171
哲学 5167
大量 5167
なん 5166
集まり 5166
▁パンドラジュエリー 5164
を持っていた 5164
AB 5163
の記事 5163
ページを 5162
リストから 5162
みたい 5161
をさらに 5161
兆 5161
小児 5161
ight 5160
ことである 5160
du 5159
っており 5159
永久 5159
発見された 5157
近年 5157
の平均 5156
メー 5156
安全性 5156
サービスは 5155
響 5154
を表す 5153
カート 5153
ありがとう 5152
の準備 5150
の実行 5149
マテリアル 5149
を下 5148
可能性が 5147
相当 5147
英国の 5147
象 5147
▁オブジェクト 5146
議員 5146
1.2 5144
カタログ 5143
便利です 5143
160 5141
row 5141
された場合 5139
gu 5138
しているので 5138
アルミ 5138
場所です 5138
▁Pre 5137
▁プロ 5137
は今 5137
砂糖 5136
蘇州 5136
マッサージ 5135
仏教 5135
学者 5135
寒 5134
PRO 5133
たとえ 5133
we 5132
を明らかに 5132
画像の 5132
性質 5131
てい 5130
Br 5129
mod 5129
act 5127
プログラムを 5127
ジェイ 5126
のページ 5125
の話 5125
名が 5125
の最後の 5123
ペイ 5123
▁-- 5122
ao 5121
あい 5121
せい 5121
是非 5120
El 5119
らは 5119
居住 5119
に対処する 5117
デフォルトの 5117
同時 5117
量を 5117
tro 5116
並 5116
春の 5116
者を 5116
妙 5115
時計製造 5115
パーティション 5114
初めての 5114
ことを意味します 5112
に焦点を当て 5112
App 5111
プロバイダー 5111
つい 5110
協議 5109
知って 5109
アカウントの 5107
ユー 5107
伏 5107
塵 5107
珍しい 5106
BO 5104
異なった 5104
ート 5103
Ro 5102
着せかえ 5102
者と 5102
左側 5099
、2015 5098
iao 5097
▁TV 5096
トラフィック 5096
図面 5096
技術と 5093
福岡 5093
oo 5092
都市の 5092
けば 5090
コンテスト 5089
予期 5089
冒険 5089
大切 5089
▁App 5088
痛み 5088
▁東 5087
を残す 5087
右の 5087
陸 5085
カップル 5084
伝達 5084
XX 5083
▁Data 5083
時計は 5082
RS 5081
賞を受賞 5080
BC 5079
と思われる 5079
プログラミング 5078
▁ザ 5077
▁Studio 5075
嫌 5075
格安 5072
私たちはあなた 5071
船舶 5071
リットル 5070
扱い 5069
トラックの 5068
を代表する 5067
を強化し 5067
人の乗客 5067
Gu 5066
思考 5066
運転手は 5066
que 5065
▁WiFi 5064
▁ドイツ 5063
物流 5063
の多く 5061
書いた 5061
81 5058
房 5058
無い 5058
カーブ 5057
優勝 5057
砲 5057
部分を 5057
0.5 5056
tics 5055
を可能にする 5055
通常は 5055
聞いて 5053
再起動 5048
美味しい 5048
iOS 5047
くり 5046
▁k 5045
付きの 5044
辞 5044
を入力する 5042
ster 5041
アプリケーションの 5041
メモ 5041
生産性 5041
題 5041
上がり 5039
と言った 5038
入力できます 5038
短縮 5038
ウィン 5037
▁必要であれば 5036
書籍 5036
あげ 5035
CEO 5034
OD 5034
ツァ 5034
他人 5034
全体で 5034
今は 5033
解除 5033
さくら 5032
を得て 5032
人形 5032
▁お客様 5030
適応 5030
人乗り 5029
推測 5029
TH 5028
尿 5028
相互作用 5027
買い物 5027
リファレンス 5026
Co 5025
誘 5025
遅く 5025
{ 5024
ッパー 5024
小売 5024
放出 5024
あなた方は 5023
率は 5022
仮 5021
目的地 5021
こちらの 5020
採 5020
PM 5019
} 5019
たこと 5019
ゼータトーク 5019
の山 5018
遺跡 5017
ウェブサイトの 5015
所属 5015
誘導 5015
LP 5014
剣 5014
▁例 5013
インター 5010
era 5009
ることで 5009
ランダム 5009
鹿 5009
敷 5008
歴 5008
防災 5008
hen 5006
カム 5006
ei 5005
与えられた 5005
ものだ 5004
を満たし 5004
を維持し 5003
イング 5003
貧困 5003
選び 5003
こちら 5002
ターゲティング広告 5001
ラップ 5001
天井 5000
現れる 4999
装備 4999
▁このサイト 4998
かれた 4998
する事 4996
モニタリング 4995
加熱 4995
後半 4995
▁南 4994
の製品 4994
密度 4994
ボーナス 4993
DM 4992
ND 4992
▁商品番号 4992
ったり 4992
国際空港 4992
数日 4992
▁ドキュメント 4991
シャー 4991
ネイ 4991
最良の 4991
杯 4991
軍の 4991
を避ける 4990
2001 4989
特典 4989
税金 4989
の効果 4986
こんな 4985
フルーツ 4984
エンジニアリング 4983
▁60 4982
▁商品詳細 4981
トレンド 4981
ax 4980
場所は 4980
活動の 4980
をご確認ください 4979
ンド 4979
明日 4979
昼 4979
アルミニウム 4977
漁 4977
であるため 4976
リュ 4976
ドラゴン 4975
四川省 4974
アク 4973
システムが 4973
ICO 4970
グレ 4970
料金は 4969
▁これまで 4968
▁全ての 4968
のインストール 4968
ツー 4968
Excel 4967
映 4967
暖 4967
▁Mon 4966
ズム 4966
▁l 4965
ネーム 4964
のニーズ 4963
ッキング 4963
1,000 4962
を調整 4962
黒い 4962
スタンダード 4961
ale 4960
に行った 4960
たった 4959
▁あらかじめご了承下さい 4958
やはり 4958
▁世界の 4957
僕 4956
学術 4956
▁それらは 4955
を備え 4955
を超えて 4955
敬 4955
mit 4954
芽 4954
パルス 4953
散歩 4952
たびに 4950
薄い 4950
薬物 4950
青い 4950
OM 4947
とみなされ 4947
UL 4946
の周り 4946
らせる 4946
兵士 4946
学ぶ 4945
補 4945
作物 4944
人権 4943
広州 4941
を取得する方法 4938
▁Ver 4937
寧 4937
写真コンテスト 4936
込め 4934
の送迎サービス 4932
アジアの 4932
始めました 4932
帳 4931
地の 4930
正確 4930
を許可 4929
更なる 4929
毎週 4929
au 4928
番組 4928
180 4927
の中でも 4927
手配 4927
めた 4926
社会の 4926
テープ 4925
伸び 4924
受け入れ 4924
ちゃん 4923
傘 4923
離れ 4922
71 4921
ラーメン 4921
シリコン 4919
国で 4917
SQL 4916
▁Free 4916
▁1: 4915
女性は 4915
抜 4915
期限 4915
ヨハネ 4914
2% 4913
8% 4913
ラック 4913
uan 4912
を探し 4912
払い戻し 4911
ボタンをクリックします 4910
食器 4910
の腕時計 4909
容器 4909
本サービス 4909
奈 4907
容 4907
研 4907
肺 4906
―― 4905
▁韓国旅行 4905
、24 4904
fer 4903
おこ 4903
ところに 4903
まして 4903
Hu 4902
の方法 4902
育て 4902
連結 4901
際の 4901
ダイナミック 4900
信頼できる 4900
知見 4899
CZ 4898
▁スクリプト 4897
が発生する 4897
という言葉 4897
高校 4897
Sha 4895
に表示される 4895
を誇る 4895
フィード 4895
優しい 4895
▁リスト 4894
イベントを 4894
コーナー 4893
セラミック 4893
探索 4893
浜 4893
認められ 4893
▁イタリア 4892
を有効に 4892
User 4890
より安い 4890
作った 4890
区域 4890
バンコク 4889
孔 4889
に存在する 4888
エディタ 4887
潜在的な 4887
侵入 4886
展覧会 4885
拒否 4885
韓国の 4885
av 4884
▁Network 4884
▁パリ 4884
ブレ 4884
▁アジア 4883
所に 4883
暗 4882
ではなかった 4881
洞察 4881
静かに 4881
を受信 4880
道具 4880
iss 4879
の代わりに 4879
アーキテクチャ 4879
周年 4879
弱い 4879
▁Premiere 4878
のようなもの 4878
ソフトウェアは 4878
世界で最も 4876
の約 4875
専用の 4874
ther 4872
時計で 4872
しましたが 4871
句 4871
海軍 4870
の所有者 4869
起こっている 4869
▁28 4867
するとき 4867
オーダー 4866
:「 4865
▁一度 4865
これに 4864
移植 4864
わたしは 4861
GB 4860
▁無 4859
競争力 4859
を発揮 4858
クリスタル 4858
ジェット 4858
スティック 4857
任務 4857
硬 4856
に関わる 4855
誰が 4855
県の 4854
がより 4853
ボット 4853
艦 4851
言われ 4851
7% 4850
済みの 4850
▁ビジネス 4849
▁日本語 4849
ホステル 4849
移動する 4849
パキスタン 4848
困難な 4848
安定性 4848
バッテリー 4847
ぶり 4846
寄せ 4846
が提供する 4845
に連絡 4845
我が国 4845
限界 4845
アルコール 4844
患者の 4844
▁カラー 4843
かない 4843
リコ 4843
▁地図 4842
のもの 4842
を用意 4841
のバージョン 4840
全世界 4839
MU 4838
を選び 4838
空港送迎 4837
プラント 4836
全体を 4836
愛の 4836
重大な 4835
されている場合 4834
悪意者 4833
札 4833
▁ピサ 4832
科学者 4831
▁タイ 4829
提供開始しました 4828
流れる 4828
1990 4827
プロダクト 4827
モーションエレメンツは 4827
悩 4827
があるので 4824
生活を 4824
できますか 4823
▁상세 4822
スイート 4822
オブジェクトの 4821
デザインの 4821
弟子 4821
• 4820
レイヤー 4820
制約 4820
CP 4819
チリ 4819
への転送 4818
を使用しております 4816
▁弊社 4815
の大部分 4815
持つ 4815
粒 4815
▁ボタン 4813
を紹介し 4813
プロセスの 4813
マーケットプレイスである 4813
ドルにて 4812
買 4812
、2012 4811
おります 4811
BS 4809
ないため 4808
キャンパス 4808
米国で 4808
テイ 4807
▁確かに 4806
ポスター 4806
枠組み 4805
ジア最大級のロイヤリティーフリー 4803
動画編集者が 4803
去 4803
簡単にカスタマイズ可能な 4803
LT 4802
絶対に 4802
ose 4800
舎 4800
インテリア 4799
3.0 4798
▁タブ 4798
にとっては 4798
の開始 4798
皿 4797
の内部 4796
書かれた 4796
レアル 4795
を支払う 4794
キャップ 4794
ポン 4794
名誉 4792
デュアル 4791
とう 4790
を追加します 4790
大使館 4789
幕 4789
の端 4788
ように見えます 4788
1.0 4786
To 4786
YouTube 4784
パイロット 4783
威 4783
自然に 4783
市場は 4782
▁Messagg 4781
自信 4781
SSI 4780
ドライ 4780
がある場合は 4779
でなく 4779
を送信 4779
get 4778
▁上記の 4778
あなたの人生に 4778
専攻 4778
▁彼女の 4777
速い 4777
2: 4775
ya 4774
▁Cubase 4774
が行われ 4774
前述 4773
発明 4773
mb 4772
▁GPS 4772
の拡大 4771
の状況 4771
走行 4771
待って 4770
かもしれませんが 4769
ウル 4769
▁チャンネル 4767
ているため 4766
ホン 4766
国際交流 4766
驚くべき 4766
チャイルドシート 4765
経験を 4765
点は 4764
個人データ 4762
告 4762
神戸 4762
by 4760
ディスカッション 4760
建て 4759
波形 4758
金曜日 4756
mail 4755
▁Live 4754
それゆえに 4754
を構築し 4752
サラ 4749
Col 4747
言いました 4747
が自動的に 4746
の構造 4746
取得した 4745
申込 4745
きっかけ 4744
ベリー 4744
之 4744
こともあります 4743
厚さ 4743
木の 4741
甲 4741
模様 4739
▁Qu 4738
づけ 4738
を利用した 4738
継 4738
ture 4737
しようとしている 4737
の成功 4737
dr 4735
▁ですから 4735
子会社 4735
▁Corporation 4734
良好な 4733
首脳 4733
商品を 4731
の再 4730
不可 4730
壊 4730
多様性 4730
わけ 4729
失われた 4729
旗 4728
株主 4728
開かれ 4728
をどんどん 4727
の発生 4726
残酷な 4726
▁入力 4725
オーナー 4725
10% 4724
▁ポイント 4724
されていました 4724
ビッグ 4724
原材料 4724
誤 4724
巨大 4722
0.00 4721
カジノ 4721
じゃ 4720
奏 4720
されていること 4717
機会を与えてくれます 4716
発達 4716
オリジナルの 4715
工具 4715
▁二 4714
らい 4714
を聞く 4714
アフリカの 4714
尊 4714
о 4713
していますが 4713
の港から 4712
ブン 4712
商用 4712
決めた 4712
着陸 4712
しておく 4711
音源 4710
ウォレット 4709
了 4709
質の 4709
ディナー 4708
設 4708
CS 4707
を受け入れ 4707
熱い 4707
▁イタリアのホテル 4706
講義 4705
▁Add 4703
▁ZetaTalk 4703
のタクシーは 4703
の腕時計を提供しています 4703
を担当 4703
事業の 4703
ありませんでした 4701
AG 4700
を選択すると 4700
ich 4699
疑い 4699
誇 4699
反映 4698
帰り 4698
に到着 4697
テンポ 4697
バスルーム 4697
少なく 4697
洗練された 4697
観光地 4697
いった 4696
われわれ 4696
億ドル 4696
みると 4695
APEC 4694
ければ 4694
令 4694
重要です 4694
` 4692
▁ビュー 4692
のチームです 4692
クロック 4692
デモ 4692
』( 4691
得られた 4691
業界で 4691
SS 4689
shi 4689
を保持 4689
バリ 4689
絶対 4689
したい場合は 4687
つける 4687
シリーズは 4687
ブリッジ 4687
GO 4686
Min 4686
喜 4686
▁ウィッグの 4685
は西暦 4685
録 4685
– 4683
必要はありません 4683
ik 4682
あなたを助けることができる 4681
急いで 4681
核兵器 4681
間隔 4681
を説明する 4680
▁主な 4679
▁ウェブサイト 4678
▁お客様の 4677
に適用 4677
ヌー 4677
からスイス 4676
難民 4676
▁インド 4675
幸運 4675
ことが出来ます 4674
意志 4673
学的 4672
挨拶 4672
しばらく 4670
カスタマーサービス 4670
の一環として 4669
発掘 4669
をもたらし 4667
されているブランド 4666
カウント 4666
鶏 4666
ji 4665
奪 4665
HP 4664
を恐れ 4664
機の 4664
Book 4663
決め 4663
激しい 4663
ことに注意してください 4662
所得 4662
サム 4661
blog 4660
区別 4660
周囲 4660
屈 4660
の処理 4658
指揮 4658
▁ATTRACTIONS 4657
歴史的な 4657
は全く 4655
コンソール 4655
シンプル 4654
数学 4654
化した 4653
▁こちら 4652
今週 4651
始まった 4651
隆 4651
の総 4650
ギャ 4650
チー 4650
ディア 4650
リムジンサービス 4650
е 4649
ひとつ 4648
シップ 4648
再現 4648
天体 4648
ium 4647
ブランドの製品を 4647
他のショップ 4647
作成された 4647
貨 4647
隠された 4647
LD 4646
秋の 4646
非表示 4646
笑顔 4645
話し 4645
ことを確認 4644
ご質問 4644
を更新 4644
フィールドに 4644
の支援 4643
豊富な経験と知識 4643
身に着けていることによって 4643
割引価格で提供 4642
スタイルと衣装 4641
出して 4641
pl 4640
あらゆる機会であなたの 4640
ほどの 4640
を示す大きい 4640
ari 4639
のお抱え運転手 4639
を確認する 4639
二人 4639
個人情報は 4639
識別子 4639
エッジ 4638
ごと 4637
に適した 4637
私立探偵 4637
и 4636
時計を買う 4636
柔らかい 4635
研究センター 4635
首都 4635
の基礎 4634
言え 4634
設計された 4634
▁なぜ会社 4633
一意性を追加 4633
画面の 4633
▁ケース 4632
の質 4632
lan 4631
▁私達が 4631
で製品を買う 4631
ぐらい 4630
ご案内 4630
エレ 4629
クラスの 4629
職場 4629
いか 4628
リュー 4628
▁ドライバと 4627
ベゼル 4627
取り扱い 4626
UE 4625
▁PAX 4625
た後 4625
夜に 4625
昔 4625
贈り物 4625
FX 4624
aw 4623
html 4623
▁Facebook 4623
封 4623
NG 4622
かせ 4621
を直接 4621
がなく 4620
スティ 4620
駆 4620
FL 4619
のリスク 4619
ソフトウェアの 4618
委員会の 4617
▁ローマから 4615
▁素材 4614
行われます 4614
の一人 4613
近隣 4613
Th 4612
数百 4612
oolshopus 4611
を書く 4611
日中 4611
▁2006 4610
単なる 4610
財産 4610
のガイドと一緒に 4609
ds 4607
同社は 4607
産地 4607
▁チャンピーノ空港 4605
のトップ 4605
の一覧 4605
軽く 4605
の最 4604
コンテナ 4604
インタプリタや 4603
NC 4602
このゲーム 4602
マウント 4602
地に 4602
ポジターノ 4601
保全 4601
定期 4601
ob 4600
と考える 4600
チビタベッキア 4598
からシチリア島 4597
▁その他サービス 4596
▁フィウミチーノ空港 4596
肩 4596
▁リンク 4595
を必要とし 4595
バイク 4595
ホテルまでタクシー 4595
経験の豊かな 4595
▁ミニバスの 4594
ティブルティーナ駅 4594
彼等 4594
障害者 4594
の基本 4593
を決定する 4593
帝 4593
gram 4592
半島 4592
安全で 4592
▁メルセデスビアノ 4591
▁リボルノ海 4591
やイタリアの他の 4591
快適な旅をご提供 4591
車の中でタクシー 4591
伝えられ 4590
ISO 4589
を送信する 4589
現時点で 4589
ていると 4588
で構成され 4588
を探す 4588
遺 4588
オートメーション 4587
シル 4585
ミラー 4585
TC 4584
オル 4584
腫 4584
式の 4583
感染症 4583
ov 4582
ひどい 4582
クレーム 4580
BI 4579
▁32 4579
江戸時代 4579
ないでください 4578
存 4578
高性能 4578
ENT 4577
察 4576
惑 4576
を提供している 4575
低減 4575
委員 4575
釣り 4574
▁Vol 4573
テーション 4573
の治療 4571
コミットメント 4571
出る 4571
できるよう 4570
を減らす 4570
売上高 4570
思います 4570
構 4570
できなかった 4569
を超え 4569
食べて 4569
▁Skype 4567
炎症 4567
進出 4567
を見ることができます 4566
合法的 4566
飲み 4566
▁テンプレート 4565
ric 4564
みて 4564
地方の 4564
友 4563
つもり 4560
態度 4560
認知 4560
ウイ 4559
規模の 4558
ズーム 4557
フィン 4557
の様子 4556
までは 4556
下記 4556
砂漠 4556
世界的に 4555
使ってみよう 4554
2/ 4553
タブレット 4553
明らか 4552
福祉 4551
しかも 4550
に乗る 4550
▁アメリカ 4549
▁メイン 4548
すべては 4548
つぶ 4548
招 4548
したときに 4546
ようになり 4546
▁2005 4545
▁7. 4543
善意者 4543
楽しく 4543
確保 4543
置き 4543
▁51 4542
▁キー 4542
できるようになります 4542
▁90 4541
IWC 4540
いずれかの 4540
巣 4540
棚 4540
絶えず 4540
inc 4539
わけではありません 4539
委員長 4539
金の 4539
ani 4538
orn 4538
▁Enter 4538
のでしょう 4538
伸 4538
▁セキュリティ 4537
弓 4536
1. 4535
6% 4533
補正 4533
の評価 4532
携帯 4532
設定ファイル 4532
先端 4531
入学 4531
女性が 4531
追加しよう 4531
▁編集 4530
椅子 4530
生じた 4528
に戻って 4527
1.1 4526
CSR 4525
おか 4524
ml 4523
クリスチャン 4521
を見つけることができます 4520
を避け 4520
横浜 4520
したとき 4519
に伴い 4519
の使用に同意したものとみな 4519
の重要な 4519
を訪問 4519
マジック 4519
かん 4518
4% 4517
JavaScript 4517
クラッチ 4516
タウン 4516
聞く 4516
々と 4515
目で 4515
93 4514
replica 4514
▁アカウント 4514
円形 4514
残っている 4514
つです 4513
そのうち 4512
の価格 4512
お話 4511
が完了 4511
とにかく 4511
みなさん 4510
提供する 4510
▁すでに 4509
重点 4509
がありますが 4508
れない 4508
ビタミン 4508
ってくる 4507
の言葉 4507
気になるアイテム 4507
▁当社 4506
▁Ac 4504
▁Blog 4502
▁ユーザーは 4502
サービスを提供し 4502
スキャナ 4502
光学 4502
用品 4502
かかります 4501
職業 4500
パッチ 4499
ポータル 4499
▁テーブル 4497
を図る 4497
周囲の 4495
1997 4493
汁 4492
の品質 4491
cn 4490
わかる 4490
出演 4490
▁Evernote 4489
ケル 4488
に移 4487
ワクチン 4487
booking 4486
欄 4486
▁彼が 4484
の部分 4483
をご利用 4483
漫画 4483
力が 4482
台湾の 4482
定める 4482
見逃 4482
の時 4481
見つける 4480
ドーム 4479
地球温暖化 4479
グルメ 4478
以下に 4477
創出 4477
太陽が 4477
を検討 4476
の多くの 4475
種子 4474
きり 4473
批判 4472
国は 4471
生涯 4471
輝き 4471
バンク 4470
表明 4470
営業日 4469
を伝える 4468
リストに 4468
年頃 4467
日の出 4466
OpenImageBank 4465
の小さな 4465
仁 4465
文明 4465
の調整 4464
固有の 4464
当施設の 4464
か月 4463
年以来 4463
に位置しています 4462
出来 4462
策定 4461
use 4460
▁実際 4460
日目 4460
転生 4459
ほかの 4458
変異 4458
▁500 4457
フィット 4457
革新 4457
ということは 4455
の目的 4455
ございます 4454
aka 4453
▁Friends 4453
図形 4453
ms 4452
ご紹介 4452
リンポチェ 4452
材料の 4452
ムービー 4450
包装 4450
子プロセス 4449
直ちに 4449
階段 4449
▁Bo 4448
ゲームは 4448
問題の 4448
次のように 4447
ミュージック 4446
牧 4445
食材 4444
の町 4443
を聞いて 4443
偏 4443
ブライトリング 4442
味わい 4442
最大限 4442
呼 4441
▁ソフトウェア 4440
メタ 4440
130 4438
ないと 4438
ASEAN 4436
するためには 4436
われた 4434
北海道 4434
機関の 4434
に興味 4433
CT 4432
監査 4432
雪の 4431
専 4429
無し 4429
▁Be 4428
状況を 4428
XP 4427
いれば 4426
va 4425
室内 4425
GE 4424
クリーン 4423
東京都 4423
父親 4422
シンポジウム 4421
主導 4421
才能 4421
進み 4420
医薬品 4419
毎月 4418
ソロ 4417
座席 4417
持続 4417
潜 4417
で使用する 4416
傾き 4416
協 4415
未来の 4415
派遣 4415
用いられ 4415
の海 4414
を始める 4414
シリーズの 4414
BookingSuite 4413
ting 4413
モール 4413
▁外部 4412
責任者 4412
▁このページ 4411
価格で 4411
▁ノート 4410
を開け 4410
データセンター 4410
領 4410
ことができません 4409
オール 4409
干渉 4409
幸福 4409
▁ジャミロクワイイタリア 4408
の主要な 4408
効果的に 4408
Al 4407
▁di 4407
呼びかけ 4407
方法について 4407
RP 4406
パッド 4406
曲線 4406
組み込み 4406
豪華な 4404
金星 4404
キリスト教 4403
ドリンク 4402
世界最大の 4402
数十 4402
頻度 4402
1998 4401
ているので 4401
開発された 4401
医 4400
~20 4399
述 4399
連れ 4399
短期 4398
に役立つ 4397
ファイルに 4397
聞き 4396
見えます 4394
っていない 4393
周り 4393
を特定 4392
添付 4392
の近くに 4390
を与えた 4390
ユーザーに 4390
女子 4390
胃 4390
モデルの 4389
若干 4389
怒り 4388
▁watch 4387
が大きく 4387
ていない場合 4387
肝 4387
▁GB 4386
▁私たちが 4386
を認識し 4386
ハート 4386
バックパック 4386
起き 4386
江戸 4385
▁Go 4384
使われ 4384
岐 4384
▁be 4383
▁このため 4381
を容易に 4381
だけに 4380
▁Ta 4379
時半 4379
ことを期待 4378
を選択できます 4378
レザー 4378
動機 4378
イヤー 4377
この記事 4376
為に 4375
輝く 4375
MM 4374
の機会 4374
登山 4373
のみならず 4372
アント 4370
メイド 4370
お子様 4369
国が 4369
果実 4369
煮 4369
men 4368
ていきたい 4368
ドリ 4368
弊社の 4368
360 4367
除外 4367
shan 4366
倉庫 4365
市場に 4365
望む 4365
LC 4364
Microsoft 4364
していただけるよう 4364
人類の 4364
情報源 4364
チャレンジ 4363
音符 4363
高速道路 4363
細菌 4361
▁ソース 4360
からだ 4360
を支援し 4360
トレ 4360
申し 4360
許容 4360
そんなに 4359
のではないか 4359
相関 4359
意味で 4358
溶け 4358
▁Un 4357
ホワイトハウス 4357
評判 4357
双方 4356
9% 4355
、2010 4355
に来た 4355
ザン 4355
を押し 4354
作戦 4354
バター 4352
CIA 4351
縮 4350
通りに 4349
当施設は 4348
文章 4348
えて 4347
はっきり 4347
ミラノ 4347
場面 4347
議長 4347
割合 4346
励 4346
ビジュアル 4345
名を 4344
比率 4344
蒸気 4344
に至るまで 4343
を発行 4343
キャスト 4343
▁選択した 4342
アンケート 4342
知られています 4342
福音 4342
▁Pa 4341
のいくつか 4341
形式の 4340
晴 4340
長い時間 4340
楽しむ 4339
遺産 4339
を発見 4337
同じく 4337
ゲノム 4336
薬品 4336
エリート 4335
指向 4335
酵素 4335
どこでも 4334
pp 4333
続けている 4333
▁もっと 4332
はどう 4332
何故 4332
レジャー 4331
創業 4329
BE 4328
昭和 4328
ウィーン 4327
ウィキ 4326
Set 4325
press 4325
ゲームを 4325
創設 4325
性別 4325
日本と 4325
Word 4324
でもあります 4324
で開催された 4323
協議会 4323
のソース 4322
ることは 4322
案件 4322
われる 4321
期の 4320
▁Server 4319
がよく 4319
と考えられる 4319
Ex 4318
yn 4318
▁スタッフ 4318
地域に 4318
MAN 4317
沼 4317
line 4315
カウンター 4315
Ti 4314
▁接続 4314
改めて 4314
スペシャル 4313
取れ 4313
からなる 4312
ご利用いただけます 4312
肥 4312
悲 4311
の更新 4310
の記録 4310
アメリカ合衆国 4309
質量 4309
取り付け 4308
皇帝 4308
と言いました 4307
放射 4307
ホルダー 4306
取締役 4306
紀 4306
イベントは 4305
レンジ 4305
文化の 4305
Tu 4304
をオフに 4304
▁8. 4303
その時 4303
演出 4303
ガーデン 4302
百万 4302
であることが 4301
柔軟性 4301
自分たちの 4301
っていました 4300
倉 4300
売上 4300
EA 4299
がどのように 4299
を見つけること 4298
割り当てられ 4298
することができない 4296
をとり 4295
日本企業 4295
最先端の 4295
365 4294
を選択してください 4294
セットアップ 4292
ネス 4292
切る 4292
取られ 4292
年代に 4292
血管 4292
周辺の 4290
姿を 4290
自らの 4290
自由な 4290
▁IT 4289
インスピレーション 4288
中でも 4288
▁He 4286
お気に入りの 4286
シェフ 4286
取組 4286
ギリシャの 4285
しておりますが 4284
サミット 4284
(4 4283
▁:: 4283
刺 4283
-15 4282
フェア 4282
続けています 4282
Ch 4281
hai 4281
▁BookingSuite 4280
▁80 4279
そのように 4279
‐ 4278
竜 4277
経済探偵 4277
List 4276
曲げ 4276
継続的な 4276
高解像度 4276
XXL 4275
の目 4275
ユーティリティ 4275
※ 4274
ユーザーの個人情報を使用する 4274
正直 4274
--- 4273
las 4273
TRA 4272
してダウンロードしてください 4272
することが可能 4272
匿名 4272
ラウンジ 4271
死ぬ 4271
1996 4270
▁News 4270
UP 4269
スナップ 4268
と思って 4267
示す 4267
マネー 4266
▁価格 4265
人数 4265
けれど 4264
という意味 4264
に伴う 4264
正式に 4264
スイスの 4263
上記 4263
化し 4263
排水 4263
ソーシャルメディア 4262
地位 4261
ox 4260
のウェブサイトでは 4260
今月 4260
ことだ 4259
ヒー 4259
行事 4259
Japanese 4258
物理的な 4257
長官 4257
ならではの 4255
従って 4255
▁Followers 4254
がいる 4254
ニコ 4254
一時 4254
広がる 4254
している場合 4253
蓮 4253
▁実際には 4252
スキーム 4252
ハム 4252
溶接 4252
を支える 4251
Key 4250
bin 4250
を意味する 4250
世界を 4250
▁Hotel 4249
ともに 4249
水分 4249
紀元前 4249
ていますが 4248
に努め 4248
多少 4248
重さ 4248
適用する法律 4247
変化する 4246
を上げる 4245
対象となる 4245
粉末 4245
だと思う 4244
他にも 4243
、2014 4241
部隊 4241
しまい 4239
そうした 4239
ニセコ 4239
日産 4239
説明した 4239
セイ 4238
テレ 4238
予 4237
組織の 4237
ユーザーが当施設 4236
コンクリート 4235
フォーク 4235
訴訟 4235
音が 4235
注意事項 4234
▁DVD 4233
の取り組み 4233
コントローラー 4233
戻り 4233
終わる 4233
ring 4232
の通り 4231
大きさ 4231
バイヤー 4230
勇気 4230
紅 4230
著 4230
によって異なります 4229
光を 4229
可能性のある 4229
かかり 4228
を対象に 4228
個性 4228
競合 4228
何かを 4227
宅 4227
ウォー 4226
位置情報 4226
大学で 4226
▁上海 4225
を買う 4225
ポーカー 4225
0.1 4224
生きている 4222
プー 4221
ロープ 4221
救 4220
ごろ 4219
スクロール 4219
農家 4219
できない場合 4218
イスラム 4218
明るく 4218
収容 4216
軒 4216
水道 4215
の香り 4214
ミルク 4213
手作り 4212
▁Per 4211
▁内部 4211
さらには 4211
に移動する 4210
のみが 4210
座標 4210
細胞の 4210
ペル 4209
言葉を 4209
譜 4209
ありました 4207
GP 4206
ハラ 4206
▁2000 4205
祝 4205
LS 4204
▁おそらく 4204
Ana 4203
設定を 4203
を示した 4202
インタフェース 4202
ご連絡ください 4200
てしまった 4200
は無料です 4199
KI 4198
近づいて 4198
追い 4198
選定 4198
ran 4197
▁San 4197
エクスペリエンス 4197
クラッシュ 4197
ボン 4197
消化 4197
ユーザー名 4196
拡散 4196
欠陥 4196
直面 4196
WEB 4195
ミュ 4195
歳以上 4195
クイック 4194
を推進し 4193
お楽しみ 4192
されるように 4192
ニュースレター 4192
効 4192
年間で 4192
施 4191
ことができるように 4190
に貢献する 4190
覆われ 4190
頑 4190
上下 4189
別に 4189
日時 4189
▁iOS 4188
年後 4188
ニビルの 4187
▁著者 4186
お互い 4186
を変え 4186
を占め 4185
を実施する 4185
を管理する 4185
護 4184
の戦い 4183
ッシング 4183
差別 4182
投与 4182
awa 4181
に影響を与える 4181
に注目 4181
ルイ 4181
結果を 4181
考えた 4181
この地域 4180
体を 4180
プロジェクトを 4179
Java 4178
腰 4178
と彼の 4177
の裏 4176
ls 4175
の必要性 4175
ブラシ 4175
技術的な 4175
▁女性 4172
モル 4172
が含まれている 4171
▁9. 4170
度に 4170
望遠鏡 4170
様子 4170
見解 4170
コンサルティング 4168
標高 4168
ストラ 4167
周期 4167
理念 4167
回る 4166
菜 4166
初心者 4165
のセクションは 4164
ダイビング 4164
逆に 4164
を使用している 4163
毎に 4163
忍 4162
タイの 4160
発射 4160
せて 4159
ときには 4159
ドバイ 4159
マテリアル製品 4159
手動で 4158
を確保する 4157
どういう 4156
プレートが 4156
刀 4156
展示会 4156
現在は 4156
稼働 4156
継承 4156
送信されます 4156
▁You 4155
経由で 4155
やり方 4154
を伴う 4154
レーター 4154
まっている 4153
資 4153
ここの 4152
の部屋 4152
閲覧する場合 4152
▁ガールズ 4151
上映 4150
地球は 4150
踏み 4150
pid 4149
▁パスワード 4149
成田 4149
などの目的で 4148
結婚式 4147
を促進し 4146
を強調し 4146
張り 4146
機器の 4146
モスクワ 4144
ding 4143
だれ 4143
フー 4143
▁エンジン 4142
させるために 4142
教会の 4142
知り 4142
91 4141
が最も 4141
戦略的 4141
当サイトを引き続き 4140
MX 4139
の責任 4139
向かい 4139
本質的に 4139
ort 4138
wn 4138
てくる 4138
航 4138
over 4137
同僚 4137
並んで 4136
同士 4136
問い合わせ 4136
神が 4136
買い 4136
sha 4135
を取って 4135
作品の 4135
巧 4134
の安全性 4133
わった 4133
世紀に 4133
動物の 4133
宇宙の 4133
知らせ 4133
面で 4133
の下の 4132
フレーズ 4132
海に 4132
NU 4131
揚げ 4131
ura 4130
アイテムカラー 4130
噴火 4130
にご 4129
低く 4129
利用する 4129
彼らを 4129
▁近年 4128
を開始します 4128
センターの 4128
族の 4128
▁ここに 4127
明白 4127
矢印 4127
を読んで 4126
ブリュッセル 4125
同盟 4125
110 4124
今や 4124
IV 4123
▁実際に 4123
セクター 4123
発生します 4123
CPU 4122
視野 4121
グローバルな 4120
シグナル 4120
の特性 4119
コロ 4119
参照してください 4119
購入した 4119
なんて 4118
標本 4118
▁Cloud 4117
の景色 4117
AW 4113
IG 4113
ail 4113
一人の 4111
当社グループ 4111
食物 4111
陵 4110
の味 4109
を開発し 4109
近くに 4109
チベットの 4108
不良 4108
ダル 4107
最後 4107
▁ディレクトリ 4106
をかけ 4106
おお 4104
正規 4103
隅 4103
▁リクエスト 4102
じゃない 4102
レーン 4102
逸 4102
а 4101
達に 4101
Cr 4100
動的 4100
地下鉄 4100
▁テキスト 4099
勤 4098
姉妹 4098
の始まり 4097
ブラン 4097
キッズサイズ 4096
ミル 4096
名古屋 4096
男性の 4096
カリフォルニア 4095
▁さて 4094
ままに 4094
を通過 4094
アラ 4094
以外に 4094
▁2: 4093
登る 4093
▁ファイルの 4092
にアクセスする 4092
の一部として 4092
ファブリック製品と 4092
仕上がりの印象が 4092
ご注意ください 4091
ゆえに 4091
をつけ 4091
ユーザが 4090
するとともに 4089
クリエイティブ 4089
匹 4089
を加え 4088
授与 4088
どのくらい 4087
リバー 4087
手動 4087
ベルリン 4086
選ばれた 4086
とサードパーティー 4085
なども 4084
の中心部 4084
体重 4084
使用されています 4084
の道 4083
トラッキング 4083
に沿った 4081
の心 4081
はじめに 4081
を保つ 4081
行われている 4081
の最も 4080
儀 4080
▁¥ 4079
より快適に閲覧 4079
目標は 4079
踊り 4078
77. 4077
四川省中国青年旅行社 4077
持って 4077
に基づいた 4076
を基に 4076
影響力 4076
役員 4076
を記録し 4075
分析およびマーケティング 4075
広範囲 4075
(2 4074
▁韓国 4074
ヴァン 4074
万円 4073
様に 4073
東芝 4072
評 4071
開きます 4071
base 4070
を制御する 4070
待 4070
▁DRM 4069
特色 4069
相対 4069
がまだ 4068
.... 4066
メーター 4066
復活 4066
確率 4066
独占 4065
を見つけた 4064
サファイア 4064
祝福 4064
-11 4063
お部屋 4063
かなりの 4063
の形成 4063
チック 4063
ファースト 4063
▁小さな 4062
すばらしい 4062
加入 4062
▁コピー時計 4060
sign 4059
遵守 4059
の街 4058
デッキ 4056
馬力 4056
に従う 4055
をクリックしてください 4055
が参加し 4053
高精度 4053
リーダーシップ 4052
人間が 4052
の方へ 4051
マリ 4049
包括的な 4048
学校の 4048
容易 4048
▁Na 4047
の最大 4047
農村 4047
描画 4045
ブドウ 4044
削除された 4044
同社の 4044
埋め 4044
幹 4044
速やかに 4044
馬の 4044
Fe 4043
なくなった 4043
放射線 4043
浸 4043
xi 4042
に入り 4041
明確に 4041
概 4041
野球 4039
麗江 4039
に取り組む 4038
を加える 4037
を起こし 4037
人生の 4037
...) 4036
を維持 4036
ということで 4035
を生成する 4035
季 4034
干 4034
입선 4034
飾 4033
5,000 4032
▁ハイ 4032
転移 4032
上から 4031
▁Ka 4030
おく 4030
を始めた 4030
労 4030
込 4029
感動 4028
エントリー 4027
商品は 4027
▁Te 4026
地形 4026
最高品質の 4026
rial 4025
ダッシュボード 4025
東北 4025
鐘 4025
▁ソウル 4024
開催される 4024
だろうか 4023
奇 4023
性交 4023
確定 4023
刃 4022
微生物 4022
書かれ 4022
雅 4021
えます 4019
?? 4018
Da 4018
を除く 4018
小説 4017
配慮 4017
充実 4016
サイバー 4014
努力を 4014
与えられ 4012
免除 4012
石炭 4011
cgi 4010
cl 4009
そうと 4008
にかかわらず 4008
に応じた 4008
の動作 4008
デート 4007
純粋な 4007
GT 4005
ユーザは 4005
事務 4005
INC 4004
いう 4004
べく 4004
笑い 4004
表情 4004
見通し 4004
▁Mi 4003
耐水性 4003
触れ 4003
Pan 4002
を越えて 4002
ンス 4002
の確認 4001
うちに 4000
リビア 3997
得た 3997
wiki 3996
▁KDDI 3996
くれ 3996
を設け 3995
フライト 3995
続けて 3995
ピング 3994
部門の 3994
からである 3993
とのこと 3993
上司 3992
岩の 3992
詞 3992
▁あなたのレンタカー 3990
みた 3990
を得るために 3990
を運営する 3990
Name 3989
ations 3989
の期間 3989
繁殖 3988
NY 3986
地中海 3986
鎮 3986
えた 3985
生態系 3985
Le 3984
Sub 3984
導く 3984
に比べ 3983
まあ 3983
必ずしも 3982
BTC 3981
▁北京 3981
本学 3981
無限の 3981
苗 3981
ini 3980
を続け 3980
丈 3980
let 3979
lip 3979
を使用する場合 3979
強力 3979
遅い 3979
部分が 3978
であって 3977
最終的な 3977
標的 3977
の死 3976
but 3975
ヶ月間 3975
満たされ 3975
ローズ 3974
共同研究 3974
脅 3974
のであれば 3973
をコピー 3973
カメラの 3973
介入 3973
月曜日 3973
植 3973
Direct 3972
dB 3972
tory 3972
が少ない 3972
サンド 3972
ニュージーランド 3972
尽く 3972
(18 3971
一定 3971
どうぞ 3970
カス 3970
車輌 3970
ステレオ 3969
耐性 3969
と考えている 3968
の精神 3968
トーン 3968
含 3968
運命 3968
に行き 3967
▁平成 3966
三菱 3966
これらは 3965
ui 3964
チュートリアル 3964
見ることができます 3964
atch 3963
ベンダーや 3963
基板 3963
組み立て 3963
近代 3962
随 3962
、2013 3961
元に 3961
米ドル 3961
▁px 3960
出てくる 3960
振興 3960
2.1 3959
るでしょう 3959
風呂 3959
僕の 3958
資金を 3958
朱 3957
見えない 3957
てくれた 3956
の調査 3956
動か 3956
3000 3954
ガソリン 3954
デリ 3954
ポーランド 3954
健 3954
冊 3954
すごく 3953
インスタンス 3952
唯一 3952
求める 3952
▁パッケージ 3951
のタイプ 3951
パニック 3951
同様 3951
黄金 3951
Ad 3950
階層 3950
ローン 3949
新宿 3948
過剰 3948
なんと 3947
日本は 3947
ld 3946
の上昇 3946
の顔 3946
催 3946
を保存する 3945
グラン 3944
改正 3944
car 3943
uch 3943
の主要 3943
ビス 3943
勤務 3943
無く 3943
もいい 3942
以外で 3942
の葉 3941
コンテンツを 3941
水は 3941
と比較 3940
フラグ 3940
イエス様 3939
無料フォント 3938
という名前 3937
因子 3937
就 3937
進路 3937
ペース 3936
入場 3936
横断 3936
アンプ 3935
物理学 3934
音響 3934
uk 3933
のイベント 3932
を行なう 3932
を設立 3932
、2011 3931
との間の 3930
をダウンロードできる場所 3930
の半分 3929
の実 3929
は自動的に 3929
▁ロレックス 3928
バレー 3928
死んだ 3928
買収 3928
が表示される 3927
を搭載し 3927
停 3927
児童 3927
入った 3927
物は 3927
豚 3927
AND 3926
を持っていない 3926
危険性 3926
▁CE 3925
▁ベトナム 3925
カスタムプレビュー 3925
サイトの完全 3925
フォント集 3925
崖 3925
雑 3925
▁Online 3923
の規定 3923
未満 3923
py 3922
▁2004 3921
品質と 3921
掘削 3921
海岸線 3921
アレルギー 3920
投入 3919
ink 3917
前提 3917
をすべて 3916
友好 3916
を追跡 3915
1980 3914
をはじめとする 3914
狭い 3914
Remo 3913
rc 3913
イラスト 3913
リウム 3913
Power 3912
お願いいたします 3912
を販売しようとしている 3912
を返す 3912
他のもの 3912
に集中 3911
キリストの 3910
まれた 3909
滑り 3909
、2019 3908
の画像 3908
建立 3908
植物の 3908
したのは 3907
の削減 3907
文化財 3907
裸 3907
▁本当に 3906
実は 3906
EV 3905
FP 3905
の多い 3905
コンパクト 3905
を務め 3904
ビリティ 3903
主の 3903
アパートメント 3902
クレーン 3901
ショット 3901
述べた 3901
信頼性の高いサイトを 3900
兵器 3900
今の 3899
Outlook 3898
燃え 3898
正面 3897
物理的 3896
買い手 3895
を書き 3894
Object 3893
rom 3893
アナログ 3893
ジャミロクワイ 3893
示します 3893
悪魔 3892
画面に 3889
が同じ 3888
をよく 3888
沈下 3888
に移動します 3887
▁詳細は 3886
にのみ 3886
調査サービスや 3886
▁Vi 3885
を訪れ 3885
ze 3883
ご購入 3883
ッピング 3883
レア 3883
見られ 3883
に参加した 3882
を切り 3882
▁昨年 3881
と思っています 3881
お気に入り 3879
コム 3879
有名です 3879
系統 3879
表示された 3879
長崎 3879
を避けるために 3878
入る 3878
銘柄 3878
を開発する 3877
モータ 3877
関税 3877
▁Support 3875
エクス 3875
貯蔵 3874
再建 3873
支払う 3873
gin 3872
プロセスを 3872
麦 3872
不要 3871
私には 3871
戦う 3870
fin 3869
しますか 3869
目的のために 3869
で最高の 3868
境 3868
巨 3868
私はそれを 3868
陥 3868
を実行します 3867
予報円 3867
日本に 3867
語った 3867
ことがない 3866
を形成する 3865
TEL 3864
きっと 3863
たく 3863
マイク 3863
ati 3862
▁Center 3862
の例 3862
委託 3861
Info 3860
gg 3860
▁これを 3860
数分 3860
遠い 3860
康 3859
農場 3859
が必要である 3857
ハードドライブ 3857
SL 3856
競 3856
▁Ste 3855
の真 3855
ゲージ 3855
ool 3854
▁その時 3854
チャイ 3853
vis 3852
チャンピオン 3852
長期的な 3852
▁チェック 3851
Time 3850
が所有 3850
ベンダー 3850
▁フリー 3849
標準的な 3849
顔を 3849
するときに 3848
デザート 3848
のほとんどは 3847
大学大学院 3847
落とし 3847
お奨めする 3846
の報告 3846
はありますか 3846
セールス 3846
領土 3846
-20 3845
III 3845
を提供するために 3845
商品をメールで 3845
実際 3845
技術者 3845
▁それに 3844
出来ます 3844
ことについて 3843
▁72 3842
走り 3842
国際社会 3841
Mod 3840
▁ビット 3840
を表し 3840
システムに 3840
てくれました 3839
継続的に 3839
▁なぜなら 3838
の夜 3838
塊 3838
一時的に 3837
の移動 3836
免 3836
揺れ 3836
数々の 3836
渦 3836
お願い 3835
に従ってください 3835
ることが 3835
の墓 3834
ピアノ 3834
木製の 3834
に向け 3833
前進 3833
壁に 3833
を編集する 3832
ターン 3832
積極的な 3832
ストップ 3831
ベトナムの 3831
代理店 3831
全体が 3831
▁プラグイン 3830
に見える 3830
浸透 3830
年度の 3829
レル 3828
ノウハウ 3827
マケドニア 3827
菩薩 3827
陶 3827
▁最初に 3826
ができ 3826
ひき 3826
大いに 3826
サードパーティ 3825
原発 3825
枚の 3825
ock 3824
▁Record 3824
アムステルダム 3824
の安全 3823
は他の 3823
預 3823
徹底 3822
ヘア 3820
織 3820
訪れる 3820
することも 3819
ブレンド 3817
述べています 3817
可能である 3816
失われ 3816
訴え 3815
性的 3814
Best 3813
を考える 3813
今年の 3813
ことができなかった 3811
救い 3811
部分に 3811
ラボ 3808
拍 3808
まって 3807
を入力し 3807
へ移動 3806
年までに 3806
釈 3806
フィットネス 3805
を教え 3804
を繰り返し 3804
砕 3804
彼ら自身 3803
瀬 3803
FO 3802
ミサイル 3802
2,000 3801
rit 3801
▁Communications 3801
を見ると 3800
デスク 3800
分野における 3800
受付 3800
yo 3799
に入った 3799
オーブン 3799
教員 3799
磁気の 3799
駐 3799
レストランで 3798
と他の 3797
混ぜ 3797
JI 3796
コンバータ 3796
味を 3796
ste 3795
壊れ 3794
茎 3794
コテージ 3793
変形 3793
ize 3792
する際 3791
懸 3791
駅から 3791
▁Play 3790
どれ 3790
不思議 3790
BT 3789
oz 3789
桃 3789
FR 3788
time 3788
渓谷 3788
月末 3787
磁石 3787
終わった 3787
語り 3787
総額 3786
を入れて 3784
ショック 3784
work 3783
zip 3783
フェード 3783
風味 3783
効率的な 3782
寒い 3782
攻 3782
標準の 3781
▁どのような 3780
ことのできる 3780
モデルは 3780
▁グローバル 3779
してくれる 3779
セラ 3779
青年 3779
ということを 3778
空白で区切って 3778
誕生日 3778
めて 3777
縮小 3777
▁一部の 3774
に登録 3774
おい 3773
こだわり 3773
受け取り 3773
進め 3772
▁誰が 3771
いただきました 3771
と思い 3771
トーナメント 3771
実質 3771
を描く 3770
付与 3770
▁複数の単語を 3769
ブラウン 3769
凝 3769
得られ 3769
で検索開始 3768
に耐え 3768
フロ 3768
福音書 3768
チェン 3767
傾斜 3767
飲み物 3767
に住んでいる 3766
魚の 3766
▁当時 3765
アブログ 3765
発注 3765
ビデオを 3764
ティファニー 3763
生態 3763
▁New 3762
ゆっくり 3762
過程で 3762
Sp 3761
パイプ 3761
不満 3761
祖 3761
レール 3760
達を 3760
€ 3759
ジャック 3759
ッター 3759
それとも 3758
夕方 3758
突然の 3758
英語の 3757
ロイヤル 3755
事務局 3755
▁we 3754
コードを 3754
人で 3754
Apple 3753
OW 3753
らなかった 3753
を聞いた 3753
帝国 3753
Blockchain 3752
TY 3752
Tech 3751
を選択することができます 3751
渓 3751
ている場合 3750
小屋 3750
王国 3750
UT 3749
の光 3748
クセ 3748
抜き 3748
▁空港 3747
定期的な 3747
爆 3747
を終了 3746
ステンレス 3746
付加 3746
未満の 3746
生まれる 3746
する機会 3745
▁00 3744
出た 3744
得られる 3744
息を 3744
苦しみ 3744
かけて 3742
トリック 3741
ビーム 3741
モダンな 3741
電磁 3741
それによって 3740
南北 3740
民主主義 3740
通話 3739
▁\ 3738
▁あなた 3738
スパム 3738
-12 3737
リターン 3737
心から 3737
明確 3735
初めに 3732
去る 3732
の森 3731
遂行 3731
の構成 3730
ART 3729
CAD 3728
の利点 3728
全然 3728
ダブルクリック 3727
メガ 3727
活気 3727
に住む 3726
持ってい 3726
カンパニー 3725
は決して 3724
ウクライナ 3724
ラグ 3724
婚 3724
者として 3724
頂く 3724
お待ち 3723
する必要はありません 3723
もち 3723
を発 3723
カスタマー 3723
任命 3723
味が 3721
奴隷 3721
探し 3721
tr 3720
マット 3720
再生可能エネルギー 3720
写真家 3720
場合もあります 3720
建物の 3720
を提示 3718
代表者 3718
掛 3718
料理を 3718
が良い 3717
貧しい 3717
Apache 3716
FF 3716
を楽しみ 3716
者である 3716
サイエンス 3715
ジョー 3715
-9 3714
ラッシュ 3714
皇 3714
につれて 3713
ポップアップメニュー 3713
軽量 3713
350 3711
マッピング 3711
ゴールデン 3710
特集 3710
発表された 3710
語る 3710
正確性 3709
しやすい 3708
つめ 3708
感じている 3708
現地の 3708
LU 3707
コーチ 3707
社が 3707
▁Ph 3706
高原 3705
該当 3704
を受け入れる 3703
自治 3702
水と 3701
ッグ 3700
耐え 3700
2.0 3699
を形成し 3699
来年 3699
▁Group 3698
することがあります 3698
全体に 3698
酔 3698
集合 3698
▁if 3697
レント 3697
伝える 3697
径 3697
とりわけ 3696
の概念 3696
▁更新 3695
cam 3694
▁オー 3694
握 3694
昼食 3694
▁Si 3693
を楽しんで 3693
▁Type 3692
コミット 3692
冠 3692
感度 3692
研磨 3690
頂けます 3690
どちら 3689
ドキュメンタリー 3689
取扱 3689
部品の 3689
▁ユーザ 3688
かれる 3688
柔 3688
荘 3688
お使い 3687
とも呼ばれ 3687
特別に 3687
3.5 3686
ある程度 3686
ここから 3686
どうして 3686
を進める 3686
ショート 3686
ポールシフトの 3686
事実上 3686
組合 3686
▁前述 3684
トンネル 3683
判 3683
缶 3683
ora 3682
オーディオファイル 3682
を見ている 3681
恒 3681
の開催 3680
恵まれ 3680
見ている 3680
ディーゼル 3679
真空 3679
繋 3678
試してみ 3678
鑑賞 3678
レジストリ 3677
レーダー 3677
功 3677
Coin 3676
することが可能です 3676
そうだ 3676
フロア 3676
年より 3676
かのように 3675
ley 3674
▁スペース 3674
ori 3673
飾り 3673
▁Download 3672
困 3672
帰国 3672
あなただけ 3671
に使用する 3671
事情 3671
が追加され 3670
を払って 3670
バージョンの 3670
にあたって 3669
ler 3668
▁弊社では 3668
エキス 3668
ヨン 3668
▁My 3667
ありますが 3667
される場合 3667
つけられ 3667
▁インストール 3666
をお楽しみください 3666
に取り組んで 3665
恵 3665
期間中 3665
迅速な 3665
tt 3664
の声 3664
を公開 3664
成人 3664
成績 3664
抗議 3664
最初から 3664
準備を 3664
透 3664
寿司 3663
聞かせ 3663
red 3662
グロ 3662
順に 3662
▁過去 3661
ハブ 3661
ライフスタイル 3661
本人 3661
知恵 3661
等を 3661
Portal 3660
oy 3660
についての詳細 3660
トラブル 3659
排 3659
提供された 3659
診 3659
▁SIM 3658
を取り入れ 3658
を経験し 3658
シール 3658
何でも 3658
立っている 3658
研究は 3657
といいます 3656
際には 3656
の方向 3655
省エネ 3655
裁 3655
雨が 3655
af 3654
は同じ 3653
コラボレーション 3653
知ら 3653
コスプレ 3652
0.2 3651
ボディガードサービス 3651
のバランス 3650
トロン 3650
▁Art 3649
自分自身を 3649
GS 3648
を続ける 3648
ition 3647
を信じ 3646
の方に 3645
れて 3645
愛好家 3645
▁パン 3643
行わ 3643
▁ここ 3642
を設置し 3642
カタ 3641
カ月 3641
プロジェクトに 3641
則 3641
怒 3641
望み 3641
氏名 3641
9:00 3640
に従事 3640
の周りに 3640
嘆 3640
運賃 3640
塗 3639
広め 3639
自身が 3638
mu 3637
▁3: 3637
▁電話 3637
を生み出し 3637
親切 3637
ステンレス鋼 3636
をカバー 3635
ハーブ 3635
NGO 3634
▁Am 3634
つづけ 3633
リップ 3633
米軍 3633
関節 3633
NTT 3632
New 3632
の代表 3632
を与えます 3632
グループが 3632
厚い 3631
コントローラ 3630
との間で 3628
に関連して 3628
ASS 3627
Bit 3627
の出力 3627
への影響 3627
コンピュータの 3627
時間で 3627
は少し 3626
総会 3626
男女 3625
お花 3624
かえ 3623
この時点で 3623
乗客 3623
介護 3623
由 3623
5000 3622
Ar 3622
の性質 3622
即座に 3622
したい場合 3620
uc 3619
▁2) 3619
が発生し 3619
体系 3619
真っ 3619
舌 3618
CF 3617
▁こんにちは 3617
動作する 3617
落ちる 3617
使われている 3616
設立された 3616
DD 3615
ついて 3614
汗 3613
穏やかな 3613
妊娠 3612
rm 3611
磁場 3611
間違った 3610
すり 3608
多くの人 3608
心地 3608
軟 3608
SF 3606
コンピュータに 3606
CV 3605
しま 3605
みました 3605
っていく 3604
ひとつの 3604
禅 3604
AU 3603
qui 3603
オリーブ 3603
万ドル 3603
part 3602
てしまいます 3602
を生じ 3601
なかなか 3600
無償 3600
▁近 3599
エレガントな 3599
余分な 3599
俳優 3599
怪 3599
流体 3599
地殻 3598
地震の 3598
▁カスタム 3596
▁中国の 3596
のパフォーマンス 3596
クルー 3596
スチール 3596
天国 3596
金融機関 3596
さい 3595
わざ 3595
主題 3595
に属し 3594
入札 3594
活動は 3593
ねじ 3592
性の高い 3592
[...] 3591
アプリの 3591
ィ 3591
管轄 3591
光が 3590
故障 3590
emb 3589
するなど 3589
ずれ 3589
将 3589
スラ 3588
個別 3588
捧げ 3588
Multi 3587
ega 3587
ならない 3587
を伝え 3587
航空会社 3587
▁(3) 3586
▁お客様が 3586
を使うことで 3586
宇 3586
自治体 3586
File 3585
に掲載されている 3585
に触れ 3585
流通 3585
開いて 3585
並ぶ 3584
参加者は 3584
双 3584
市場調査 3584
披露 3584
Meetup 3583
▁Man 3583
もらう 3583
一度に 3583
古典 3583
頭の 3583
一般的 3582
収録 3582
見直し 3582
▁この特別 3581
を増やす 3581
建てられた 3580
するものとします 3579
で撮影 3579
ドラ 3579
わずかな 3578
世界各地の 3578
噂 3578
ert 3577
知られる 3577
には有名な 3576
の共同 3576
わが 3576
を発表しました 3576
lib 3575
をご用意 3575
獣 3575
述べている 3575
ame 3573
以降の 3573
CHI 3571
ことはできない 3571
どのようにして 3571
ぶら 3570
ワイヤレス 3570
単純 3570
に最適です 3569
uz 3568
ついに 3568
作動 3568
含まれています 3568
およびその他の 3567
彼女を 3567
は完全に 3566
ペーパー 3566
同社 3566
日光 3566
の首都 3564
をオンに 3564
映画の 3564
に乗り 3563
例では 3563
で開催 3562
の作業 3562
対照 3562
或いは 3562
日以内に 3562
ark 3561
▁with 3561
滴 3561
RAM 3560
しない場合 3560
化学物質 3560
お願いします 3559
に設置 3559
をご提供 3559
を検索 3559
侵略 3559
誰でもゲームが作れ 3559
学んだ 3558
無駄 3558
てくれます 3557
会社が 3557
国内外の 3557
HS 3556
焼け 3556
研究員 3556
蘭 3556
の女性 3555
わたしたち 3555
を要求 3555
SY 3554
▁Dr 3554
アカウントに 3554
古典的な 3554
国際的に 3554
程度の 3554
蘇 3554
途中 3553
La 3552
あなたと 3552
ゴミ 3552
1.3 3551
▁Connect 3551
▁塩 3551
▁朝 3551
たもの 3551
の力 3551
モチーフ 3551
上書き 3551
決意 3551
ev 3550
の分析 3550
事態 3550
講座 3550
WS 3549
あなた方が 3549
の異なる 3549
の証拠 3549
を決める 3548
衣装 3548
now 3547
ライオン 3547
示された 3546
Game 3545
を確認し 3545
フェル 3545
プロバイダ 3545
ロケット 3545
決勝 3544
表彰 3544
開拓 3544
ions 3543
を超えた 3543
サス 3543
JA 3542
レンダリング 3542
奉仕 3542
審 3542
悟 3542
返信 3542
も可能です 3541
問題を解決 3541
新機能 3541
日には 3541
予報誤差 3540
感じた 3540
汚 3540
譲渡 3540
MT 3539
急速な 3539
を構成 3537
ユーザの 3537
Internet 3536
福島 3536
証券 3536
書く 3535
トラベル 3534
冷蔵庫 3534
実施しています 3534
物が 3534
Cas 3533
Ma 3533
の土地 3533
ユダヤ人 3533
伝送 3533
徴候 3533
求められる 3533
ign 3532
▁© 3532
▁奈良 3532
彗星 3532
次回 3532
CON 3531
的かつ 3531
膨大な 3531
かについて 3530
係 3530
権力体制 3530
論文が 3530
も可能 3529
台北 3529
粘 3529
140 3528
▁Bitcoin 3528
▁フィールド 3528
秘 3528
言っている 3528
最高レベルの 3527
西安 3527
data 3526
ていなかった 3526
に立ち 3526
施設は 3526
智 3526
もらい 3525
オメガ時計のレプリカ 3525
置いて 3525
聞 3525
設定した 3525
と言われ 3524
パテックフィリップ 3524
塗り 3524
発言 3524
▁下記 3523
スリ 3523
主は 3523
幅広く 3523
日程 3523
透明性 3523
避 3523
SNS 3522
東京大学 3522
をお持ち 3521
トゥー 3521
ほしい 3520
まち 3520
普段 3520
送金 3520
rand 3519
時期に 3519
選出 3519
▁誰もが 3518
水で 3518
がなかった 3517
インディ 3517
が生じ 3516
を構成する 3515
キャッチ 3515
中華 3514
各国の 3514
欧州連合 3514
青銅 3514
▁Pri 3513
が可能な 3513
する時 3513
を運ぶ 3513
再利用 3512
漂 3512
それでも 3511
の領域 3511
を起こす 3511
テッド 3511
101 3510
An 3510
Space 3510
の背景 3510
を生み出す 3509
付いた 3509
騒 3509
わず 3508
アイデンティティ 3508
採択 3508
推 3508
SSL 3507
倫理 3507
思想 3507
いっぱい 3506
▁1) 3505
力と 3505
産物 3505
val 3504
いただきます 3504
であると考えています 3504
個別の 3504
曜 3504
30% 3503
Id 3503
そのため 3503
になれ 3503
待機 3503
▁best 3502
ii 3501
一意 3501
特有の 3501
▁閣僚は 3500
タイル 3500
梨 3500
の皆さん 3498
タバコ 3498
きれいな 3497
を確認するために 3497
ワークスペース 3497
二酸化炭素 3497
個人的に 3497
本ウェブサイト 3497
状態の 3496
▁今日の 3495
行使 3495
エリ 3494
時点 3494
行列 3494
▁午後 3493
を明確に 3493
苦労 3493
▁CA 3492
はあまり 3492
レジ 3492
周りの 3492
wi 3491
▁新規 3491
し続ける 3491
たちに 3491
の比較 3491
コンプライアンス 3491
の割合 3490
をダウンロードする 3490
土曜日 3490
土曜日の 3490
豪 3490
迎え 3490
露出 3490
root 3489
つつある 3489
detective 3488
の音 3488
ラマ 3488
ようにしてください 3487
カルティエ 3487
重複 3487
が異なる 3486
システムです 3486
如 3486
▁北海道 3485
いただいて 3485
斜面 3485
言わ 3485
すばる望遠鏡 3484
せない 3484
配達 3484
メモリー 3483
成長する 3483
の手順 3482
効率的に 3482
本日 3482
票 3482
の操作 3481
るのは 3481
カンボジア 3481
尻 3481
謝 3481
Uni 3480
かわいい 3480
分かり 3480
境界 3480
罰 3480
▁Open 3479
を継続 3479
充分 3479
婦 3479
雨の 3479
代理 3478
礼拝 3478
イスラエルの 3477
廟 3477
(5 3476
oshi 3476
▁ゼータ達は 3476
者達が 3476
Qu 3475
シリ 3475
電子レンジ 3475
黄色の 3475
金型 3474
マグニチュード 3472
考 3472
訪れ 3472
ib 3470
して何度も 3470
back 3469
ラップトップ 3468
中心部 3468
出場 3468
尚 3468
架 3467
茂 3467
休憩 3466
リダイレクト 3465
技能 3465
▁何が 3464
であるので 3464
を通じた 3464
オペラ 3464
忙しい 3464
西側 3464
とはいえ 3463
を受け取った 3463
を提案し 3463
ナス 3463
地獄 3463
水中 3463
エレクトロニクス 3460
▁最後の 3459
言われた 3459
に置かれ 3458
▁× 3457
彼女に 3457
頃に 3457
Lightning 3456
SHI 3456
nc 3456
▁すなわち 3456
だったので 3456
のプロパティ 3456
みます 3455
トリー 3455
協調 3454
のお知らせ 3453
休み 3453
作成されます 3453
が行われた 3452
宣 3452
最新情報 3452
▁2002 3451
余り 3451
尊敬 3451
月まで 3451
EE 3450
できるか 3450
ストレート 3450
筒 3450
素早く 3450
$4.95 3449
万人の 3448
二次 3448
留め 3448
シーンが含まれています 3447
住んでいた 3447
▁はたったの 3446
つのその他の 3446
自然と 3446
する必要が 3445
のシーンや厳選された 3445
ポップ 3445
衛 3445
eb 3444
尋ね 3444
見えた 3444
豊富 3444
▁200 3443
▁最近の 3443
《 3443
に関連付けられ 3443
▁EMF 3441
をもたらします 3440
ダンプ 3440
摂取 3440
文化的 3440
を打ち 3439
査 3439
稼 3439
しないこと 3438
手続 3438
見事な 3438
YA 3437
▁バッグ 3437
と関連 3437
有効期限も 3437
、2003 3436
ョ 3436
創作 3436
設定されている 3436
▁加えて 3435
ベータ 3435
突き 3435
およびダウンロードが可能です 3434
視聴することが可能 3434
されず 3433
の外に 3433
誠 3433
の方は 3432
を調べる 3432
再生速度を調整 3432
西部 3432
食べた 3432
おいて 3431
の分野で 3431
の需要 3431
ホイ 3431
ミネラル 3431
Cap 3430
これらのシーンは 3429
を発見した 3429
無制限の視聴 3429
難しく 3429
レモン 3427
人道 3427
走る 3426
送料 3426
を向上させ 3425
マッ 3425
リンポチェは 3425
と思っている 3424
ファンド 3424
依然として 3424
働いて 3424
の取得 3423
修士 3423
Work 3422
のロゴ 3422
モンスター 3422
るため 3421
トリガー 3421
場合にのみ 3421
1994 3420
▁台湾 3420
よね 3420
メタン 3420
について話し 3419
肥料 3419
▁納期については 3417
にならない 3417
の回復 3417
出口 3417
ke 3416
▁Salesforce 3416
ネル 3416
告げ 3416
提供されます 3416
暗闇 3416
経済成長 3416
を反映し 3415
一切の 3414
全体的な 3413
の定義 3412
デフォルトで 3412
搭乗 3412
遠隔 3412
ソニー 3411
涙 3411
させていただきます 3410
の幅 3410
アメダス統計 3410
クール 3410
Win 3409
などが含まれます 3409
右に 3409
朝の 3409
限られた 3409
添加 3408
計画は 3408
Chi 3407
スライス 3407
ツールは 3407
与えられる 3407
警報 3406
配合 3406
way 3405
à 3405
アカデミー 3405
フィリップ 3405
一人で 3405
事が出来 3404
開かれた 3404
16:30 3403
og 3403
ICS 3402
背後 3402
▁第三者 3401
プロフェッショナル 3401
致 3401
に成功 3399
の損失 3399
を失う 3399
希 3399
の統合 3398
データ保護 3398
フック 3398
宇宙船 3398
SV 3397
pr 3397
の学生 3397
ボウル 3397
▁2.0 3396
受注 3396
制定 3395
故郷 3395
寒さ 3394
州で 3394
成熟 3394
所有権 3394
のなら 3393
メタル 3393
ヤマ 3393
ux 3391
を監視します 3390
変わります 3390
限られ 3390
motherfuckers 3389
タイムスタンプ 3389
起源 3389
たっぷり 3387
を示している 3387
ボス 3387
ness 3386
しつつ 3386
アクティブな 3386
画面で 3386
最終的には 3385
Play 3384
▁同社は 3384
オークション 3384
に残る 3383
の上部 3383
ネイティブ 3383
したくない 3382
マイニング 3382
を起動 3381
奈良 3381
暴露 3381
汎用 3381
花火 3381
レイン 3380
寛 3380
貼り付け 3380
車は 3380
サービスを提供する 3379
▁このオプション 3378
ために必要な 3378
繰り 3378
を使用している場合 3377
ュ 3377
ヨー 3377
変わった 3377
巡 3377
ダイレクト 3376
作業を 3376
未知の 3376
▁Content 3375
いずれも 3375
受講 3375
▁をクリックして 3374
が登場 3374
に影響を与え 3374
の終わりに 3374
動作します 3374
問題について 3374
態 3374
day 3373
pot 3373
ハードディスク 3373
▁Gen 3372
呉 3372
扉 3372
▁at 3371
に参加し 3371
クラフト 3371
フィンランド 3371
台中 3371
歩道 3371
請 3371
▁当サイト 3370
一生 3370
今すぐ 3370
だろうと 3369
の一つである 3369
ゲル 3368
ita 3367
oss 3367
わずかに 3367
ストリップ 3367
栄光 3367
クエリ 3366
パール 3366
Ca 3365
RFID 3365
ウエスト 3365
少数の 3365
快適に 3365
足の 3365
ストリーミング 3364
国内で 3364
を確実に 3363
コントラスト 3363
不可欠な 3363
改訂 3363
深さ 3363
請求書 3363
PD 3362
単一 3362
子供達 3362
作品が 3361
死んで 3361
英語で 3360
さら 3359
優秀な 3359
本格的な 3358
側で 3357
時まで 3357
一見 3356
討議 3355
須 3355
をご覧下さい 3354
アルファベット 3354
ミーティング 3354
暑 3354
阿 3354
Love 3353
STA 3353
数千 3353
電極 3353
顧客に 3353
AK 3352
呼び 3352
Char 3351
2.2 3350
あれ 3350
ソーシャル 3350
小学校 3350
小惑星 3350
Open 3349
にかかる 3348
一切 3348
個別に 3348
完 3348
裕 3348
AST 3347
の物語 3347
ヒン 3347
営業時間 3347
若手 3347
送る 3347
忠 3346
選択された 3346
値段 3345
出身 3345
民主 3345
遊ぶ 3345
70% 3344
医者 3344
知りたい 3344
4/ 3343
スロー 3343
ポイントは 3343
準備ができ 3343
瓦 3343
適切 3343
col 3342
ごみ 3342
してしまう 3341
プライバシーポリシー 3341
なんだ 3339
を送って 3339
ブルガリ 3339
欄に 3339
考えられ 3339
ans 3338
あるもの 3338
を取得し 3338
ウッド 3338
内陸 3338
宛先 3338
税込 3338
広範な 3337
神話 3337
"、" 3336
ゅう 3336
麗 3336
Add 3334
使用に起因する 3334
▁なし 3333
却 3333
に分かれ 3332
全般 3332
MV 3331
ダーク 3331
科学的 3331
itch 3330
の促進 3330
に非常に 3329
ICE 3328
規約 3328
醸造 3328
▁Ne 3327
がたくさん 3327
を通じ 3326
死者 3326
▁ONE 3325
ティス 3325
Type 3324
ているか 3324
桃園 3324
カスタマーサポートまで 3323
行い 3323
走行距離 3323
返品 3323
á 3322
▁THE 3322
プロセスは 3322
位の 3321
蓋 3321
量が 3321
より大きな 3320
を発表した 3320
late 3319
赤外線 3319
力で 3318
記念碑 3318
を期待 3317
不安定 3316
燃焼 3316
フォーカス 3315
ブラウザー 3315
戻る 3315
年生 3314
渡す 3314
》 3313
はならない 3313
へようこそ 3313
還 3313
cy 3312
国家の 3311
就職 3311
欧米 3311
を好む 3310
を有効にする 3310
入って 3310
大幅に 3310
of 3309
pon 3308
▁カタログ 3308
を使用してください 3308
イニシアティブ 3308
上級 3308
上げた 3306
年前の 3306
慣れ 3306
符 3306
だけでは 3305
モンクレール 3304
与 3304
Per 3303
にあたり 3303
れます 3303
あなた方 3302
奇跡 3302
:10 3301
の支払い 3301
丁 3301
完備 3301
虚 3301
▁オンライン花屋 3300
灰色 3300
花配達 3300
オーストラリアの 3299
完成した 3299
▁ヨーロッパ 3298
人工衛星 3298
美容 3298
蛇 3298
開催されました 3298
するような 3297
の東 3297
は主に 3297
摩擦 3297
▁LIVE 3296
を果たし 3296
勢力 3296
失敗した 3296
磨 3296
ありがとうございます 3295
またはその 3295
プレッ 3295
控え 3295
使用します 3294
凍結 3294
有効性 3294
本物 3294
海抜 3294
view 3293
を共有 3293
ジオ 3293
瓶 3293
重視 3293
を開始した 3292
画質 3292
ries 3291
の推進 3291
肉体 3291
読む 3291
のピーク 3290
均一 3290
フィル 3289
展開する 3289
途中で 3289
トム 3288
第二の 3288
集まって 3288
の数は 3287
ニューマドリッド 3287
有効化 3287
鮮やかな 3287
ギター 3286
統治 3286
ual 3285
どれほど 3285
ード 3285
右クリック 3285
と言われています 3284
ベクトル 3284
回避 3284
▁Wave 3283
奨励 3283
を置き 3282
テクニカル 3282
取って 3282
次のような 3282
ins 3281
▁ヘルプセンター 3281
直線 3280
兄 3279
男は 3279
gen 3278
なもの 3278
使用可能な 3278
本当 3278
罪を 3278
ブルク 3277
の決定 3276
クラスタ 3276
恋 3276
生き物 3276
数ヶ月 3275
東アジア 3275
畳 3275
闇 3275
1970 3274
ush 3274
いや 3274
鬼 3274
おこなわれ 3273
るので 3273
予報 3273
今でも 3273
成立 3273
指針 3273
を導入 3272
虎 3272
▁03 3271
消去 3271
脇 3271
Language 3270
音楽を 3270
できるようになりました 3269
サイトで 3269
広報 3269
救助 3269
lect 3268
見つけられ 3268
▁Help 3267
▁弊社の 3267
グラフィカル 3266
以下のような 3266
違って 3266
(2018 3265
ネーション 3265
会員登録 3265
始めて 3265
が含まれる 3264
て下さい 3264
必要があり 3264
方々 3264
されてきた 3263
の再生 3263
を挙げ 3263
滞 3263
いずれ 3262
されたもの 3262
幼児 3262
はなく 3261
価格が 3261
意思決定 3261
技法 3261
ble 3260
しまう 3260
銭 3260
祈 3259
逃げ 3259
▁Track 3258
例として 3258
元々 3258
鳥の 3258
先週 3257
先進 3257
確かめ 3257
つ目の 3256
を立て 3256
採掘 3256
旅客 3256
年代の 3255
ゲイン 3254
スポンサー 3254
単位で 3254
提供しています 3254
述べ 3254
開催された 3254
できました 3253
を推進する 3253
今回は 3253
郊外 3253
九州 3252
設定されます 3252
リアン 3251
RU 3250
▁ところが 3250
を使うと 3250
トレー 3250
器具 3250
指数 3250
舗装 3250
許諾 3250
売却 3249
女王 3249
屋台 3249
有用 3249
スウェーデン 3248
同定 3248
数年間 3247
最善の 3247
臭 3247
できませんでした 3246
エピソード 3246
私にとって 3246
てはいけない 3245
のシンボル 3245
効果が 3245
替 3245
お得な 3244
Off 3243
▁ここには 3243
昌 3243
TSMC 3242
▁CoinRevolution 3242
のヒント 3242
ッサ 3242
涼 3242
防御 3242
に入れて 3241
秀 3241
草原 3240
んでいます 3239
の最終 3238
で開催される 3237
に制限 3237
創立 3237
培 3237
ple 3236
が完全に 3236
代表的な 3236
win 3235
地域社会 3235
執筆 3235
が行われる 3233
否 3233
賭け 3233
を使用できます 3231
わたしの 3230
平等 3230
楽園 3230
詳しい 3229
ごく 3228
倍の 3228
Twitter 3227
▁Microsoft 3227
決断 3226
見込み 3225
cur 3224
と信じ 3224
ャ 3224
仏法 3224
▁91 3223
性格 3223
漆 3223
表示され 3222
鉱物 3222
お手伝い 3221
述べました 3221
ウィザード 3220
抽選 3220
お気軽に 3219
エンコーディング 3219
選手権 3219
ero 3218
▁USB 3218
をお勧めします 3218
上限 3218
存在している 3218
ata 3217
わけです 3217
木々 3217
目的の 3217
をどのように 3216
コーン 3216
どこで 3215
ウェー 3215
レディース 3215
世界中から 3215
あらかじめ 3214
お互いに 3214
ご希望の 3214
をオンにします 3214
を大幅に 3214
いただけ 3212
が含まれ 3212
と言います 3212
ダイニング 3212
仮定 3212
即 3212
繁 3212
に厳 3211
与える 3211
作者 3211
ボタンをクリックして 3210
ルカ 3210
代謝 3210
救済 3210
をダウンロードして 3209
を踏まえ 3208
を除き 3208
回目 3208
東洋 3208
空に 3208
PV 3207
▁EPLAN 3207
システムで 3207
反対側 3207
悪く 3207
日常生活 3207
ホル 3205
操 3205
AUROTEK 3204
牽引 3204
いきます 3203
ょ 3203
▁送迎 3202
するのを 3202
のテーマ 3202
主体 3202
ware 3201
前方 3201
"" 3200
を保持する 3200
中小企業 3200
粗 3200
を訪問し 3199
両者 3199
衆 3199
誤って 3199
されるべき 3198
ヶ 3198
中毒 3198
多くの人が 3198
World 3197
不思議な 3197
ade 3196
ギア 3196
グレード 3196
スペクトル 3196
メトロ 3196
最も人気のある 3196
貝 3196
した後に 3195
ポートフォリオ 3195
達と 3195
バッジ 3194
Port 3193
▁東京都 3193
どちらも 3191
に記載されている 3191
エンティティ 3191
銘 3191
カール 3190
高め 3189
とらえ 3188
を可能に 3188
ソート 3188
ハッ 3188
震 3188
750 3187
そろ 3187
ギャップ 3187
期間は 3187
を再生 3186
バルブ 3186
を制限する 3185
交わ 3185
展望 3185
ren 3184
あふれる 3184
それまで 3184
を立ち上げ 3184
入口 3184
こういう 3183
を過ごす 3183
逮捕 3183
VA 3182
必要です 3182
来ている 3182
サンタ 3181
爆弾 3181
▁II 3180
ませんか 3180
付加価値 3180
共和党 3180
見つけ 3180
訪問者の 3180
を改善する 3179
勢い 3179
探求 3178
▁ゼータ達によると 3177
日本政府 3177
期待される 3177
様々 3177
の後ろに 3176
効果的 3176
堪能 3176
を処理する 3175
が行われました 3174
を知り 3174
柔軟 3174
締め 3174
JBIC 3173
suite 3173
ころ 3173
の普及 3173
を訪れる 3173
▁VST 3172
を評価する 3172
停電 3172
連盟 3172
陣 3172
だったが 3171
の要求 3170
幸 3170
表記 3170
復帰 3169
秩序 3169
視聴 3169
カリフォルニア州 3168
地球を 3168
活発 3168
ものがあります 3167
を放 3167
チョン 3167
彼自身 3167
次第 3167
であるという 3166
記者 3166
の使命 3165
永遠に 3165
輝 3165
モジュールの 3164
分かる 3164
妨害 3164
ali 3163
そのために 3163
に関心 3163
したので 3162
アメリカ人 3161
クライ 3161
別途 3161
タブで 3159
マグ 3159
音を 3158
ことを示す 3157
を解除 3157
拘束 3157
を搭載した 3156
カルチャー 3156
知的 3156
衆生 3156
1993 3155
Jo 3155
の量 3155
を閲覧する 3155
検索エンジン 3155
残る 3155
考えている 3155
誠実 3155
選ばれ 3155
4.5 3154
行きます 3154
の一つで 3153
モニタ 3153
埋葬 3153
階の 3153
ドロ 3152
平面 3152
行っている 3152
開いている 3152
ann 3151
鎖 3151
揺 3150
楽しめる 3150
自動巻き 3150
を準備 3149
▁Apple 3146
コンデンサ 3146
ハンドラ 3146
耳を傾け 3146
▁Services 3145
に到達する 3145
拠 3145
歌詞 3145
pan 3144
できるだけ早く 3144
価値がある 3144
▁Lab 3143
をつくる 3143
中には 3143
京都大学 3143
店内 3143
後悔 3143
提供されています 3143
Mag 3142
ray 3142
史上 3142
後者 3142
に送信 3141
の制限 3141
市長 3141
腐 3141
VC 3140
に属する 3140
ファイル形式 3140
設定された 3140
ようとする 3139
与え 3139
発想 3139
を受賞 3138
機種 3138
理由で 3138
加えて 3137
生物学 3137
侵 3136
1992 3135
っていて 3135
の起源 3135
ストレッチ 3135
お土産 3134
が大好き 3133
シック 3133
儀式 3133
副作用 3133
宇宙協議会 3133
統 3133
製造業 3133
▁km 3131
リーフ 3131
代わり 3131
に係る 3130
バイオマス 3130
扱う 3130
究極の 3130
観音 3130
を参照する 3129
Root 3128
の雰囲気 3128
を考慮する 3128
バーチャル 3128
応援 3127
hy 3126
lit 3126
▁実は 3126
を作った 3126
生じ 3126
魔 3126
ツールバー 3125
喫煙 3125
太陽光発電 3125
昔の 3125
に使用される 3124
を行うことができます 3124
コラム 3124
敏感 3124
発音 3124
部長 3124
▁DJ 3123
▁続きを読む 3123
にとっても 3123
のタイトル 3123
を可能にします 3123
恐ろしい 3123
矢 3123
oul 3122
そこには 3122
の中央 3122
ウー 3122
波長 3122
高価な 3122
▁ブラック 3121
つ星 3121
ディック 3121
地球の変化 3121
105 3119
VO 3119
と仮定 3119
渋谷 3119
電池の 3119
▁On 3118
オフに 3118
出資 3118
頂き 3118
されていない場合 3117
でなければなりません 3117
河川 3117
のうちの 3116
を同時に 3115
を問わず 3115
ガイ 3115
何人か 3115
で行われた 3113
使われます 3113
処分 3113
周辺情報 3113
しようとした 3112
キム 3111
セメント 3111
ナイフ 3111
元気 3111
食糧 3111
を歓迎し 3110
テクニック 3110
勝ち 3110
課程 3110
金銭 3110
食事を 3110
、2009 3109
に利用されます 3109
の観点から 3109
パーティ 3109
幸せな 3109
感じて 3109
を実装 3108
カラット 3108
座って 3108
数多く 3108
に挑戦 3106
を共有し 3106
ストロ 3106
燃 3106
訪 3106
(1) 3105
0.3 3105
のアパート 3105
ホース 3105
全員が 3105
取引先 3105
直前 3105
させることができます 3104
に起因する 3104
マウスの 3104
雲の 3104
されるか 3103
バッファ 3103
似た 3103
シャングリ 3102
向こう 3102
塚 3102
に注意 3101
立った 3100
▁Photo 3099
の一つは 3099
をアップロード 3099
プラチナ 3099
合理的な 3099
呼ばれ 3099
矛盾 3099
見出し 3099
Bar 3098
uck 3098
したものです 3098
ベラ 3098
司法 3098
四季 3098
というもの 3096
役割を果たし 3096
工芸品 3095
たぶん 3094
につきましては 3094
を重ね 3094
欧 3094
魅力的 3094
プーチン 3093
早朝 3092
注意してください 3092
ute 3091
名前空間 3091
桁 3091
PH 3090
解消 3090
クルーズ 3089
海外の 3089
きちんと 3088
どうすれば 3088
年次 3088
!" 3087
した場合は 3087
てはいけません 3087
の利益 3087
を承認 3087
影響を与え 3087
悪意者の 3087
着実に 3087
辛 3087
間接的 3087
den 3086
の登録 3086
を修正する 3086
アブ 3086
ギー 3086
変革 3086
air 3085
処方 3085
溶液 3085
目覚め 3084
背中 3084
の形状 3083
るための 3083
ハル 3083
ヴォ 3083
返り 3083
VS 3082
を意味します 3082
ストーン 3082
ナンバー 3082
在住 3082
[1] 3081
から来る 3081
を備えています 3081
見ることができる 3081
Service 3080
▁熟 3080
もう少し 3080
一般人 3080
実際の商品 3080
式典 3080
されるまで 3079
Linux 3078
の設立 3078
を調べ 3078
弊社までお問い合わせください 3078
潜在 3077
Cryptocurrency 3076
▁you 3076
の目的は 3076
修了 3076
年以降 3076
建造 3076
スピン 3075
小規模 3075
往 3075
武装 3075
ater 3074
ユニーク 3074
ヴィラ 3074
wa 3073
十字架 3073
遅 3073
今も 3072
必要とされる 3072
をつける 3071
ウォール 3071
数理 3071
淡 3071
ole 3070
だし 3070
前から 3070
翌日 3070
▁Ba 3069
オフライン 3069
平方メートル 3069
無制限の 3069
返し 3069
(2) 3068
する権利 3068
の性能 3068
コイル 3068
ジッパー 3068
挙 3067
インストールされている 3066
戦車 3064
トヨタ 3063
▁httpd 3062
をオンにすると 3062
サラダ 3062
一つは 3062
履行 3062
氷河 3062
Red 3061
off 3061
の最高 3061
ホイミ 3061
時折 3061
海底 3061
迷惑 3061
インフルエンザ 3060
ビットコイン 3060
死に 3060
行くことができます 3060
らしく 3059
ポル 3059
一括 3059
候補者 3059
ことをお勧めします 3058
を測定 3058
まえ 3057
兆候 3057
正午 3057
ッと 3056
先頭 3056
群衆 3056
集まる 3056
虹 3055
coin 3054
わけではない 3054
マネージャ 3054
回数 3054
にそれを 3053
められ 3053
クラン 3053
召 3053
当施設が 3053
ることはありません 3052
プッシュ 3052
ロビー 3052
妹 3052
私と 3052
▁info 3051
見つかり 3051
ten 3050
アンインストール 3050
会談 3049
塗装 3049
を押して 3048
ベット 3048
ワット 3048
会議室 3048
必要なとき 3048
する必要があり 3047
番目に 3047
英雄 3047
アイルランド 3046
参加した 3046
GM 3045
XL 3045
に含まれています 3044
理事会 3044
の公式 3043
アンチ 3043
絶え 3043
ISS 3042
どれも 3042
なくなります 3042
ことも可能です 3041
別れ 3041
旋 3041
Ethereum 3040
邸 3040
IPS 3039
sec 3039
▁個人情報は 3039
に適しています 3039
問題を解決する 3039
VER 3038
の名称 3038
を回復する 3038
パスタ 3038
パワーポイント 3038
メルマガ 3038
ALL 3037
アム 3037
▁Amsterdam 3036
お届けいたしま 3036
ちゃう 3036
のコピー 3036
も多い 3036
切って 3036
RD 3035
パリの 3034
地面に 3034
監 3034
いち 3033
を見てください 3032
ポット 3032
比べ 3032
続けます 3032
▁Firefox 3031
▁ウェブマスター向けの 3030
を探して 3030
フィギュア 3029
検知 3029
ブティック 3028
決まり 3028
、2004 3027
ノア 3027
割れ 3027
教えて 3027
正当な利益 3027
SDL 3026
uro 3026
もあった 3026
を撮影 3026
サンフランシスコ 3026
短く 3026
ニウム 3025
博士は 3025
真珠 3025
fl 3024
の内側 3024
の象徴 3024
ウム 3024
Can 3023
が存在し 3023
ブー 3023
杭州 3023
目的は 3023
聞いた 3023
賃貸 3023
運行 3023
▁一方で 3022
▁住所 3022
であろうと 3022
親愛なる 3022
から直接 3021
ことではありません 3021
聞こえ 3021
頭を 3021
世界各国 3020
研究では 3019
に引き 3018
是 3018
ッシャー 3017
多くは 3017
正当 3017
▁SDK 3016
カレー 3016
チタン 3016
フォロワー 3016
合わせて 3016
多様 3016
弘 3016
hotel 3015
▁Sa 3015
を持ちます 3015
1.4 3014
tan 3014
をご覧 3014
を支え 3014
ローラー 3014
TU 3013
シルク 3013
治療法 3013
も同じ 3012
るもの 3012
生物多様性 3012
を楽しむことができます 3011
合格 3011
たかった 3010
学科 3010
を自動的に 3009
Nha 3008
してくれた 3008
プロデューサー 3008
ジム 3007
当ホテル 3007
言います 3007
ez 3006
を移動する 3006
愛情 3006
漏れ 3006
を得ること 3005
アカウントを 3005
夕 3005
することになります 3004
の外観 3004
渡し 3004
▁NASA 3003
▁ポリス 3003
委員会は 3003
工場で 3003
訴 3003
ella 3002
天文学者 3002
▁Do 3001
ディズニー 3001
トルク 3001
裕福な 3001
正式 3000
AVI 2999
GR 2999
も多く 2999
本契約 2999
プロジェクトで 2998
修道院 2998
この地 2997
購読 2997
追求 2996
NET 2995
が大きい 2995
と思いました 2995
プリンター 2995
予言 2995
てまいります 2994
を検索します 2994
私の心 2994
できるようにします 2993
主として 2993
けて 2992
刑 2991
寿 2991
空白 2991
見ると 2991
人種 2990
他社 2990
廃止 2990
貯 2990
ord 2989
▁Trang 2989
必 2989
持続可能な開発 2989
と予想され 2988
吹 2988
専門の 2988
OIST 2987
かどうかを 2987
役立つ 2987
ておく 2986
可能性があり 2986
ISIS 2985
▁以降 2985
を設定できます 2985
カラフルな 2985
パズル 2985
暗殺 2985
ゾン 2984
プラグ 2984
期に 2984
簡 2984
適用される 2984
DIA 2983
ロッド 2983
窯 2983
細かい 2983
それはまた 2982
アーチ 2982
マイナス 2982
旋回 2982
-18 2981
サウジアラビア 2981
尊重 2981
cle 2980
jo 2980
ございますので 2980
ですよね 2980
に与え 2980
に満足 2980
もたらす 2980
を表示するには 2980
将軍 2980
セクションで 2979
一時的な 2979
正常 2979
祝日 2978
~14 2977
てみる 2977
を紹介する 2977
賑 2977
躊 2977
がとても 2976
への対応 2976
教えてください 2976
躇 2976
new 2975
の村 2975
日々の 2975
脱出 2975
ことはない 2974
を通って 2974
読み込む 2974
赤色 2974
ようになっています 2973
スパイダー 2973
実行する 2973
Gr 2972
▁最終的には 2972
孝 2972
混合物 2972
掘り 2971
起きた 2971
メッセージは 2970
出された 2970
クリス 2969
喪失 2969
▁Netherlands 2968
▁Pi 2968
くれた 2968
したいと思います 2968
嘉 2968
鉛 2968
まつり 2967
いなかった 2966
のライフタイム 2966
は以下に記載 2966
同じように 2966
▁Page 2965
しかない 2965
してみてください 2965
スー 2965
別名 2965
▁インクルード 2963
るような 2963
打ち上げ 2963
を送り 2962
夫婦 2962
角質 2962
▁何人かの 2961
に到着した 2961
を出す 2961
バーグ 2961
働いている 2961
国民の 2961
所有者や 2961
の追求です 2960
主流 2960
右側に 2960
存在しない 2960
恩 2960
裂 2960
補欠 2960
sis 2959
アメダス集中豪雨 2959
命じ 2959
onic 2958
フランス語で 2958
取り組んで 2958
CB 2957
ことを可能にする 2957
は一切 2957
生息 2957
置換 2957
UM 2956
の底 2956
されていて 2955
物件 2955
▁お客様の個人情報を 2954
が生じる 2954
ノック 2954
mar 2953
伝統的 2953
出願 2953
日本から 2953
水路 2953
開いた 2953
▁高さ 2952
がございます 2952
を結ぶ 2952
増加した 2952
環境保護 2952
適正 2952
fu 2951
WI 2950
権威 2950
現在では 2950
他の場所 2949
取得した情報は 2949
油圧 2949
異常な 2949
を歓迎する 2948
スタッフが 2948
根拠 2948
Quark 2947
▁1017 2947
▁IWC 2947
の場合には 2947
ミック 2947
ミュージアム 2947
化粧品 2947
と呼ぶ 2946
れている 2946
カクテル 2946
実に 2946
FU 2945
▁Bar 2945
によって取得した情報 2945
に達した 2945
の知識 2945
ことが多い 2944
キャリバー 2944
弊社の正当な利益 2944
構え 2944
絶滅 2944
入金 2943
同国 2943
▁2001 2942
マラリア 2942
正当な利益を追求するため 2942
ll 2941
ことが可能 2941
やがて 2941
個体 2941
餌 2941
カードを 2940
グッズ 2940
フェン 2940
岡山 2940
精神的な 2940
実務 2939
GL 2938
KA 2938
と述べています 2938
素粒子 2938
2.3 2937
を決め 2937
観光客が 2937
ace 2936
を探している 2936
ハイテク 2936
までご連絡ください 2935
取り外し 2935
資金調達 2935
br 2934
フランス語 2934
当局や 2934
扱 2934
text 2933
放電 2933
exe 2932
ors 2932
のチケット 2932
フット 2932
最古の 2932
菓子 2932
質問を 2932
USA 2931
ご希望の場合 2931
どおり 2931
ゲイ 2931
バブル 2931
ばら 2930
セミ 2930
ワイヤー 2930
日本人の 2930
を挿入 2929
行います 2929
どちらの 2928
ガラ 2928
互い 2928
必要とする 2928
秘密の 2928
自主 2928
タオル 2927
例です 2927
本来の 2927
フォロー 2926
上演 2926
戒厳令 2926
敗 2926
ていくこと 2925
ショパール 2925
ヴィンテージ 2925
描かれ 2925
永遠の 2925
Box 2924
田舎 2924
Plus 2923
印象的な 2923
論理 2923
の姿 2922
民主党 2922
浅草 2922
傍 2921
情報の保持 2921
政府当局に 2921
郵送 2921
の減少 2920
詳細情報 2920
10:00 2919
VPN 2919
えば 2919
を指定できます 2919
信頼性の高い 2919
部位 2919
飛んで 2919
NP 2918
になっていた 2918
を入手 2918
インタラクティブ 2918
スコ 2918
公平 2918
思われ 2918
▁Time 2917
母の日 2917
法令順守 2917
部屋の 2917
HI 2916
μ 2916
人々です 2916
土地の 2916
明白な 2916
Comp 2915
ーノ 2915
アンテナ 2914
弦 2914
1989 2913
どれだけ 2913
剥 2913
▁web 2912
に戻 2912
を生成 2912
を開始しました 2912
を飲む 2912
カーボン 2912
コーディネート 2912
呼んで 2912
強制セックス 2912
されなかった 2911
しているのは 2911
の真ん中 2911
使われた 2911
個人情報を開示し 2911
所轄官庁 2911
政治家 2911
苦痛 2911
余裕 2910
と語った 2909
を比較 2909
アンダー 2909
olo 2908
ye 2908
に関係なく 2908
ガバナンス 2908
スーツ 2908
具体的に 2908
ご宿泊 2907
現場で 2907
紅葉 2907
賞賛 2907
たいと思います 2906
ておらず 2906
マルウェア 2905
壇 2905
発酵 2905
録画 2905
陸上 2905
¥ 2904
コロンビア 2904
ワーキング 2904
使用され 2904
地理的 2904
摂 2904
のアイコン 2903
アンドロイド 2903
偉 2903
▁HRM 2902
っち 2902
アラブ 2902
全てが 2902
597, 2901
your 2899
に関し 2899
を抱え 2899
AA 2898
と共有される場合 2898
プロダクトやサービス 2898
台風予報履歴 2898
ated 2897
ull 2897
▁Or 2897
勝つ 2897
反転 2897
数年前 2897
秋に 2897
触媒 2897
cell 2896
の採用 2896
の測定 2896
または犯罪行為 2896
を入れる 2896
を愛し 2896
受け付け 2896
支払われ 2896
mg 2895
に必要と認められ 2895
アメリカ人事 2895
範囲内 2895
糖尿病 2895
郵便 2895
4000 2894
Herengracht 2894
ns 2894
のなかで 2894
米国と 2894
騎 2894
と述べました 2893
殆ど 2893
異星人達 2893
高まり 2893
Fu 2892
Nor 2892
受け入れられ 2892
揃え 2892
▁PARTNERS 2891
を中心とした 2891
予めご了承ください 2891
使用可能 2891
現実の 2891
▁from 2890
同志 2890
的である 2890
違った 2890
Flash 2889
の中で最も 2889
を含める 2889
子供が 2889
民衆 2889
保つ 2888
学院 2888
たいと思う 2887
王朝 2887
SK 2886
捉え 2886
知っていた 2886
sch 2885
▁% 2885
アルゼンチン 2885
サービスを利用した際に 2885
法律で義務づけられている場合 2885
移り 2885
NK 2884
▁Cal 2884
それだけ 2884
によって許容される範囲において 2884
または訴追 2884
や詐欺行為の防止 2884
を取得します 2884
アヌンナキ 2884
マク 2884
予想される 2884
正当な 2884
潤 2884
考古学 2884
それ自体 2883
アクア 2883
ファイルシステム 2883
裁判 2883
野生 2883
version 2882
▁すべての動画は 2882
あて 2882
先行 2882
質問やクレームに 2882
FM 2881
レンガ 2881
排除 2881
数週間 2881
に合った 2880
ばかりの 2880
を表現し 2880
一致する 2880
仲 2880
刊 2880
弟 2880
腐敗 2880
間違って 2880
ジョブ 2879
牛の 2879
せた 2878
gan 2877
を確保 2877
立体 2877
Note 2876
conf 2875
をかけて 2875
ギリシャ語 2875
ビート 2875
会議で 2875
著名な 2874
を目的として 2873
マザー 2873
利用可能です 2873
浄化 2873
陶器 2873
ジュース 2872
メンバーの 2872
Back 2871
が必要となります 2871
ものでした 2871
知的財産権 2871
譲 2871
おかげで 2870
ラオス 2870
好奇心 2870
密接に 2870
aki 2869
あれば 2869
この世 2869
ご飯 2869
を説明します 2869
を遂げ 2869
杉 2869
▁コスプレポルノチューブ 2868
がすでに 2868
スリー 2868
トライ 2868
国内外 2868
rb 2867
お越し 2867
を終え 2867
を認める 2867
デビュー 2867
文字盤 2866
読んで 2866
委 2865
専門知識 2865
注ぐ 2865
Ba 2864
book 2864
▁ディレクティブは 2864
ウィンドウで 2864
似ている 2864
出身の 2864
新年 2864
昆虫 2864
灰 2864
詐欺行為の 2864
BL 2863
▁全画像 2863
▁適用される法律 2863
うえで 2863
TOR 2862
なのだ 2862
を占める 2862
を必要とします 2862
国外 2862
Master 2861
の日付 2861
思 2861
承諾 2861
しているため 2860
をテーマにした 2860
▁必要に応じて 2859
係数 2859
最近では 2859
画家 2859
通訳 2859
依 2858
責 2858
運航 2858
の私達の 2857
当施設のウェブサイト 2857
意思 2857
にぴったり 2856
をインストールする 2856
を担う 2856
仕方 2855
散策 2855
進んで 2855
デス 2854
ビーズ 2854
鋳造 2854
2025 2853
沢山 2853
討論 2853
賛 2853
開花 2853
していくこと 2852
年末 2852
数年 2852
kin 2851
Hz 2850
お知らせします 2850
シフトの 2850
ステンレススチール 2850
▁Store 2849
への参加 2849
を分析し 2849
方も 2849
アイス 2848
真剣に 2848
ぁ 2847
として知られる 2847
を広げ 2847
を決定 2847
フィー 2847
二人の 2847
適合 2847
他者 2846
地球環境 2845
富士 2845
広さ 2845
延期 2845
日本の旅行 2845
震災 2845
3.1 2844
が開始され 2844
の深さ 2844
を紹介します 2844
到来 2844
認 2844
video 2843
▁Player 2843
起こります 2843
加速計 2841
地区の 2841
有効期間 2841
供 2840
立ち上げ 2840
せられ 2838
予備 2838
▁ゼータは 2837
ものではない 2837
ウブロ 2837
新製品 2837
明示的に 2837
有効です 2837
の為に 2836
合った 2836
対立 2836
導き 2836
EST 2835
を対象とした 2835
丹 2835
CGI 2834
に保護されるように 2834
安く 2834
犠牲 2834
いつでも同意を撤回 2833
何かが 2833
選ぶ 2833
を防ぐために 2832
借 2832
有効に 2832
かかった 2831
を使っている 2831
プリンタ 2831
個人情報を使用する場合 2831
空港から 2831
紋 2831
▁私は私の 2830
の脅威 2830
正当な利益のために 2830
1-2 2829
演習 2829
なさ 2828
の法律と同等 2828
ドイツ語 2828
減速 2828
がありますか 2827
なりました 2827
ノース 2827
全域 2827
決議 2827
実感 2826
live 2825
あなた自身の 2825
レモ 2825
上昇する 2825
個人情報が欧州 2825
契約上の取り決め 2825
陸地 2825
Se 2824
のみで 2824
を選択した場合 2824
下記に記載されている連絡先より 2824
欲望 2824
hot 2823
ストック 2823
疲労 2823
充 2822
構想 2822
ことが重要です 2821
ご要望 2821
をリリース 2821
不快 2821
かけた 2820
ことば 2820
リアルタイムで 2820
応え 2820
読み取り 2820
亭 2819
学生が 2819
提 2819
良いです 2819
が発生した場合 2818
プレート移動 2818
塞 2818
装着 2818
顧客が 2818
飼 2818
1/2 2817
Car 2817
Star 2817
を訪問する 2817
ティア 2817
勧め 2817
映画祭 2817
渡る 2817
溶解 2817
群れ 2817
GIF 2816
alle 2816
あなたも 2816
このプロジェクト 2816
地球と 2816
日本語版 2816
isa 2815
ラフ 2815
世代の 2815
被害者 2815
ney 2814
ご提供 2814
する予定です 2814
ウエ 2814
nes 2813
▁Design 2813
▁商品によってお届けが 2813
アレキサンダー 2813
犠牲者 2813
絶縁 2813
free 2812
▁Day 2812
ナショナル 2812
民俗 2812
猿 2812
〉 2811
を満たすために 2811
使命 2811
窒素 2811
▁4: 2810
したように 2810
ニス 2810
人以上の 2810
探している 2810
ものとして 2809
を最大限に 2809
孤独 2809
貧 2809
BMW 2808
が正しく 2808
の一部を 2808
を追い 2808
ルーツ 2808
▁System 2807
タイムリー 2807
技術革新 2807
真鍮 2807
をテーマに 2806
キューバ 2806
壁の 2806
発表した 2806
製作所 2806
met 2805
成果を 2805
漁業 2805
詳細に 2805
が大幅に 2804
よくある質問 2804
John 2803
▁Ra 2803
の地域に 2803
メッシュ 2803
製薬 2802
ral 2801
外務省 2801
の使い方 2800
を十分に 2800
セクシーな 2800
ヘッセ 2800
ヘッダー 2800
観光客の 2800
趣 2800
IX 2799
Pa 2799
α 2799
のだろうか 2799
を持っており 2799
規範 2799
STO 2798
オペレーティング 2798
為替レート 2798
バレンタインの 2797
type 2796
三つの 2796
体内 2796
注目を集め 2796
▁Technavio 2795
お送り 2795
するだけで 2795
顧客は 2795
ff 2794
既存 2794
MJ 2793
が起こった 2793
だという 2793
を生かし 2793
Chrome 2792
を活用した 2792
二つ 2792
の入力 2791
を取り除く 2791
フェーズ 2791
離れる 2791
をとおして 2790
を選んだ 2790
ゲストハウス 2790
inter 2789
アメリカン 2789
フロリダ 2789
明示 2789
熊 2789
▁Asia 2788
〈 2788
クロノメーター 2788
化石 2788
挑 2788
部屋に 2788
ナビゲーター 2787
光景 2787
2-3 2786
カスタマイズされた 2785
ワークフロー 2785
外れ 2785
安心して 2785
所在 2785
post 2784
Event 2783
急激な 2783
絞り 2783
こちらから 2782
わら 2782
を待っている 2782
を正確に 2782
ビデオはこの 2782
左に 2782
幾つかの 2782
Pay 2781
から約 2781
をベースに 2781
征服 2781
load 2780
が有効 2780
下方 2780
全身 2780
非常 2780
Get 2779
ひどく 2779
やさしい 2779
アトラクション 2779
半ば 2779
南アフリカ 2779
推薦 2779
領域で 2779
麓 2779
修行 2778
対象の 2778
Core 2777
に合わせた 2777
異なる場合がございます 2777
あなたがあなたの 2776
の欠如 2776
向かう 2776
孫 2776
普 2776
述べる 2776
Blue 2775
rr 2775
н 2775
キャン 2775
続けた 2775
ern 2774
ただし 2774
カナダの 2774
並び 2774
アレクサンダー 2773
エロ 2773
スケート 2773
変え 2773
相違 2773
1960 2772
OB 2772
セキュリティサービス 2772
ホストサイトの 2772
人間は 2772
遅くなる場合があり 2772
▁2257 2771
に適合 2771
日没 2771
様な 2771
清潔 2771
軽い 2771
風に 2771
4.0 2770
▁お持ちの場合は 2770
いても 2770
バルコニー 2770
OC 2769
するのか 2769
沿 2769
破片 2769
見積 2769
途上国 2769
Intel 2768
として知られている 2768
工夫 2768
観点から 2768
▁然し 2767
を与えること 2767
サーバー上でホストされ 2767
利用者の 2767
法的な問題の適切な 2767
穀物 2767
の直前の 2766
債務 2766
手助け 2766
が始まる 2765
ようとしている 2765
を与えられ 2765
を携えて 2765
罪の 2765
ご自身の 2764
に戻り 2764
デュー 2764
滞在します 2764
▁Project 2763
あなたはそれ 2763
たのは 2763
に取り組んでいます 2763
プレゼン 2763
成長すると予測してい 2763
鶴 2763
Amazon 2761
を組み合わせた 2761
ワールドカップ 2761
共有する 2761
栄 2761
非常に多くの 2761
▁365 2760
媒 2760
消す 2760
頂 2760
PAR 2759
pt 2759
に及ぶ 2759
を展示 2759
日本文化 2759
騒音 2759
すべての人 2758
を上げ 2758
入国 2758
oma 2757
シカゴ 2757
阻害 2757
キア 2756
憎 2756
▁ちなみに 2755
信号を 2755
笹 2755
責任を負いません 2755
しませんでした 2754
人たちが 2754
慈悲 2754
を実施し 2753
メールで 2753
可能性が高い 2753
ology 2752
と同 2752
をドラッグ 2752
コマンドライン 2752
NPO 2751
ことを示しています 2751
と考えられ 2751
のご利用 2751
の強い 2751
卸売 2751
地震は 2751
ことが可能です 2750
ながらも 2749
ママ 2749
似ています 2749
制裁 2749
Drive 2748
の痛み 2748
仙 2748
使い方 2748
恋人 2748
点検 2748
を含めた 2747
パノラマ 2747
長時間 2747
雇 2747
顕著な 2747
▁この機能は 2746
の入り口 2746
はなりません 2746
オーク 2746
登録されています 2746
終了後 2746
蝶 2746
ean 2745
こともある 2745
ご注意 2745
で表示されます 2745
近づく 2745
開催されます 2745
そなた 2744
宜 2744
メッセージが 2743
高価 2743
近親相姦 2742
魔法の 2742
▁Linux 2741
旬 2741
飛ぶ 2741
AF 2740
▁Bi 2740
を製造 2740
を解決する 2740
温室効果ガス 2740
立てる 2740
通路 2740
Be 2739
str 2739
▁One 2739
チューダー 2739
マガジン 2739
メッキ 2739
公衆 2739
分ける 2739
を残して 2738
ソル 2738
▁PLC 2737
▁View 2737
なしの 2737
多彩な 2737
機密 2737
用量 2737
Mar 2736
使用している 2736
電動 2736
▁それでは 2735
で使用される 2735
恵み 2735
次第に 2735
Japan 2734
ご滞在 2734
になろう 2734
暴動 2734
iko 2733
ゆく 2733
剛 2733
ダメージ 2732
をサポートしています 2731
誘惑 2731
黄金の 2730
Asahi 2729
させました 2729
ヘン 2729
ョン 2729
負け 2729
т 2728
再開 2728
%) 2727
クルマ 2727
埋 2727
緊急事態 2727
ken 2726
に関連した 2726
据え 2726
がなされ 2725
機械式時計 2725
▁Ltd 2724
▁TOP 2724
シャッター 2724
点灯 2724
Show 2723
を入力して 2723
回目の 2723
将来的に 2723
Up 2722
ことを確認してください 2722
ファックス 2722
状に 2722
経由 2722
TER 2721
影響を及ぼし 2721
▁Inter 2720
旅館 2720
活発な 2720
飾られ 2720
BAUNAT 2719
▁グラム 2719
イカ 2719
ico 2718
これも 2718
を開始し 2718
全額 2718
等しい 2718
の不足 2717
を開催しました 2717
サプライチェーン 2717
元素 2717
出産 2717
膨 2717
貫 2717
を目指して 2716
卓 2716
無限 2716
Pre 2715
pm 2715
▁今年の 2715
スリング 2715
機能性 2715
運転手 2715
都合 2715
3,000 2714
kr 2714
の運営 2714
240 2713
エンターテイメント 2713
ジョージ 2713
並べ 2713
葛 2713
起きる 2713
屋内 2712
ふく 2711
オブジェクトを 2711
プロジェクトウィンドウ 2711
父の 2711
Shi 2710
けた 2710
に適用されます 2710
をかける 2710
浪 2710
電波 2710
▁残念ながら 2709
乾燥した 2709
rap 2708
すばやく 2708
の内のレベル 2708
不全 2708
廃棄 2708
後期 2708
RY 2707
スティング 2707
数回 2707
造船 2707
進んでい 2707
Di 2706
▁今日は 2706
ショートカット 2706
世界中の都市 2706
利便性 2706
情勢 2706
粉砕 2706
REA 2705
幸い 2705
楽曲 2705
生体 2705
精製 2705
開設 2705
ICT 2704
▁Express 2704
の成果 2704
参画 2704
情報通信 2704
設立されました 2704
tle 2703
圧倒 2703
習得 2703
BB 2702
Lab 2702
ってしまう 2702
を表します 2702
下り 2702
立たせ 2702
の先頭 2700
場合がございます 2700
色々な 2700
mat 2699
rt 2699
を求めて 2699
コンタクティ 2699
主人公 2699
処理します 2699
来ました 2699
440 2698
る事 2698
急増 2698
補足 2698
oli 2697
に置く 2696
ピュ 2696
日本国内 2696
綱 2696
言語で 2696
ざる 2695
を置いて 2695
発足 2695
知事 2695
練語版 2695
脈 2695
CSS 2694
回路図 2694
強み 2694
apt 2693
▁Business 2693
スリランカ 2693
路線 2693
カジュアル 2692
受領 2692
補完 2692
錠 2692
DP 2691
傑作 2691
青色 2691
をご参照ください 2689
認め 2689
ブーム 2688
メンズサイズ 2688
ヨガ 2688
人間達 2688
凡 2688
狙 2688
▁ISO 2687
について何か 2687
アラブ首長国連邦 2687
エール 2687
平均最高温度は 2687
知っています 2687
VST 2686
バリエーション 2686
蓄 2686
頭部 2686
ele 2685
ピット 2685
気づく 2685
serv 2684
にログイン 2684
の丘 2684
の地位 2684
の適用 2684
を見つけることができません 2684
▁現在は 2683
に限定され 2683
を望む 2683
ムーン 2683
ike 2682
zo 2682
を改善し 2682
皆さま 2682
芸術家 2682
鋭 2682
一般の 2681
を開いた 2680
慢性 2680
オペレーション 2679
時計のレプリカ 2679
消防 2679
衰 2679
養成 2679
vers 2678
づけられ 2678
の紹介 2678
キャンバス 2678
人材育成 2678
残念ながら 2678
高品質な 2678
スキン 2677
ダブ 2677
ベンチ 2677
拾 2677
PowerPoint 2676
ファイバー 2676
堀 2676
誤り 2676
モリ 2675
量子 2675
あなたのために 2674
繊細な 2674
かせる 2673
を保証し 2673
興味のある 2673
見られます 2673
認可 2673
AGE 2672
Sol 2672
▁Global 2672
▁Tours 2672
取り入れ 2672
の先端 2671
の有効 2671
ブランド名 2671
液晶 2671
要望 2671
(0 2670
AKA 2670
ご利用ください 2670
を深め 2670
ソーラー 2670
シドニー 2669
入会 2669
誤解 2669
にしても 2668
バンドル 2667
新作 2667
海域 2667
FreeBSD 2666
というのが 2666
エリアで 2666
▁改訂 2665
使用された 2665
用紙 2665
1983 2664
ham 2664
pu 2663
の維持 2663
総領事 2663
に到達 2662
の息子 2662
理想 2662
飼育 2662
▁MIME 2661
が必要になります 2661
を迎える 2661
スル 2661
ハリ 2661
国防 2661
暖かく 2661
tu 2660
捜 2660
新鮮 2660
自殺 2660
東西 2659
list 2658
貼 2658
売買 2657
税関 2657
非常に競争力のある価格 2657
非常に重要 2657
に慣れ 2656
Tom 2655
ことが出来る 2655
亀 2655
影響を受け 2655
17:00 2654
パネライ 2654
沖 2654
の注文や 2653
オフセット 2653
系列 2653
類似した 2653
を正しく 2652
テクノロジ 2652
)[ 2651
償 2651
積み 2651
腎 2651
自分を 2651
で初めて 2650
ゲー 2650
始まって 2650
ala 2649
バイナリ 2649
望ましい 2649
みる 2648
を歩く 2648
ハリケーン 2648
ボタンから 2648
破損した 2648
お誕生日の 2647
を失い 2647
鎌倉 2647
を表現する 2646
予約をすることができ 2646
彼と 2646
飯 2646
アール 2645
クォーツ 2645
ヴァー 2645
改装 2645
内にある 2644
wer 2643
望んでいる 2643
衣服 2643
umb 2642
といわれ 2642
はここ 2642
ウィジェット 2642
fa 2641
私はあなた 2641
絞 2641
花花 2641
たまま 2640
一回 2640
▁オンライン注文やお花を配送 2639
に対花 2639
オーストリア 2639
ッシ 2639
刻まれ 2639
美しい花束 2639
Tra 2638
共同で 2638
写真ギャラリー 2638
有限公司 2638
細部 2638
シャフハウゼン 2637
ゼータ達 2637
フローリスト 2637
四川 2637
如何 2637
氷の 2637
学校で 2636
幹部 2636
彦 2636
無人 2635
白色 2635
選択します 2635
を失った 2634
を強く 2634
5° 2633
Ed 2633
ようである 2633
発症 2633
辞書 2633
▁お届けいたしま 2632
子孫 2632
描き 2632
束以上 2632
-25 2631
128 2631
lat 2631
▁お世話を 2631
増加し 2631
胡 2631
▁MOSHI 2630
▁地元のお花屋さん 2630
戦後 2630
支出 2630
最大値 2630
総称して 2630
イニシアチブ 2629
パブリック 2629
授 2629
が非常に重要なこと 2628
を提供することにコミットしてい 2628
アフガニスタンの 2628
トレイ 2628
混雑 2628
磁器 2628
説明します 2628
Album 2627
GPS 2627
💐 2627
1991 2626
た花束 2626
とは異なる 2626
マリン 2626
完璧に 2626
際などの 2626
Data 2625
をつくり 2625
注入 2625
爪 2624
現れた 2624
AZ 2623
▁ダイアログの 2623
を提供する専用の 2623
を許可する 2623
やっている 2622
アマチュア 2622
扱われ 2622
昨 2622
さらに多くの 2621
の面で 2621
または最大限の 2621
イランの 2621
インク 2621
分裂 2621
園区 2621
暦 2621
着物 2621
硬化 2621
表面の 2621
錯 2621
▁それぞれの都市 2620
▁のチームで 2620
アラビア 2620
沈黙 2620
UNI 2619
nlinesaleus 2619
▁また大規模な 2619
▁働こう 2619
▁花の配達 2619
お花による 2619
が含まれてい 2619
それについて 2619
それも 2619
バスケッ 2619
しばらくの間 2618
ることで確実に 2618
ネットワークの地元の快適 2618
家屋 2618
新生児とし 2618
柳 2618
正当な価格で 2618
選択の花 2618
▁うちでお花 2617
▁う花 2617
が少なく 2617
くなった 2617
つ以上の 2617
でないマッチのどこでも 2617
信頼できる現地の快適の場合のよう 2617
幅広いネットワークの地 2617
快適してお花の花束でお届け 2617
植物やギフトをご用意 2617
顧客サービスのためのお花を配送 2617
に続く 2616
の一種 2616
まらない 2616
を知らない 2616
公的 2616
究 2616
製造業者 2616
までお問い合わせください 2615
スタートアップ 2615
バッチ 2615
DJ 2614
▁Control 2614
ないか 2614
北朝鮮の 2614
直す 2614
cho 2613
▁Music 2613
かみ 2613
への道 2613
人気のある 2613
岳 2613
柔軟な 2613
key 2612
を供給 2612
を想像 2612
探検 2612
醸 2612
関西 2612
に分類 2611
のバックアップ 2611
ニッケル 2611
メンバーが 2611
同じような 2611
拒絶 2611
bl 2610
▁ステンレス鋼 2610
ありがとうございました 2610
さず 2610
になるまで 2610
オイスター 2610
オープンソース 2610
ライド 2610
支え 2610
々しい 2609
を購入することで 2609
価値観 2609
時間がかかる 2609
石鹸 2609
NATO 2608
および他の 2608
をクリア 2608
城壁 2608
感じられる 2608
現存 2608
生成された 2608
織り 2608
Active 2607
と考えられている 2607
イギリスの 2607
使え 2607
栗 2607
組成 2607
UTC 2606
まもなく 2606
コンサルタント 2606
促 2606
てみましょう 2605
に満ち 2605
を送信します 2605
増殖 2605
閣僚 2605
iff 2604
もたらされ 2604
加盟 2604
van 2603
または他の 2603
を待つ 2603
ポインタ 2603
公正 2603
来ます 2603
見つけることは容易ではありません 2603
SW 2602
を見ること 2602
スピーチ 2602
中庭 2601
藩 2601
Audio 2600
を描き 2600
レータ 2600
実行されます 2600
運び 2600
高校生 2600
▁And 2599
と連携し 2599
の結果として 2599
の近くの 2599
野生の 2599
が使用されます 2598
そうである 2598
などがあります 2598
を復元する 2598
分岐 2598
産業用 2598
緑色の 2598
▁12. 2597
シンプルで 2597
南部の 2597
可能性があるため 2597
設立され 2597
遷 2597
Filter 2596
ヨーロッパで 2596
大丈夫 2596
Khánh 2595
los 2595
true 2595
▁United 2595
を認識する 2595
共同体 2595
cha 2594
▁地域情報 2594
は全て 2594
プロンプト 2594
▁BOX 2593
のだが 2593
序 2593
あらかじめご了承ください 2592
敬意 2592
EMP 2591
▁アンフィ 2591
はまず 2591
を積極的に 2591
イタリア語 2591
サービスを提供しています 2591
ニーズを見て 2591
マイケル 2591
今回の研究 2591
パスポート 2590
参入 2590
招き 2590
支店 2590
125 2589
▁まずは 2589
の滝 2589
を大きく 2589
を経由して 2589
国際的 2589
憲法 2589
舗を見て 2589
販売本数 2589
▁上記 2588
を持つこと 2588
スノー 2588
国土 2588
有用な 2588
を呼び出す 2587
年目 2587
恐 2587
直接的 2587
Insert 2586
に直面し 2586
キル 2586
伝導 2586
芝生 2586
があるか 2585
ヒート 2585
メジャー 2585
初期化 2585
改修 2585
有害性 2585
に対応した 2584
に際して 2584
を報告する 2584
カスタマサ 2584
80% 2583
Log 2583
eg 2583
▁542 2583
▁Video 2583
▁インターネットはあなたの 2583
それは常に最も 2583
Moto 2582
と比べて 2582
トレーダー 2582
バルセロナ 2581
ベア 2581
下落 2581
質の高い 2581
鼓 2581
:15 2580
▁その際に 2580
あなた自身 2580
されるので 2580
を使用することで 2580
ロサンゼルス 2580
大幅な 2580
専門家の 2580
得意 2580
を受けている 2579
提起 2579
English 2578
を知っています 2578
空中 2578
すごい 2577
たいです 2577
ツェ 2577
リポジトリ 2577
正常な 2577
詰ま 2577
しているのか 2576
っこ 2576
fr 2575
するだろう 2575
にさらされ 2575
予報時刻 2575
意見交換 2575
掲げ 2575
研究機関 2575
だけど 2574
を獲得した 2574
年後に 2574
*1 2573
▁イギリスの 2573
あたりの 2573
が低い 2573
▁プライバシーポリシー 2572
ラブ 2572
人工知能 2572
仏像 2572
残念 2572
18〜 2571
の背後に 2571
エビ 2571
フレームワーク 2571
厳格な 2571
為の 2571
遠慮 2571
316 2570
ことでしょう 2570
レプリカタグホイヤー 2570
位相 2570
日前に 2570
自体は 2570
ability 2568
▁Mode 2568
で作られた 2568
カルシウム 2568
ハング 2568
私はまだ 2568
北部の 2567
柔らかく 2567
90% 2565
ove 2565
まない 2565
非公開 2565
True 2564
info 2564
だからこそ 2564
定着 2564
熊本 2564
意欲 2563
ump 2562
その中に 2562
ホルモン 2562
受け取った 2562
学長 2562
晴れ 2562
Reg 2561
たので 2561
エリア情報 2561
キャラ 2561
何年も 2561
清掃 2561
揚 2560
時までで 2560
法王 2560
番目 2560
欠け 2559
▁11. 2558
地球のぐらつき 2558
fucking 2557
送付 2557
関わり 2557
anda 2556
に移行 2556
主催者 2556
鋳 2556
AirWatch 2554
お祭り 2554
お酒 2554
泳 2554
ef 2553
に提供する 2553
エナメル 2553
左の 2553
歌舞伎 2553
に座って 2552
動力 2552
ぜ 2551
の世界市場が 2551
エリアに 2551
ビュッフェ 2551
光沢 2551
声が 2551
膝 2551
ume 2550
モンテ 2550
環境設定 2550
稿 2550
PayPal 2549
から離れて 2549
ページから 2549
低価格 2549
年の間に 2549
怠 2549
説明する 2549
集会 2549
eck 2548
タグホイヤー 2548
方面 2548
メタデータ 2547
処置 2547
月曜日から金曜日までの 2547
あふれ 2546
ジャガイモ 2546
少数 2546
vol 2545
以外にも 2545
自分たち 2545
▁(+34 2544
テニス 2544
理解して 2544
を自由に 2543
ベロ 2543
天使 2543
LNG 2542
Sa 2542
スコープ 2542
加盟国 2542
引き出し 2542
豪州 2542
を受けました 2541
アウトレット 2541
僧 2541
履 2541
近代的な 2541
遺伝的 2541
を持っていること 2540
を掲載 2540
法案 2540
~13:30 2539
より多く 2539
墨 2539
恒星 2539
時半と 2539
1500 2538
tern 2538
▁› 2538
に特化した 2538
を対象とし 2538
ノル 2538
変容 2538
猛 2538
させられ 2537
テキストメッセージ 2537
劣 2537
Visual 2536
cat 2536
スタジアム 2536
自宅で 2536
俺 2535
設計されています 2535
vid 2534
▁Hòa 2534
した時に 2534
たん 2534
シチリア 2534
悲しみ 2534
会社名 2533
匠 2533
過ごす 2533
Exchange 2532
に変え 2532
を考えると 2532
コミュニティセントラル 2532
ユース 2532
姫 2532
浅 2532
▁Explorer 2531
を整え 2531
偽の 2531
東日本大震災 2531
スムーズに 2530
ご覧 2529
絡 2529
鑑 2529
450 2528
▁お電話による 2528
これからも 2528
を務める 2528
コロン 2528
時になっており 2528
OFF 2527
ビス受付は 2527
暑い 2527
ICU 2526
との連携 2526
ンズ 2526
狭 2526
かい 2525
になるように 2525
に満ちた 2525
omwa 2524
することができません 2524
の中心地 2524
クローン 2524
ボックスに 2524
丁寧に 2524
過ごした 2524
人たちは 2523
gra 2522
えない 2522
下地 2522
博覧会 2522
拭 2522
植民地 2522
造形 2522
を回避する 2521
レーベル 2521
色合い 2521
が付いている 2520
なんです 2520
喜ば 2520
私自身 2520
が実現 2519
でいっぱい 2519
提供した 2519
なくなり 2518
メンバーは 2518
富士山 2518
想い 2518
耕 2518
選択範囲 2518
できるようにする 2517
の影響を受け 2517
を守り 2517
住んでいます 2517
大理石 2517
0:00 2516
cal 2516
ご用意 2516
ステークホルダー 2516
国際協力 2516
方向性 2516
ドール 2515
レセプション 2515
始まりました 2515
-30 2513
Exp 2513
ency 2513
ことができませんでした 2513
を作ること 2513
申し上げます 2513
飛躍 2513
UR 2512
VM 2512
エンベロープ 2512
の一員 2511
を使います 2511
オープニング 2511
フラワー 2511
単純に 2511
地球上の 2511
有数の 2511
潟 2511
を見つけるでしょう 2510
クオンタイズ 2510
糖鎖 2510
ウィーク 2509
ガード 2509
いかが 2508
の大半 2508
到達 2508
に囲まれた 2507
var 2506
▁Audio 2506
を眺めながら 2506
沙 2506
read 2505
▁DT 2505
桂林 2505
Temp 2504
1.6 2503
SR 2503
ギュ 2503
欲求 2503
ACE 2502
lock 2502
▁Ha 2502
▁詳細については 2502
ことを確認する 2502
ティクス 2502
不具合 2502
収納 2502
cer 2501
していない場合 2501
アッ 2501
研究成果 2501
---- 2500
GC 2500
は準備ができている 2500
を再生する 2500
790 2499
Wo 2499
ics 2499
と述べ 2499
合同 2499
整列 2499
ハッシュ 2498
出張 2498
太郎 2498
退屈 2498
集計 2498
Smart 2497
の詳細については 2497
モバイルアプリ 2497
溶岩 2497
Estate 2496
お申し込み 2496
判決 2496
ワイド 2495
人体 2495
太陽と 2495
Sun 2494
Yuki 2494
▁Zen 2494
モリブデン 2494
両側 2494
使いやすい 2494
創設者 2494
禁煙 2494
練 2494
techno 2493
スタック 2493
飲料 2493
Page 2492
が発生した 2492
なのでしょうか 2492
ゆったり 2492
伸ばし 2492
前半 2492
恐らく 2492
本規約 2492
で構成されています 2491
の名前を 2491
ヵ月 2491
本文 2490
という考え 2489
嬉しい 2489
検定 2489
紛失 2489
表示されている 2489
闇の双子 2489
HDL 2488
んじ 2488
リエ 2488
掘 2488
ウォン 2487
お祝い 2486
の隣に 2486
札幌 2486
黄道 2486
ために使用されます 2485
に行きました 2485
何百 2485
卒業生 2485
慎重 2485
配線 2485
ディン 2484
幼 2484
激しく 2484
を着て 2482
クリプト 2482
ペースト 2482
リサーチ 2482
時間年中無休のカスタマー 2482
神宮 2482
齢 2482
に応じ 2481
パレット 2481
秦 2481
訪れた 2481
趣味 2481
BU 2480
を定義する 2480
スプレー 2480
楕 2480
qua 2479
▁Renderpeople 2479
フェリー 2479
今のところ 2479
申し出 2479
選択されている 2479
あくまで 2478
を愛する 2478
クリーニング 2478
進められ 2478
gmail 2477
tes 2477
▁Black 2477
▁Dictionary 2477
が異なる場合 2477
が続く 2477
できず 2477
を図り 2477
▁Office 2476
レスポンス 2476
中古 2476
っぽ 2475
ジャズ 2475
ジュネーブ 2475
マンション 2475
Sim 2474
р 2474
はいつも 2474
内閣 2474
役割を果たす 2474
5.5 2473
についての情報 2473
コリ 2473
享 2472
有害 2472
標準化 2472
温かい 2472
どり 2471
またはその他の 2471
一時停止 2471
充填 2471
割り 2471
夜間 2471
対戦 2471
pri 2470
カレッジ 2470
必要が 2470
航空便 2470
くださ 2469
外国の 2469
どうか 2468
を停止する 2468
インストーラ 2468
信者 2468
170 2467
Base 2467
iPod 2466
put 2466
すべきです 2466
を開設 2466
斑 2466
歌う 2466
ベッドルーム 2465
リボン 2465
自立 2465
JC 2464
んだけど 2464
トレード 2464
使徒 2464
提供します 2464
陰謀 2464
DF 2463
WhatsApp 2463
rist 2463
ぷ 2463
太陽から 2463
教徒 2463
溢れ 2463
示されている 2463
離婚 2463
が施され 2462
地平線 2462
字幕 2462
LY 2461
か分からない 2461
が見える 2461
を止め 2461
川崎 2461
癒 2461
自国の 2461
赤道 2461
の違いにより 2460
Product 2459
SN 2459
▁HPJAV 2459
理想的 2459
270 2458
▁(2015 2458
ログファイル 2458
同行 2458
家庭用 2458
殺人 2458
hou 2457
を促す 2457
楽しさ 2457
ベネズエラ 2456
原始 2456
年期間中に年平均 2456
接合 2456
理事 2456
して以来 2455
熟練 2455
eat 2454
があるため 2454
レゲエ 2454
を増やし 2453
出来ない 2453
全長 2452
双方向 2452
探査 2452
来日 2452
make 2451
したところ 2451
コスプレポルノ 2451
欠点 2451
することをお勧めします 2450
の多くが 2450
争 2450
拡張機能 2450
▁Pal 2449
▁台湾国立 2449
の低下 2449
の整備 2449
描かれた 2449
駐車 2449
user 2448
である場合 2448
大気圏 2448
家電 2448
法会 2448
語辞典 2448
0.4 2447
▁空手 2447
ことにしました 2447
場合を除き 2447
時間の経過とともに拡大 2447
行われています 2447
起きている 2447
に対応しています 2446
ものではなく 2446
タナ 2446
山頂 2446
直後 2446
行なわれ 2446
を指し 2445
上がった 2445
耐熱ガラス 2445
読んだ 2445
上げて 2444
小麦粉 2444
芳 2444
▁PRP 2443
されるでしょう 2443
当社のサイトをサポートする 2443
いろいろ 2442
サイクリング 2442
説得 2442
-19 2441
bar 2441
—— 2441
オススメ 2441
コンテキスト 2441
IB 2440
取材 2440
徹底的に 2440
日本酒 2440
鉢 2440
▁Manager 2439
に役立ちます 2439
の大小 2439
を低減 2439
アドミン 2439
ハノイ 2439
万米ドル 2439
楽しんで 2439
邦 2439
非常に高い 2439
XI 2438
を配置する 2438
強打 2438
数時間 2438
渇 2438
立地 2438
融 2438
から直接拒否できない場合 2437
に至る 2437
十字 2437
看護 2437
薄く 2437
階級 2437
アドオン 2436
ソリッド 2436
ライダー 2436
優秀 2436
園入園オンライン申請ホームページ 2436
役に立つ 2436
取締役会 2435
口実 2435
移動し 2435
は基本的に 2434
年の間 2434
遡 2434
▁not 2433
たときに 2433
以後 2433
可視化 2433
自分に 2433
PER 2432
スプリング 2432
効率化 2432
建造物 2432
統計情報 2432
設定を変更 2432
お客様の個人情報を 2431
フレア 2431
助成 2431
整数 2431
暗く 2431
空軍 2431
被災地 2431
静かで 2431
Engine 2430
▁Cor 2430
▁Kanji 2430
キス 2430
本来 2430
毎回 2430
滑らか 2430
LM 2429
▁Gra 2429
てくれ 2429
につきまして 2429
パレスチナ 2429
ーズ 2429
住居 2429
保障 2429
言葉で 2429
〒 2428
への取り組み 2428
シールド 2428
モジュレーション 2428
国立公園 2428
Index 2427
» 2427
前回 2427
有益な 2427
▁Combined 2426
に依存して 2426
を活かし 2426
を設定し 2426
コーラ 2426
スキ 2426
ーゼ 2426
提言 2426
残った 2426
生理 2426
map 2425
を呼び 2425
セキュア 2425
踏 2425
8.1 2424
Ruby 2424
tter 2424
であろうか 2424
ではありませんでした 2424
ジャーナリスト 2424
パッ 2424
戒 2424
神聖な 2424
開封 2424
IND 2423
♪ 2423
を再現 2423
ナッツ 2423
区切り 2423
撮影した 2423
▁JVN 2422
に値する 2422
に包まれ 2422
イエスの 2422
ミキサー 2422
入り口 2422
撮り 2422
ジャカルタ 2421
上場 2421
山形 2421
火曜日 2421
お菓子 2420
バナー 2420
放棄 2420
月額 2420
表示します 2420
に反映 2419
ウェル 2419
センス 2419
バックル 2419
任意 2419
精神的 2419
Alt 2418
するかどうか 2418
を目的とした 2418
ダース 2418
唱え 2417
特性上 2417
なければならなかった 2416
卒 2416
座っている 2416
浄 2416
評議会 2416
EF 2415
どこから 2415
ガール 2414
リチウム 2414
直感 2414
販 2414
かかって 2413
たい場合は 2413
考察 2413
real 2412
▁Class 2412
の横に 2412
インパクト 2412
シエ 2412
小包 2412
モダン 2411
最新バージョン 2411
続行 2411
Script 2410
yu 2410
すべての情報 2410
ゅ 2410
わけで 2410
ゼン 2410
ダリ 2410
全面 2410
実用的な 2410
百貨店の 2410
Chang 2409
わかってい 2409
マッチング 2409
方言 2409
材質 2409
法律事務所 2409
管理システム 2409
長方形 2409
隣接 2409
aya 2408
コンピューティング 2408
打撃 2408
無理 2408
表示されない 2408
配管 2408
願っています 2408
を聞き 2406
リヤ 2406
公共の 2406
泰 2406
豊かに 2406
遺伝 2406
風光明媚な 2406
風速情報 2406
カウンタ 2405
ユネスコ 2405
GI 2404
ようやく 2404
誘致 2404
Unity 2403
cept 2403
▁Check 2403
を目指します 2403
範 2403
らしさ 2402
を継続する 2402
ハリー 2402
准教授 2402
削 2402
建築家 2402
長野 2402
の中にある 2401
自律 2401
設定します 2401
おう 2400
くださった 2400
ナビ 2400
飲んで 2400
^ 2399
チョウ 2399
パケット 2399
見つかった 2399
BD 2398
を適用する 2398
デバッグ 2398
バックグラウンド 2398
断片 2398
非営利 2398
-17 2397
このモジュール 2397
していなかった 2397
問題がありますか 2397
得点 2397
の奥 2396
シニア 2396
意外 2396
抗体 2396
rop 2395
を用い 2395
仲介 2395
共感 2395
が出来 2394
シミュレータ 2394
他の多くの 2394
債 2394
殻 2394
結構 2394
誓 2394
と同じくらい 2393
Out 2392
PID 2392
アスファルト 2392
シベリア 2392
古く 2391
ツアーガイド 2390
ボルト 2390
Klocwork 2389
が来る 2389
▁Settings 2388
すら 2388
を妨げる 2388
アーム 2388
ロット 2388
仰 2388
呈 2388
服用 2388
頃から 2388
FAQ 2387
の生成 2387
を検索する 2387
▁この情報は 2385
が変更され 2385
ヒーロー 2385
影響を受ける 2385
市内の 2384
LINESTORE 2383
tar 2383
を集める 2383
ピックアップ 2383
使用した 2383
尋ねる 2383
残っています 2383
EI 2382
TF 2382
こめ 2382
準拠 2382
看板 2382
ネジ 2381
ハーフ 2381
分野において 2381
厳選 2381
理由です 2381
rain 2380
俗 2380
Cu 2379
ねそ 2379
へ戻る 2379
インテリジェント 2379
中部 2379
事業所 2379
半径 2379
目の前に 2379
を定め 2378
幻想 2378
中世 2377
仮説 2377
症候群 2377
省略 2377
過ぎる 2377
本年 2376
登録された 2376
警備 2376
vent 2375
不法 2375
tin 2374
お湯 2374
分からない 2374
拝 2374
支部 2374
5.1 2373
を実現します 2373
アレンジ 2373
エネルギ 2373
Si 2372
TP 2372
あまりに 2372
を歩いて 2372
空き 2372
試料 2372
微細 2371
数十年 2371
現行の 2371
AdRoll 2369
のペア 2369
メイク 2369
並べ替え 2369
増強 2369
悔 2369
テロリスト 2368
水曜日 2368
TX 2367
eta 2367
▁neso 2367
おこなう 2367
ラテン 2367
不能 2367
lt 2366
ロマンチックな 2366
予告 2366
傾 2366
峨眉山 2366
CRM 2365
KE 2365
ご理解 2365
たいてい 2365
フォル 2365
を増加させ 2364
グーグル 2364
太陽光 2364
科目 2364
簡単で 2364
隠蔽 2364
Market 2363
問い 2363
負傷 2363
をどう 2362
エラーメッセージ 2362
サンプリング 2362
eek 2361
ona 2361
に指定され 2361
プッシーと彼女の 2361
それ以外の 2360
をご利用いただけます 2360
チア 2360
ヘルス 2360
影響を与える 2360
手がけ 2360
消費量 2360
目標を達成する 2360
識 2360
▁有名観光地 2359
をご紹介します 2359
を見つけるために 2359
メス 2359
守られ 2359
非常に良い 2359
した際に 2358
で働く 2358
の残りの部分 2358
を描いた 2358
カリブ海 2358
忠実 2358
High 2357
Wal 2357
ぶん 2357
チェックボックス 2357
ことを明らかにした 2356
ポータブル 2356
両方とも 2356
more 2355
ことを意味し 2355
ピザ 2355
使用しないでください 2355
EOS 2354
に適し 2354
参加する 2354
掃除 2354
nm 2353
壮 2353
最も高い 2353
** 2352
▁衛星地図 2352
シューズ 2351
ポリオ 2351
使用方法 2351
善意者の 2351
▁MISHOP 2349
で行われる 2349
を含み 2349
信じる 2349
していただく 2348
広々とした 2348
渋 2348
託 2348
もありました 2347
ることができ 2347
見ることができ 2347
アイドル 2346
信念 2346
▁POMWA 2345
いずれの 2345
できれば 2345
を行うために 2345
リッチ 2345
が容易 2344
取扱い 2344
地域における 2344
独特な 2344
継続して 2344
夜明け 2343
実行される 2343
負の 2343
降雨 2343
ノール 2342
帯域 2342
洗濯 2342
自慢 2342
頂け 2342
お客さまの 2341
ことが判明 2341
している場合は 2341
よって 2341
井戸 2341
人類が 2341
個人情報の保護 2341
茶色 2341
が上記 2340
インフラストラクチャ 2340
実施した 2340
Select 2339
sen 2339
たいという 2339
バウ 2339
パンツ 2339
mark 2338
懇 2338
水面 2338
用いられる 2338
設定できます 2338
rent 2337
はじめて 2337
ボディガード 2337
操縦 2337
解体 2337
190 2336
が得られる 2336
に影響する 2336
を越える 2336
一貫して 2336
台所 2336
ではないか 2335
スローガン 2335
テラ 2335
湿度 2335
長期間 2335
▁Camp 2334
し続け 2334
もど 2334
を最小限に 2334
アダム 2334
ロッテホテル 2334
国会 2334
1987 2333
elle 2333
▁このウェブサイト 2333
に触れる 2333
シャトル 2333
登録商標 2333
脂 2333
hat 2331
シルエット 2331
セルフ 2331
役立ち 2331
神秘的な 2331
青少年 2331
を見ることができる 2330
を手に 2329
を目的に 2329
クリックして 2329
外国語 2329
方法があります 2329
たいと考えています 2328
の確保 2328
チェンジ 2328
吐 2328
均等 2328
流出 2328
発作 2328
▁キッチンで創造的なシチリア 2327
されているので 2327
殺害 2327
わせ 2326
アワード 2326
ムスリム 2326
濃い 2326
現代的な 2326
ことに同意します 2325
付着 2325
彫 2325
起こりました 2325
1988 2324
Bluetooth 2324
KB 2324
SG 2324
に分割 2324
ライス 2324
外科 2323
牧師 2323
▁fotologue 2322
ことを意味する 2322
に連れて 2322
出来ません 2322
Options 2321
中国人 2321
梁 2321
Do 2320
つなぐ 2320
冷凍 2320
どろ 2319
を救う 2319
クールな 2319
世帯 2319
太鼓 2319
得ない 2319
摩耗 2319
断層 2319
日系 2319
40% 2318
助ける 2318
撤退 2318
人の観察 2317
魔法 2317
Mu 2316
こん 2316
付属品 2316
出します 2316
頂いた 2316
▁ここは 2315
に同意した 2315
アイスランド 2315
ツールバーの 2315
にサービスを提供します 2314
を返します 2314
モザイク 2314
明るさ 2314
ところです 2313
どれくらい 2313
のに役立つ 2313
カトリック 2313
月期 2313
襲撃 2312
訪日 2312
誤差 2312
開け 2312
魅了 2312
в 2311
トレース 2311
バース 2311
施策 2311
論争 2311
ミュー 2310
厳しく 2310
大多数 2310
学位 2310
Artec 2309
HAR 2309
ブート 2309
歳で 2309
を要求する 2308
天然ガス 2308
いくつ 2307
を含めて 2307
ので予めご了承ください 2306
ドライブに 2306
パーペチュアル 2306
卓越した 2306
易 2306
災 2306
空腹 2306
ew 2305
ヤード 2305
色彩 2305
遇 2305
こそが 2304
と呼ばれています 2304
ハンドバッグ 2304
化学的 2304
講演会 2304
▁Is 2303
ないだろう 2303
を考慮し 2303
アピール 2303
オメガの腕時計 2303
ベンチャー 2303
上方 2303
代理人 2303
路地 2303
鮮 2303
かもしれ 2302
王子 2302
▁その場合 2301
の境界 2301
ろい 2301
を計算する 2301
スルー 2301
個人保護 2301
大学生 2301
成長率 2301
知っているように 2301
腐食 2301
under 2300
エンターテインメント 2300
リューズ 2300
才 2300
▁Model 2299
世界中に 2298
人や会社 2298
気づいた 2298
私立探偵や 2298
olf 2297
スナック 2297
ライズ 2297
今週掲載される 2297
右側の 2297
バード 2296
個人の保護 2296
僕が 2296
HE 2295
tel 2295
勧告 2295
宋 2295
サーキット 2294
保護が含まれます 2294
広がって 2294
が持つ 2293
に挿入 2293
の私立探偵 2293
帰る 2293
詩人 2293
が開き 2292
といえば 2292
への投資 2292
占め 2292
名誉毀損 2292
復旧 2292
悪意のある 2292
成績と順位 2292
DER 2291
このディレクトリにあ 2291
を訪れた 2291
献 2291
を見つけたいと思っています 2290
ナウ 2290
ポリエステル 2290
抽象 2290
追加された 2290
人事 2289
増加している 2289
敗北 2289
長距離 2289
ついている 2288
サービスが必要です 2288
書かれている 2288
閉じ込め 2288
lot 2287
ことができるか 2287
を生成します 2287
発電所 2287
稀 2287
1979 2286
が原因で 2286
または建物の 2286
を追求し 2286
ニュースリリース 2286
豪華 2286
コンペ 2285
外国人向け賃貸 2285
彼女は彼女の 2285
最小限 2285
構文 2285
着色 2285
wo 2284
小麦 2284
無数の 2284
述べたように 2284
(※ 2283
ご参加 2283
に適応 2283
のは難しい 2283
デフォルト値 2283
世界的 2283
継ぎ 2283
Start 2282
oi 2282
における調査サービスと保護 2282
ドット 2282
リッジ 2282
悩み 2282
遮断 2282
との交流 2281
と協力して 2281
気軽に 2281
離脱 2281
MR 2280
も含め 2280
データセット 2280
並列 2280
銀座 2280
Ctrl 2279
berg 2279
▁具体的には 2279
下にある 2279
山岳 2279
覧 2279
cast 2278
▁観察が 2278
あん 2278
も部分的な 2278
を見つけて 2278
ボイス 2278
実際は 2278
がなければ 2277
するものです 2277
は百貨店に 2277
刑事事件を明らかにする 2277
ときもそうです 2276
プロキシ 2276
事務所はあなた 2276
何かを見つけようとする 2276
実体 2276
温暖化 2276
納得 2276
tract 2275
光州 2275
IDE 2274
▁Unix 2274
ご確認ください 2274
る私立探偵と探偵 2274
バリー 2274
創り 2274
合わ 2274
減衰 2274
住む 2273
毒性 2273
-16 2272
共催 2272
恒久的なサービス 2271
システムでは 2270
シリアル 2270
見た目 2270
部分的に 2270
▁Search 2269
が必要な場合は 2269
この作品 2269
この地域の私立探偵 2269
躍 2269
ane 2268
-13 2267
▁公益財団法人 2267
の一つとして 2267
滑らかな 2267
unnamed 2266
ことが出来 2266
に住んで 2266
キヤノン 2266
免責事項 2266
幸いにも 2266
観覧 2266
SkyDesk 2265
▁商品説明 2265
ご確認 2265
に出席し 2265
を支持する 2265
天気予報 2265
誤った 2265
それ以上の 2264
内蔵した 2264
出血 2264
教えてくれ 2264
敷地内 2264
藻 2264
賢 2264
LG 2263
ea 2263
入手可能 2263
創造性 2262
国際化 2262
敷地 2261
edit 2260
twatches 2260
つだけ 2260
演説 2260
珍 2260
を活用し 2259
低温 2259
接続性 2259
臨時 2259
菊 2259
近親相姦セックス 2259
PST 2258
doc 2258
に入れる 2258
を追加し 2258
インストールされた 2258
占 2258
牛乳 2258
闘い 2258
local 2257
に対処 2257
アセット 2257
住友 2257
叫び 2257
報告された 2257
ire 2256
リビジョン 2256
一枚 2256
上陸 2256
入社 2256
即時 2256
指定されている 2256
Channel 2255
ros 2255
沸騰 2255
3.2 2254
をあげ 2254
ツィ 2254
Not 2253
here 2253
ことができますか 2253
られるように 2253
ティーネージャー 2253
プロトタイプ 2253
澤 2253
を止める 2252
Man 2251
Netflix 2251
が存在しない 2251
を生じる 2251
を選んで 2251
妊 2251
文化遺産 2251
締約国 2251
king 2250
ネックレス 2250
置いた 2250
おろ 2249
であれ 2249
なっていない 2249
アセンブリ 2249
疎 2249
肝臓 2249
RatingEye 2247
san 2247
した結果 2247
することができました 2247
ドリル 2247
添 2247
確実 2247
MW 2246
を計画し 2246
献身 2246
いけない 2245
この種の 2245
交差点 2245
高層 2245
ゼータ達は 2244
一本 2244
仙台 2244
純度 2244
インテル 2243
米国政府 2243
重要性 2243
001 2242
▁Of 2242
ホノルル 2242
周年記念 2242
手荷物 2242
熱意 2242
Input 2241
Shift 2241
マネージメント 2241
アメニティ 2240
オーディエンス 2240
光線 2240
避難所 2240
酷 2240
í 2239
それ以降 2239
後方 2239
掃 2239
自転 2239
隻 2239
ほとんどの場合 2238
取得します 2238
飲む 2238
TION 2237
供与 2237
姉 2237
少量 2237
疹 2237
行方不明 2237
パビリオン 2236
内部に 2236
品質管理 2236
多様化 2236
確か 2236
紅茶 2236
ことを示します 2235
どんどん 2235
を失って 2235
事柄 2235
集積 2235
▁Arts 2234
どころ 2234
に精通 2234
ソケット 2234
リンゴ 2234
頭痛 2234
1985 2233
がかかる 2233
を組み合わせて 2233
二国間 2233
住んでいる 2233
取り組む 2233
ems 2232
graph 2232
ご了承ください 2232
アイディア 2232
ベビー 2232
放射性 2232
聖なる 2232
Tr 2231
ほこり 2231
を動かす 2231
名声 2231
待つ 2231
-01 2230
5.2 2230
▁Recover 2230
起業家 2230
プラズマ 2229
澄 2229
終了します 2229
西部の 2229
陽朔 2229
MediaWiki 2228
bra 2228
ブラウジング 2228
各社 2228
守り 2228
純粋 2228
際し 2228
Clean 2227
mic 2227
たくない 2227
とは何ですか 2227
崩れ 2227
を受け取ります 2226
南京 2226
Micro 2225
食堂 2225
ping 2224
▁モデル番号 2224
ラインナップ 2224
何千 2224
癒し 2224
1.8 2223
PB 2223
オープンした 2223
コピー時計 2223
独自 2223
HR 2222
が適用されます 2222
ことを証明 2222
もらえる 2222
出会う 2222
十代の男の子 2222
短期間 2222
ada 2221
core 2221
になるだろう 2221
を調査し 2221
スライダー 2221
異議 2221
述べられ 2221
飛ば 2221
▁Workspace 2220
一貫性 2220
総合的な 2220
ポリマー 2219
内外 2219
行うことができます 2219
高地 2219
3.3 2218
ファーム 2218
当社のウェブサイト 2218
を確保するために 2217
ディーラー 2217
ブーツ 2217
利用者が 2217
含有 2217
透明な 2217
Tool 2216
絶望 2216
行われました 2216
されるため 2215
を無効に 2215
クイーン 2215
パンドラ 2215
万トン 2215
交差 2215
問題がある 2215
書面 2215
見たこと 2215
1950 2214
ことでした 2214
背面 2214
阻止 2214
きわめて 2212
この方法で 2212
吸い 2212
ことのない 2211
世界中 2211
中継 2211
注意深く 2211
1984 2210
るタイプ 2210
速報 2210
を渡す 2209
ハイキング 2209
ライブラリー 2209
含め 2209
となること 2208
セクションでは 2208
細い 2208
車載 2208
と考えられています 2207
ネパール 2207
ペリ 2207
訂正 2207
午前中 2206
盆 2206
細かく 2206
bian 2205
10,000 2204
を監視する 2204
少しずつ 2204
梱包 2204
Mi 2203
に浸 2203
ウインドウ 2203
220 2202
をもたらした 2202
工芸 2202
根本 2202
EAR 2201
Native 2201
をリードする 2201
を尊重し 2201
苦情 2201
遍 2201
unk 2200
▁あなたがこれらの 2200
の物件情報 2200
ヘクタール 2200
次の日 2200
祥 2200
驚異 2200
たとき 2198
もらえ 2198
よろしく 2198
染め 2198
祀 2198
-22 2197
Update 2197
使用量 2197
数日間 2197
▁It 2196
こともあり 2196
届け 2196
申し込み 2196
続いた 2196
++ 2195
KU 2195
Openload 2195
ey 2195
ミステリーサークル 2195
寄せられ 2195
指紋 2195
ESS 2194
が可能になります 2194
始めます 2194
サロン 2193
ストリー 2193
不要な 2193
演算 2193
都会 2193
▁この記事では 2192
について説明します 2192
他のユーザー 2192
多大な 2192
定め 2192
機械式 2192
正帰還 2192
遮 2192
が出る 2191
くれる 2191
なかったので 2190
を確立する 2190
ゲームをプレイ 2190
ミステリー 2190
内装 2190
異なり 2190
ative 2189
ature 2189
par 2189
なりません 2189
の出現 2189
を楽しみに 2189
近くにある 2189
開き 2189
預金 2189
cent 2188
HIV 2187
WO 2187
チェコ 2187
ロイド 2187
ヴェル 2187
示した 2187
置く 2187
関連性 2187
驚か 2187
カナ 2186
奉 2186
と総称します 2185
北側 2185
対称 2185
新型 2185
気づか 2185
-14 2184
Keeping 2184
アース 2184
ザル 2184
シャープ 2184
先駆け 2184
処罰 2184
安価な 2184
衣類 2184
GUI 2183
ola 2183
を明らかにする 2183
ミュージカル 2183
残す 2183
移動します 2183
退職 2183
する権利を有します 2182
に違反し 2182
バングラデシュ 2182
面倒 2182
SUV 2181
バスケット 2181
ラリー 2181
希少 2181
に向かう 2180
ナイロン 2180
存続 2180
顕微鏡 2180
TB 2179
一家 2179
低コスト 2179
車体 2179
911 2178
▁さあ 2178
することはありません 2178
アイランド 2178
国王 2178
朽 2178
環境保全 2178
販売価格 2178
排気 2177
期間中に 2177
欠かせない 2177
おもちゃ 2176
になっており 2176
海面 2176
脆 2176
酵母 2176
25% 2175
▁サイトを通じて 2175
を維持するために 2175
ユニクロ 2175
国際会議 2175
そり 2174
に依存する 2174
を作ります 2174
を回避 2174
を進めています 2174
健康な 2174
僧侶 2174
瞑想 2174
驚いた 2174
135 2173
を導入し 2173
パラリンピック 2173
盗難防止 2173
線形 2173
Or 2172
すべく 2172
失望 2172
Xi 2171
▁City 2171
てしまいました 2171
を飲み 2171
於 2171
未だ 2171
緯度 2171
行える 2171
そのとき 2170
を開発しました 2170
クオリティ 2170
ストン 2170
劉 2170
新興 2170
環境負荷 2170
を指します 2169
シアター 2169
ないもの 2168
に与える 2168
われます 2168
カーテン 2168
分けて 2168
kW 2167
いるので 2167
それ以上 2167
ハラール 2167
他の人々 2167
推移 2167
現れます 2167
規 2167
障 2167
に囲まれ 2166
を入力してください 2166
コミュニティー 2166
タイムライン 2166
判定 2166
存在します 2166
徐 2166
長年の 2166
開業 2166
BP 2165
script 2165
ハック 2165
誘発 2165
するべき 2164
グリル 2164
計画を立て 2164
まとめて 2163
編成 2163
近接 2163
ことにした 2162
そなた達 2162
を得ることができます 2162
多くの人々が 2162
DL 2161
▁Waytostay 2161
▁開催日時 2161
しょ 2161
大事な 2161
force 2160
▁撮影地 2160
は既に 2160
ピラミッド 2160
個展 2160
刑務所 2160
工房 2160
有害な 2160
魅 2160
ミュート 2159
協働 2159
烏 2159
神奈川県 2159
賜 2159
進行中 2159
顕著 2159
従事 2158
木造 2158
に対応するため 2157
マルタ 2157
受け入れる 2157
外相 2157
最先端 2157
gh 2156
いいえ 2156
おもてなし 2156
を所有し 2156
を起動する 2156
留意 2156
航空券 2156
gn 2155
hong 2155
という事 2155
まっすぐ 2155
ボタンを押し 2155
友情 2155
目次 2155
直後に 2155
袖 2155
高度に 2155
lang 2154
と共同で 2154
を見せる 2154
撤回 2154
のオンラインストアの 2153
腎臓 2153
インスペクター 2152
デルタ 2152
悲しい 2152
月の渦巻き旋回 2152
泣 2152
累計 2152
良かった 2152
超音波 2152
▁明治村 2151
本プライバシーポリシー 2151
模型 2151
生成される 2151
選んだ 2151
raw 2150
に限って 2150
のすべてのブランドの 2150
サイトを使用しないでください 2150
明らかな 2150
を大切に 2149
ッティ 2149
創造的な 2149
技術開発 2149
条項に同意しない場合 2149
機密情報 2149
画期的な 2149
縛 2149
RSS 2148
と言っています 2148
よくある 2148
を持たない 2148
を支持し 2148
を活用する 2148
上師 2148
区分 2148
専門機関 2148
納入 2148
蛍光色 2148
Dan 2147
Document 2147
word 2147
となっており 2147
壊れた 2146
table 2145
コーポレート 2144
スポンジ 2144
中央部 2144
広げ 2144
ika 2143
を達成する 2143
カレラ 2143
昔から 2143
珠 2143
自分達自身 2143
PHP 2142
を捉え 2142
コショウ 2142
ヒュー 2142
ポルトガル 2142
北半球 2142
罰金 2142
覆い 2142
Color 2141
にインストール 2141
主義者 2141
腔 2141
6.0 2140
▁Shinonome 2140
を更新する 2140
研究会 2140
ado 2139
▁Software 2139
そのようなサイトやリソース 2139
サイズについて 2139
受容体 2139
確かな 2139
集約 2139
uff 2138
これらの使用条件を 2138
ご家族 2138
まだまだ 2138
コンテンツの一部または全部を 2138
取り上げ 2138
眠り 2138
通行 2138
なくなって 2137
ベロシティー 2137
ボストン 2137
住み 2137
尊厳 2137
Mark 2136
Quick 2136
または使用に関連して生じた 2136
必要がない 2136
故意 2136
科医 2136
VIA 2135
になりたい 2135
少しでも 2135
指令 2135
極端に 2135
臭い 2135
記憶装置 2135
している間 2134
代金 2134
前面 2134
寸 2134
視点から 2134
5.6 2133
rad 2133
みてください 2133
クラウン 2133
ホーチミン 2133
All 2132
any 2132
お肌 2132
ユニバーサル 2132
脊 2132
隔 2132
顧問 2132
reg 2131
としたら 2131
は異なりますので 2131
ration 2130
をご紹介 2130
ハンガリー 2130
撮影された 2130
有限会社 2130
臨床試験 2130
rin 2129
yl 2129
を駆使し 2129
黄山 2129
カプセル 2128
日本国大使館 2128
渡り 2128
温室 2128
発展させ 2128
私は本当に 2128
話した 2128
回線 2127
思った 2127
惹 2127
旧市街 2127
db 2126
▁ALICE 2126
ご協力 2126
プラハ 2126
マルチタッチ 2126
受ける 2126
最もよい 2126
老人 2126
Scr 2125
が行われます 2125
ないよう 2125
熱心に 2125
窓口 2125
Instagram 2124
ments 2124
二十 2124
特徴的な 2124
高効率 2124
▁HOLIC 2123
あなたは今 2123
によって引き起こされ 2123
に反対 2123
みたいな 2123
ニンニク 2123
出会った 2123
咲 2123
立た 2123
逐 2123
チキン 2122
同じデザイン 2122
変える 2122
職務 2122
過激 2122
醤油 2122
鋭い 2122
唇 2121
接続されている 2121
擁 2121
窟 2121
,800 2120
▁DivX 2119
しておりません 2119
の有無 2119
ゴルフコース 2119
デンマーク 2119
標識 2119
rd 2118
外部ソース 2118
考案 2118
肌触りの良い 2118
と一致し 2117
を採用し 2117
code 2116
light 2116
yan 2116
に続いて 2116
ローダー 2116
不可欠です 2116
携 2116
切った 2115
これ以上 2114
の横にある 2114
公正な 2114
初回 2114
古くから 2114
往復 2114
site 2113
イチゴ 2113
効率的 2113
取組み 2113
古代都市 2113
商品イメージ画像 2113
遂 2113
ism 2112
されているため 2112
ケープ 2112
外務大臣 2112
賢明 2112
進行中の 2112
データファイル 2111
双子 2111
均衡 2111
惑星達 2111
購読解除 2111
逃 2111
非常に重要な 2111
NFC 2110
を変更します 2110
ヨット 2110
Dr 2109
ある日 2109
Go 2108
くなります 2108
ていませんでした 2108
サウス 2108
側から 2108
採用しております 2108
頂点 2108
Skype 2107
あわせて 2107
せん 2107
クローズ 2107
形成された 2107
遭遇 2107
-23 2106
Salesforce 2106
センチメートル 2106
ユダヤ 2106
使用して 2106
1986 2105
アテネ 2105
サイトでは 2105
ロジック 2105
三井物産 2105
海峡 2105
direct 2104
プラザ 2104
緑色 2104
育った 2104
に直面する 2103
カーネル 2103
局所 2103
帯域幅 2103
恥 2103
ath 2102
illa 2102
にあって 2102
啓 2102
規模で 2102
うえ 2101
を手に入れ 2101
南アフリカ共和国 2101
手間 2101
文脈 2101
イエロー 2100
イスラム教徒 2100
スクリーンショット 2100
ステート 2100
配当 2100
ペイント 2099
ミュージシャン 2099
駆け 2099
ique 2098
▁細目 2098
っていう 2098
に参加しました 2098
の順で 2098
シフト後に 2098
Flex 2097
あげる 2097
いろんな 2097
を提出する 2097
ホールディングス 2097
人にとって 2097
嶼 2097
引き上げ 2097
組み込む 2097
経験豊富な 2097
鷹 2097
を信じる 2096
インターネット接続 2096
カロリー 2096
ソースコード 2096
デュシット 2096
トレイル 2096
6.5 2095
してみましょう 2095
のサポートを提供します 2095
定義された 2095
敏 2095
曲がり 2095
粛 2095
なのに 2094
分配 2094
流入 2094
隔離 2094
卒業後 2093
新しいもの 2093
有り 2093
来場者 2093
東海岸 2093
4.6 2092
▁Bro 2092
が難しい 2092
この時期 2092
を感じた 2092
要求される 2092
観光局 2092
電子機器 2092
Config 2091
もらった 2091
セラー 2091
ホワイトゴールド 2091
世界初の 2091
箔 2091
だけでも 2090
Pub 2089
SDGs 2089
inh 2089
バインド 2089
持っています 2089
д 2088
によるもの 2088
を管理し 2088
前回の 2088
嫌い 2088
活力 2088
添え 2088
生物学的 2088
相互に 2088
艇 2088
UD 2087
ible 2087
お食事 2087
を装備 2087
プリントサイズ 2087
取得する 2087
聖霊 2087
かず 2086
不可能な 2086
想像力 2086
木曜日 2086
host 2085
▁シルクスクリーン 2085
▁私たちから 2085
につれ 2085
を殺す 2085
テール 2085
使われています 2085
専門的 2085
怖 2085
自発的 2085
では上記 2084
をたくさん 2084
を変更するには 2084
ボタンをクリックすると 2084
分かってい 2084
包括的 2084
渦巻き 2084
Press 2083
のうちのレベル 2083
グラウンド 2083
娯楽 2083
政治的な 2083
明記 2083
暖房 2083
科学者達 2083
耐熱 2083
診療 2083
ウェット 2082
浸水 2082
2017-2021 2081
ship 2081
の下にある 2081
キッズ 2081
ハッキング 2081
常識 2081
迅速かつ 2081
して印刷されます 2080
キーパッド 2080
レーシング 2080
地元の人々 2080
深セン 2080
ある種の 2079
名所 2079
小節 2079
服を着 2079
納品 2079
行っています 2079
すべきである 2078
なっており 2078
両面 2078
eri 2077
ことを確認します 2077
に相当するカラ 2077
を定義します 2077
済州 2077
Single 2076
config 2076
わかり 2076
受け取る 2076
合って 2076
教材 2076
養老 2076
lon 2075
を連れて 2075
使用すること 2075
克服 2075
合併 2075
を取った 2074
印刷位置 2074
条例 2074
紫外線 2074
芸能 2074
hua 2073
が開催され 2073
のんびり 2073
次のステップ 2073
GDP 2072
が楽しめる 2072
したりできます 2072
だけである 2072
できるため 2072
やっと 2072
アラスカ 2072
クマ 2072
複合体 2072
言及した 2072
農民 2072
▁実際の印刷 2071
には蛍光色 2071
は印刷でき 2071
アップル 2071
オバマが 2071
危 2071
当ウェブサイト 2071
新設 2071
正方形 2071
痕跡 2071
見られた 2071
い色に変換 2070
エクスプレス 2070
ーが含まれている場合に 2070
健全な 2070
生成されます 2070
視察 2070
食欲 2070
さらに詳しい情報 2069
することも可能です 2069
サムスン 2069
リニア 2069
英語版 2069
UB 2068
がない場合 2068
除く 2068
On 2067
Sho 2067
が終了し 2067
パイプライン 2067
自体が 2067
▁13. 2066
つなげ 2066
んですよ 2066
に差異が生じ 2065
パンゲア 2065
ブロックチェーン技術 2065
メーカーから提供され 2065
色味が異なる場合が 2065
高圧 2065
中央銀行 2064
以 2064
使用するインク 2064
保護された 2064
地理 2064
宛 2064
印刷サイズを 2063
収集されています 2063
課税 2063
収集した 2062
実在 2062
寮 2062
後援 2062
選択する 2062
ブイ 2061
届かない 2061
算出 2061
葬 2061
豆腐 2061
EQ 2060
Maker 2060
ことを願っています 2060
カラーについて 2060
コンパイラ 2060
最悪の 2060
顔料インク 2060
1200 2059
OST 2059
rate 2059
は次のとおりです 2059
ステンレススチールケース 2059
各デザイナー 2059
ement 2058
▁防水性能 2058
することができた 2058
と発表した 2058
になじんだ 2058
エグゼクティブ 2058
濡 2058
返事 2058
顕 2058
THE 2057
ことができるようになります 2057
を合わせて 2057
サント 2057
リカバリ 2057
歩行者 2057
深夜 2057
▁Kingdom 2056
と大きく異なります 2056
に伴いまして 2056
レオ 2056
遊んで 2056
1,2,3 2055
どうしたら 2055
ケース等 2055
味わえ 2055
荒廃 2055
▁Kii 2054
大聖堂 2054
建築物 2054
締め切り 2054
製品の印刷 2054
CW 2053
お伝え 2052
勿論 2052
単独で 2052
培養 2052
最も有名な 2052
行えます 2052
調整しております 2052
に戻ります 2051
関わって 2051
MHz 2050
▁ミューニ 2050
しょう 2050
すぎて 2050
て配置されており 2050
と思っていた 2050
のプリントには 2050
の影響をうけます 2050
を記入 2050
インド洋 2050
事務所や調査 2050
名称が同じで 2050
無事 2050
特性につきまして 2050
申し立て 2050
船積み 2050
見方 2050
▁インクジェット印刷 2049
の上にイン 2049
の縦横比率が 2049
圧迫 2049
専門店 2049
差異に対応 2049
見える可能性がございます 2049
ek 2048
ify 2048
との差異が生じ 2048
のボディーカラー 2048
の印刷方式 2048
を確立 2048
サイズにつきましては 2048
プリント位置 2048
メッセンジャー 2048
写真素材を使用 2048
喫 2048
実際のプリント 2048
感じられ 2048
等により実際の 2048
風合いとなり 2048
FAX 2047
お客様のご使用のモニター 2047
せば 2047
でも白の 2047
と若干の差異が 2047
のようにボディー 2047
の印刷に対応しておりま 2047
は上記写真のように 2047
ることが出来ます 2047
インクジェット印刷は 2047
クを盛 2047
サイズが印刷 2047
サイズを基本とし 2047
使用しているアイテム 2047
優しく 2047
出力の有無 2047
可能範囲を超え 2047
書記 2047
様がアップロードした画像 2047
理解を深め 2047
発色や 2047
白インクで 2047
見本より小さく 2047
障壁 2047
ache 2046
を作成できます 2046
を保護し 2046
を考慮して 2046
ウィッグ 2046
提唱 2046
Save 2045
シャットダウン 2045
建てられ 2045
もう一つ 2044
果たし 2044
行動計画 2044
Doc 2043
モーション 2043
人体モデル 2043
集まった 2043
Square 2042
ハッカー 2042
ベアリング 2042
基調 2042
無料キャンセル 2042
確認メール 2042
poli 2041
おうと 2041
動物園 2041
Over 2040
を逃 2040
作製 2040
帰って 2040
神殿 2040
1/1 2039
▁War 2039
ホップ 2039
リフレッシュ 2039
原油 2039
心理学 2039
最も美しい 2039
CKD 2038
cu 2038
から構成される 2038
を希望する 2038
文字通り 2038
祖父 2038
結核 2038
若しくは 2038
にくく 2037
に含まれている 2037
堤 2037
扇 2037
ファイルを取り扱う 2036
劇的な 2036
単独 2036
00,000 2035
た電子部品 2035
名古屋大学 2035
戦士 2035
Enter 2034
ことができず 2034
を強調する 2034
ヘリコプター 2034
火かき棒 2034
ras 2033
入れる 2033
右下 2033
島々 2033
恥ずかし 2033
接点 2033
数百万 2033
それは非常に 2032
を買って 2032
スチーム 2032
ナム 2032
ピーター 2032
志向 2032
採取 2032
She 2031
Snap 2031
rl 2031
を描いて 2031
ゲートウェイ 2031
椎 2031
買う 2031
あなた方に 2030
と同等 2030
を使えば 2030
ディープ 2030
中立 2030
仮想通貨 2030
1,2 2029
une 2029
▁rape 2029
お客様から 2029
を元に 2029
モデリング 2029
動かない 2029
左上 2029
集落 2029
reat 2028
と主張する 2028
インスタント 2028
ブッシュ政権 2028
最大級の 2028
あなたはあなたの 2027
ダイバー 2027
眼鏡 2027
ちょ 2026
再構築 2026
変わって 2026
絶妙な 2026
ile 2025
を達成するために 2025
ハーバー 2025
公開された 2025
氾濫 2025
Next 2024
und 2024
アルファ 2024
同等 2024
日年中無休 2024
▁プロのレプリカ 2023
万里の長城 2023
反乱 2023
工業株式会社 2023
残高 2023
経済的な 2023
計算機 2023
ever 2022
▁clem 2022
に組み込まれ 2022
ぺ 2022
を付与 2022
届く 2022
愛する 2022
隣接する 2022
高密度 2022
KDDI 2021
POS 2021
うかについての 2021
を減らし 2021
を要する 2021
コンテキストメニュー 2021
ロジー 2021
一瞬 2021
寄与 2021
恐竜 2021
web 2020
で始まる 2020
他の国 2020
届き 2020
▁University 2019
が保存されます 2019
後退 2019
患 2019
苦しんで 2019
衝突被害 2019
酢 2019
▁携帯の 2018
お父さん 2018
既定の 2018
注射 2018
記録された 2018
ことがわかります 2017
データソース 2017
垂 2017
MK 2016
を閉じる 2016
上流 2016
全体として 2016
朗 2016
象徴 2016
Er 2015
Vista 2015
▁Thing 2015
すべてのレンタカー会社 2015
トランスポート 2015
フェイスブック 2015
都市部 2015
錦 2015
CSV 2014
Custom 2014
▁XR 2014
シェー 2014
起訴 2014
ATM 2013
の修正のための 2013
を指定して 2013
代表取締役社長 2013
符号化 2013
har 2012
お友達 2012
に気づき 2012
イエローゴールド 2012
イングランド 2012
正義 2012
注意を払う 2012
sub 2011
するために使用 2011
シーケンス 2011
ジュエル 2011
ニッ 2011
ラグビー 2011
139 2010
を手動で 2010
彼のコック 2010
警戒 2010
OO 2009
▁レンタカー会社を 2009
が無い 2009
のレンタカー検索 2009
エンジンは世界中 2009
盗難 2009
過敏 2009
1982 2008
▁いつでもお問い合わせください 2008
▁電話またはオンラインで 2008
に柔軟性を与えます 2008
サマー 2008
予約であなた 2008
全て比較 2008
再インストール 2008
塗料 2008
粘土 2008
購入する 2008
ユリ 2007
玄 2007
▁Society 2006
およびレンタカー 2006
去り 2006
命名 2006
地球の正確な 2006
家畜 2006
帰属 2006
球体 2006
読書 2006
Inter 2005
▁レンタカーでの 2005
動きを計 2005
感じています 2005
第三者に対する責任 2005
翌 2005
なぜ雇 2004
エレガント 2004
ムラ 2004
免許 2004
宝物 2004
本件 2004
乗車 2003
俊 2003
bert 2002
でありながら 2002
へ行く 2002
キック 2002
ユーザ名 2002
何もない 2002
SMS 2001
link 2001
てみよう 2001
上げられ 2001
也 2001
地理的な位置の 2001
STAR 2000
にあたる 2000
は傾きと 2000
ゼータ達が 2000
佐藤 2000
建てた 2000
日配送 2000
決定を可能にする 2000
好評 1999
iano 1998
に変換する 1998
る内蔵し 1998
情報を収集 1998
組み込まれ 1998
など様々な 1997
実用 1997
すべてのもの 1996
ぱ 1996
をやめ 1996
タブレットや 1996
............... 1995
グレート 1995
併用 1995
配分 1995
IST 1994
しようとすると 1994
オックスフォード 1994
ユーラシア 1994
地球から 1994
強風 1994
追加料金 1994
test 1993
に相当する 1993
ウィンストン 1993
スキャンダル 1993
ニョ 1993
社会的な 1993
著しく 1993
その名 1992
は地方税 1992
コストはありません 1992
妨げ 1992
ira 1991
に寄与する 1991
アウトドア 1991
アクセスした 1991
外付け 1991
子宮 1991
投影 1991
漏洩 1991
穏やか 1991
頻 1991
髄 1991
β 1990
世界経済 1990
奨 1990
碑 1990
してくれます 1989
グッド 1989
APP 1988
UK 1988
共存 1988
砥 1988
このタイプの 1987
を削除します 1987
コレクター 1987
サーチャージが含まれ 1987
分泌 1987
近所 1987
1-3 1986
108 1986
操業 1986
第四 1986
透過 1986
お花屋さん 1985
を有効化 1985
埋め込み 1985
外出 1985
18:00 1984
oh 1984
をお楽しみいただけます 1984
修め 1984
呪 1984
挟 1984
深刻 1984
ゆる 1983
漢字 1983
ONE 1982
▁Val 1982
を建て 1982
を計画する 1982
画像を提供する 1982
考えられる 1982
見れば 1982
謀 1982
JPEG 1981
Photoshop 1981
トロント 1981
三亜 1981
予め 1981
Agent 1980
いくらか 1980
いって 1980
いつか 1980
サファイアクリスタル 1980
12:00 1979
CU 1979
させている 1979
に影響を及ぼす 1979
サポートされている 1979
スクリーニング 1979
リーン 1979
優れている 1979
薄膜 1979
還元 1979
etc 1978
ことに同意するものとします 1978
に関するサイト 1978
を楽しめる 1978
生産量 1978
シオ 1977
件のコメント 1977
大容量 1977
接着 1977
非常によく 1977
Hot 1976
を提出し 1976
就任 1976
解読 1976
設け 1976
があった場合 1975
と言える 1975
チェス 1975
彫り 1975
提供の同 1975
磨き 1975
main 1974
▁花をお届け 1974
してしまった 1974
を作り出す 1974
ネオ 1974
引かれ 1974
忍耐 1974
720 1973
▁(2016 1973
▁自動焦点 1973
お花屋さんと同じ日に花送 1973
char 1972
に基づいています 1972
聞こえる 1972
HC 1971
▁Central 1971
換 1971
斎 1971
5.0 1970
Un 1970
ることなく 1970
ローター 1970
商人 1970
専門的な 1970
承認された 1970
続きます 1970
認められた 1970
費や 1970
と推定され 1969
もたらし 1969
わかります 1969
時間以上 1969
要塞 1969
違 1969
するために必要な 1968
以下のように 1968
出てきた 1968
損害について 1968
波佐見焼 1968
鉱業 1968
館内 1968
SIM 1967
の地域の経済 1967
刺繍 1967
手がかり 1967
隣人 1967
eas 1966
おすすめです 1966
カメ 1966
ガム 1966
墜落 1966
大気中 1966
尋ねた 1966
求 1966
運送 1966
が用意されています 1965
の私立探偵が 1965
玄関 1965
萬 1965
に戻す 1964
シーフード 1964
モデル事例 1964
独裁 1964
褐色 1964
Use 1963
ous 1963
の背後にある 1963
パンチ 1963
相談窓口 1963
自然災害 1963
蒸発 1963
音量 1963
HTTP 1962
ense 1962
が確認され 1962
ことにご留意ください 1962
ハイパーリンク 1962
中期 1962
を重視し 1961
プロット 1961
ボディーガードサービスを 1961
契約書 1961
実用化 1961
改変 1961
硫酸 1961
rea 1960
ちゃんと 1960
を販売する 1960
三角形 1960
厳密に 1960
収縮 1960
Hong 1959
始まる 1959
foo 1958
▁デフォルトでは 1958
するつもり 1958
ブランチ 1958
ロバ 1958
機械的 1958
歓 1958
EB 1957
star 1957
アカウントを作成 1957
サウナ 1957
北西 1957
宇宙空間 1957
完璧 1957
進捗 1957
から削除 1956
を作成して 1956
挙げ 1956
挙動 1956
確実な 1956
ichi 1955
▁Experience 1955
こんなに 1955
地質学 1955
MOV 1954
atter 1954
▁このモジュールは 1954
と言われる 1954
を保ち 1954
マラソン 1954
決算 1954
語学 1954
erra 1953
▁Technology 1953
つくり 1953
の地域で同 1953
流域 1953
言うこと 1953
dir 1952
ノートブック 1952
学問 1952
置かれた 1952
に接続する 1951
最優先 1951
涼しい 1951
理事長 1951
私立探偵の助けを必要とする人々は 1951
量産 1951
ことを知っている 1950
マグマ 1950
マージ 1950
修飾 1950
大量に 1950
最後まで 1950
経済と民 1950
起こって 1950
の写真を使用している場合 1949
オンラインストア 1949
歳以上です 1949
15:00 1948
を獲得する 1948
サンディエゴ 1948
一郎 1948
注釈 1948
理学部数学科 1948
異星人の 1948
繰り返され 1948
▁Quest 1947
そういった 1947
エクスプローラ 1947
同盟国 1947
施工 1947
獲 1947
FTP 1946
プレスリリース 1946
位置づけ 1946
建設された 1946
弊社では 1946
荷重 1946
返却 1946
Enterprise 1945
函 1945
寂 1945
抹茶 1945
消費電力 1945
畜 1945
0.6 1944
を失うこと 1944
ビデオ監視 1944
今すぐ予約 1944
憲 1944
Ci 1943
先進国 1943
ニカ 1942
リニューアル 1942
昧 1942
漏 1942
生活の中で 1942
説明しています 1942
ava 1941
について説明 1941
を右クリックし 1941
チェッカー 1941
マインド 1941
主人 1941
田中 1941
を利用すること 1940
ラット 1940
生殖 1940
知覚 1940
GHz 1939
されてきました 1939
を決定します 1939
ette 1938
с 1938
いただければ 1938
ものだった 1938
エキスパート 1938
ココ 1938
二度 1938
拘 1938
清水 1938
認められる 1938
がいっぱい 1937
の種類や 1937
持参 1937
256 1936
だって 1936
コンビニ 1936
補助金 1936
複 1936
賄 1936
が豊富 1935
ココナッツ 1935
募 1935
最新版 1935
XRP 1934
MG 1933
を図っ 1933
を教える 1933
膨張 1933
審議 1931
時間予報 1931
航海 1931
チェル 1930
ライター 1930
今度は 1930
持ち上げ 1930
短時間 1930
重要な役割を果たし 1930
▁愛知 1929
暮らす 1929
ext 1928
まわ 1928
フリ 1928
お願い致します 1927
フリーのダウンロード 1927
手掛け 1927
電気自動車 1927
に関する研究 1926
世の中 1926
HDD 1925
aff 1925
が存在します 1925
をサポートしており 1925
スコットランド 1925
何よりも 1925
化粧 1925
北米大陸 1925
捕獲 1925
男性と女性 1925
繊細 1925
貴方 1925
ATION 1924
bot 1924
のでご注意ください 1924
という点 1923
を識別する 1923
役目 1923
焼く 1923
燃料電池 1923
face 1922
くら 1922
できるようになる 1922
と言えます 1922
を再開 1922
アラーム 1922
クレー 1922
フォート 1922
ペリー 1922
統合された 1922
エンクロージャ 1921
テキサス 1921
平行 1921
会館 1920
再発行 1920
発表しました 1920
▁当選した 1919
マカオ 1919
十二 1919
送信された 1919
Udemy 1918
think 1918
より一層 1918
を接続する 1918
届 1918
海賊 1918
15% 1917
の一部です 1917
囲まれ 1917
展望台 1917
影響を及ぼす 1917
洗って 1917
添付ファイル 1917
組立 1917
論理的 1917
革新的 1917
Good 1916
nu 1916
アーツ 1916
統制 1916
近い将来 1916
1978 1915
ケースでは 1915
丸い 1915
劣化 1915
知れ 1915
それ故に 1914
として知られています 1914
ダンサー 1914
リンク先 1914
伝統工芸 1914
変わってい 1914
最も一般的な 1914
漬け 1914
硝 1914
翌年 1914
記者会見 1914
記載されている 1914
を買い 1913
を開くには 1913
キノコ 1913
動脈 1913
可能なので 1913
素子 1913
Soft 1912
不安定な 1912
増幅 1912
法則 1912
蛍光 1912
RNA 1911
を動かし 1911
凍 1911
ぴ 1910
エルサレム 1910
パイオニア 1910
ポケモン 1910
リューズ除 1910
保存された 1910
文化的な 1910
書き出し 1910
歩行 1910
蒸 1910
▁関連項目 1909
戻す 1909
文法 1909
Long 1908
MAR 1908
がキャンセルした場合 1908
ものづくり 1908
住まい 1908
よりよい 1907
ロッテ 1907
太陽電池 1907
2030 1906
オーケストラ 1906
経費 1906
胞 1906
責任を負う 1906
ォ 1905
サバイバル 1905
パーソナル 1905
呼び出され 1905
旭 1905
資格を取ることができま 1905
-02 1904
▁Edition 1904
1400 1903
Image 1903
とは何か 1903
に示す 1903
を変更できます 1903
伊藤 1903
View 1902
▁Requirements 1902
ことが明らか 1902
を埋め 1902
ホスト名 1902
別々の 1902
瑞 1902
ことを望む 1901
せよ 1901
たいと思っています 1901
に設定すると 1901
やっぱり 1901
を押すと 1901
を確認します 1901
賞受賞 1901
FOR 1900
ISP 1900
▁Tor 1900
アシスタント 1900
ルーチン 1900
世界各地 1900
問題が発生し 1900
ヘルスケア 1899
リビング 1899
一杯 1899
理由のために 1899
薄型 1899
起こらない 1899
LIN 1898
ili 1898
ju 1898
▁YIDFF 1898
に関するお知らせ 1898
を見るために 1898
アナリティクス 1898
ロブ 1898
このたび 1897
を見つけます 1897
キエフ 1897
ザイ 1897
リーディング 1897
併 1897
迅速 1897
違います 1897
都心 1897
VIP 1896
こういった 1896
マルチメディア 1896
しようとしています 1895
を作成するには 1895
水泳 1895
He 1894
三日以内 1894
平壌 1894
新技術 1894
邪魔 1894
Che 1893
のもとで 1893
オートバイ 1893
会う 1893
面接 1893
IMF 1892
きめ 1892
に移動し 1892
を話す 1892
出現する 1892
急性 1892
/10/ 1891
いらっしゃ 1891
し始めた 1891
光源 1890
時間帯 1890
視線 1890
電子メールアドレス 1890
6000 1889
INT 1889
サブスクリプション 1889
ブラックダイヤル 1889
ポールシフトの間 1889
千葉 1889
大企業 1889
に渡り 1888
ふたたび 1888
コラボ 1888
ミール 1888
多言語 1888
Digital 1887
dd 1887
を防ぎ 1887
シュート 1887
諮 1887
を除去する 1886
取った 1886
定員 1886
定番 1886
実習 1886
坑 1885
悲劇 1885
神々 1885
add 1883
してもらう 1883
なくてはならない 1883
トラクター 1883
バリアント 1883
個人情報保護 1883
充実した 1883
気になる 1883
VMware 1882
を破壊する 1882
スクエア 1882
スプーン 1882
変わらない 1882
待っています 1882
泡立ち 1882
あらゆる種類の 1881
におい 1881
メトリック 1881
モス 1881
ロンジン 1881
説明しました 1881
適用されます 1881
4.1 1880
ミュンヘン 1880
Project 1879
WiFi 1879
そもそも 1879
ディスコ 1879
亜鉛 1879
Copy 1878
Read 1878
にも対応 1878
三角 1878
幼い 1878
項目タイプ 1878
が見つかった 1877
まく 1877
よく知られている 1877
ッティング 1877
ヒロ 1877
維 1877
1974 1876
4.2 1876
と見なされ 1876
ゃ 1876
を評価し 1876
限度 1876
風力発電 1876
FBI 1875
しなければ 1875
じん 1875
という点で 1875
の助けを借りて 1875
を作るために 1875
割り当てられた 1875
生まれました 1875
生産者 1875
任せ 1874
空調 1874
nic 1873
スタイリッシュな 1873
ハロー 1873
切削 1873
救われ 1873
苦しむ 1873
驚く 1873
ツイン 1872
使えます 1872
妥当性 1872
uki 1871
▁Instruments 1871
ことになった 1871
をサポートします 1871
を表しています 1871
商品のみ 1871
スイーツ 1870
不適切な 1870
四角 1870
指名 1870
景気 1870
道端 1870
http 1869
されなければならない 1869
てきている 1869
を使わ 1869
ペイン 1869
ローズゴールド 1869
模倣 1869
進める 1869
につながります 1868
ログ収集 1868
頂上 1868
Green 1867
いたり 1867
に会う 1867
契約を締結 1867
私の友人 1867
Duodecad 1866
TRAKTOR 1866
arn 1866
▁Park 1866
に広がる 1866
不可欠 1866
かぎり 1865
みず 1865
わかりません 1865
ケニア 1865
爆撃 1865
7.5 1864
エンドユーザー 1864
傾いて 1864
Ver 1863
動いている 1863
品目 1863
失敗する 1863
定義されている 1863
であるかどうか 1862
ラグジュアリー 1862
ATA 1861
コンバージョン 1861
経済発展 1861
Cubase 1860
oot 1860
▁それにもかかわらず 1860
を押します 1860
▁わたしたちは 1859
アラート 1859
Safari 1858
System 1858
down 1858
公転軌道 1858
昆明 1858
無効化 1858
緻 1858
肥満 1858
ott 1857
▁但し 1857
トータル 1857
知的財産 1857
莫大な 1857
開発途上国 1857
Source 1856
▁Electronics 1856
おしゃべり 1856
を割り当てる 1856
オレ 1856
バスローブ 1856
改造 1856
栄え 1856
編集者 1856
驚くほど 1856
anta 1855
ございません 1855
を加えた 1855
を探知して 1855
を浴び 1855
を満喫 1855
他のすべての 1855
始めている 1855
那 1855
陛 1855
Output 1854
▁そのような場合 1854
を削減する 1854
カントリー 1854
ペアリング 1854
SHOW 1853
▁Email 1853
▁WinterWind 1853
を象徴する 1853
樹木 1853
阜 1853
mag 1852
かどうかを確認 1852
ショナル 1852
ツイート 1852
暗示 1852
願いを叶え 1852
を築き 1851
ウェスト 1851
狂気 1851
購買 1851
MF 1850
▁Platform 1850
デーモン 1850
利用目的 1850
自覚 1850
覚えている 1850
▁煙台 1849
机 1849
消費税 1849
督 1849
課金 1849
離れている 1849
-03 1848
▁近接センサー 1848
保護者 1848
効率性 1848
見積もり 1848
1920 1847
60% 1847
eau 1847
の焦点を微調整するカメラ機能で 1847
を添え 1847
メダル 1847
ユーザーが通話 1847
手段として 1847
表示をオフにし 1847
ather 1846
に適用される 1846
ものとする 1846
ヴィン 1846
壁紙 1846
You 1845
傾向がある 1845
地表 1845
小規模な 1845
決められ 1845
してくれ 1844
ほぼすべての 1844
を報告し 1844
を育てる 1844
ノルウェー 1844
プレスと表 1844
中に携帯を 1844
冒頭 1844
消費を防止するため 1844
示からの 1844
釜 1844
顔の近くに持ってい 1844
顧客サービス 1844
レコーダー 1843
準備ができて 1843
証言 1843
WD 1842
を助けるために 1842
テク 1842
予測した 1842
勘 1842
安価 1842
を指す 1841
シームレス 1841
スパイス 1841
中国の世界遺産 1841
去年 1841
UV 1840
その内容 1840
に設定します 1840
アナリスト 1840
堅牢 1840
ことはできますか 1839
にも関わらず 1839
に就任 1839
の両側に 1839
ナシ 1839
事業活動 1839
結成 1839
が保存される 1838
けん 1838
ウォ 1838
排他的な 1838
野外 1838
を切り替える 1837
本格 1837
見つかる 1837
貴重 1837
対抗 1836
ida 1835
削除されます 1835
手掛かり 1835
鈴木 1835
それゆえ 1834
サインイン 1834
信じている 1834
合法 1834
導入し 1834
office 1833
を説明し 1833
先駆者 1833
出される 1833
通称 1833
開館 1833
▁Management 1832
を作り出し 1832
一般の人々が 1832
受賞者 1832
一面 1831
新株予約権 1831
正確さ 1831
牛肉 1831
生存者 1831
祖先 1831
NAME 1830
所長 1830
4,000 1829
▁これによって 1829
をクリックする 1829
フィルタリング 1829
一切ありません 1829
定数 1829
廊下 1829
必要がある場合があります 1829
仏教寺院 1828
急な 1828
成し遂げ 1828
されることがあります 1827
の評論 1827
ヤー 1827
創建 1827
恩恵 1827
梱包資材 1827
熱心な 1827
率いる 1827
通気性 1827
SEC 1826
できている 1826
を取り戻す 1826
ライバル 1826
優勢 1826
断層線 1826
が必要だ 1825
嶺 1825
患者さん 1825
括 1825
stra 1824
を上回る 1824
ペンダント 1824
領域内の領域 1824
aku 1823
ていたとしても 1823
を確認してください 1823
帽 1823
持続的な 1823
硬い 1823
まっすぐに 1822
出すこと 1822
撮った 1822
現実的な 1822
番号付け 1822
べきか 1821
リラックスした 1821
何とか 1821
高齢化 1821
1981 1820
cade 1820
のすべての種類 1820
を発見する 1820
アクセス権 1820
スロバキア 1820
静止 1820
▁Latest 1819
に専念 1819
に貢献し 1819
価値のある 1819
問題点 1819
換気 1819
質感 1819
Light 1818
にふさわしい 1818
ファームウェア 1818
並み 1818
夕日 1818
監査役 1818
進んでいる 1818
DNS 1817
▁Luxembourg 1817
あわせ 1817
に表示されている 1817
をつけて 1817
をめぐる 1817
送料無料 1817
アーティ 1816
キャベツ 1816
バナナ 1816
モナコ 1816
上昇し 1816
手袋 1816
行きたい 1816
ashi 1815
分かります 1815
世界的に有名な 1814
哀 1814
変調 1814
提供している 1814
見ていない 1814
譜表 1814
Path 1813
Process 1813
に固定され 1813
取り扱う 1813
日記 1813
早めに 1813
ことを目的として 1812
にアクセスし 1812
を持っていました 1812
ピスト 1812
下車 1812
偶発的 1812
説明書 1812
ここまで 1811
商店街 1811
潜在的に 1811
芝 1811
▁Statement 1810
つを選択します 1810
ナイジェリア 1810
件数 1810
峡 1810
鮮明 1810
▁ビデオシーン 1809
ていたこと 1809
リアルタイムアメダス 1809
主任 1809
妊娠中 1809
を確保するため 1808
を追求する 1808
モニュメント 1808
咲き 1808
Export 1807
を比較する 1807
を祝う 1807
エキサイティングな 1807
両立 1807
必死 1807
立大学 1807
紐 1807
ジウム 1806
不在 1806
宴会 1806
工業用 1806
configure 1805
path 1805
させられる 1805
といって 1805
クロム 1805
マイページ 1805
女神 1805
崇拝 1805
iCloud 1804
を妨げ 1804
シェン 1804
ターボ 1804
ハマ 1804
書面による 1804
金正恩 1804
PU 1803
ria 1803
リール 1803
見つけた 1803
USGS 1802
お勧めします 1802
を意味し 1802
散ら 1802
時計と一緒に泳ぐこと 1802
時間以内に 1802
蒸し 1802
なってきた 1801
に表示する 1801
動作しない 1801
л 1800
幻 1800
旅行代理店 1800
間違っている 1800
もよく 1799
情報を送 1799
最も近い 1799
残念なことに 1799
生きて 1799
跳ね 1799
金持ち 1799
境界線 1798
港湾 1798
知らなかった 1798
終わっ 1797
▁Fl 1796
ことが重要 1796
クリエイター 1796
ナチュラル 1796
マウンテン 1796
分類された広告 1796
局長 1796
月中旬 1796
エレベーター 1795
サービスの提供 1795
低炭素 1795
宿泊予約 1795
巡り 1795
誕生した 1795
闘争 1795
ものであっても 1794
チェリー 1794
歌手 1794
歩み 1794
あなたが既に 1793
さまざまなカテゴリ 1793
を検討する 1793
フェイス 1793
auto 1792
から来た 1792
アダプタ 1792
力学 1792
司令官 1792
持っていた 1792
植え付け 1792
溢れる 1792
登り 1792
にアクセスできます 1791
を注ぎ 1791
大仏 1791
携わっ 1791
最優秀 1791
lar 1790
less 1790
責任を負わないものとします 1790
麻薬 1790
を通過する 1789
fo 1788
なければならず 1788
ショベル 1788
最高のレプリカの腕時計 1788
熱狂 1788
ていっています 1787
サプリメント 1787
ディレクトリを見 1787
ミネベア 1787
予選 1787
億人 1787
入浴 1787
拳 1787
리 1787
いつものように 1786
ご相談ください 1786
ディレイ 1786
デリー 1786
バウチャー 1786
徒 1786
死亡した 1786
購入者 1786
UC 1785
▁つぶ訳 1785
▁第二に 1785
を記念して 1785
メラ 1785
リストを得るために 1784
削除する 1784
味噌 1784
大変な 1784
学生たち 1784
手すり 1784
が設置され 1783
ことを考え 1783
つながる 1783
への貢献 1783
を果たす 1783
報道機関 1783
チャンピーノ 1782
フェーダー 1782
定格 1782
慈善 1782
骨格 1782
リトル 1781
持続的 1781
私達の領域 1781
といえる 1780
と呼ばれます 1780
ヘラ 1780
営業利益 1780
器官 1780
斉 1780
母国 1780
発祥 1780
石灰 1780
が展示され 1779
ヘイ 1779
十分に特色 1779
款 1779
筆者 1779
進学 1779
auth 1778
人格 1778
有効期限 1778
示されます 1778
良好 1778
見つけることができる 1778
視界 1778
高雄 1778
パウダー 1777
ラサ 1777
平日 1777
謡 1777
Yu 1776
ロウ 1776
国宝 1776
惨 1776
を買った 1775
カンファレンス 1775
研究チームは 1775
高く評価され 1775
RN 1774
を掲げ 1774
を製造しています 1774
持続可能性 1774
ワイルド 1773
真理 1773
視聴者 1773
伝承 1772
独自に 1772
を味わう 1771
拙政園 1771
流す 1771
炒め 1771
重なり 1771
Navi 1770
めき 1770
サポーター 1770
肯定的な 1770
認める 1770
運河 1770
金沢 1770
1900 1769
▁EmEditor 1769
ヒアルロン酸 1769
消える 1769
無用のタイヤ 1769
聞かれ 1769
調査結果 1769
0.7 1768
ふり 1768
パウロ 1768
マーキング 1768
モア 1768
国際機関 1768
青空 1768
WG 1767
しまった 1767
にアパートホテル 1767
アクリル 1767
以下の手順 1767
繋がり 1767
超え 1767
Cryptocurrencies 1766
を忘れて 1766
ペルシャ 1766
マルコ 1766
叩 1766
換算 1766
教訓 1766
防水時計 1766
▁その際 1765
その場で 1765
保留 1765
助力 1765
原宿 1765
熟成 1765
第二次世界大戦 1765
細工 1765
install 1764
max 1764
▁Compliance 1764
ホスティング 1764
占有 1764
搾 1764
舞い 1764
血圧 1764
贅沢な 1764
通報 1764
AAA 1763
PF 1763
Text 1763
をタップして 1763
を想定し 1763
全体的に 1763
醍 1763
醐 1763
関東 1763
代表団 1762
西海岸 1762
▁Backup 1761
を含んでいる 1761
を実現し 1761
コードを取得 1761
バーチャルホスト 1761
マウ 1761
使用者 1761
発生しました 1761
祈る 1761
箸 1761
を破壊し 1760
噴出 1760
整合 1760
曖 1760
決定した 1760
1.9 1759
エディション 1759
マニラ 1759
工学部 1759
となるでしょう 1758
股 1758
臓 1758
貴金属 1758
9000 1757
で覆われて 1757
プッシュするために 1757
照射 1757
を活用して 1756
を発見しました 1756
ロゴをアップロード 1756
天文学 1756
Wind 1755
м 1755
ご覧ください 1755
を採用した 1755
を記録する 1755
効力 1755
動員 1755
取り込む 1755
更新されます 1755
ANT 1754
について議論 1754
ジャーナル 1754
主席 1754
優れ 1754
潮流 1754
禄 1754
GRA 1753
を引く 1753
健康的な 1753
比例 1753
為替 1753
パーソナライズ 1752
戦術 1752
木製 1752
胚 1752
送信します 1752
Sync 1751
▁Club 1751
たびたび 1751
に遭遇し 1751
を飾る 1751
カ所 1751
実施する 1751
▁Ja 1750
テイク 1750
格子 1750
樽 1750
無修正動画 1750
運ばれ 1750
DAAD 1749
Sym 1749
大邱 1749
と思われ 1748
ソール 1748
伐 1748
図書 1748
批評 1748
政府機関 1748
日の朝 1748
gar 1747
オーガニック 1747
当地 1747
浅い 1747
登録については 1747
'' 1746
イーサネット 1746
位置検索 1746
影響を受けた 1746
で検索可能にな 1745
との提携 1745
に起因 1745
フレンドリー 1745
ブロンズ 1745
沖合 1745
▁ダイヤルカラー 1744
ブラックホール 1744
レディ 1744
口径 1744
妥協 1744
文字セット 1744
有利な 1744
王冠 1744
発売日 1744
つの異なる 1743
放置 1743
簡易 1743
落ち着いた 1743
っております 1742
できる限り 1742
ほのめか 1742
---------------- 1741
ization 1741
▁please 1741
テレパシー 1741
東北大学 1741
歪 1741
1971 1740
▁Saint 1740
を示しました 1740
生き残る 1740
硫黄 1740
1976 1739
480 1739
いくら 1739
を実現するために 1739
ダイアログボックス 1739
以前のバージョン 1739
淡水 1739
送られた 1739
非常に簡単 1739
650 1738
もうひとつ 1738
も同様に 1738
よりもはるかに 1738
を担当する 1738
団結 1738
居住者 1738
正式な 1738
疫 1738
胴 1738
詳しい情報 1738
賛成 1738
送信される 1738
LK 1737
を広げる 1737
交通機関 1737
使わない 1737
IBM 1736
ステートメント 1736
ポジティブ 1736
拡充 1736
破裂 1736
辱 1736
マーケティング活動 1735
削除した場合 1735
売れ 1735
OUR 1734
WE 1734
お電話 1734
ポテト 1734
世界でも 1734
何百万 1734
最後の数週間 1734
王室 1734
<< 1733
なんか 1733
アルプス 1733
一緒 1733
機能停止 1733
私たちがこの地 1733
URI 1732
あえて 1732
の完全なリストです 1732
を学んだ 1732
ディレクトリ上の 1732
バースト 1732
出版物 1732
有益 1732
ソーシャルネットワーク 1731
プローブ 1731
ユーザーとしてログインし 1731
印象的 1731
向かって 1731
茨 1731
裂け 1731
韓国語 1731
ことが明らかになった 1730
に同意するものとします 1730
を有しています 1730
エンタープライズ 1730
ジョーンズ 1730
烈 1730
すみ 1729
ツォ 1729
域に持ってい 1729
探偵機関や経済調査同社 1729
あなたの探偵事務所のエントリを 1728
ことができて 1728
さまざまな情報を提供 1728
に着手 1728
る私立探偵 1728
定められた 1728
探査機 1728
続いている 1728
聞いたこと 1728
-05 1727
och 1727
できるのは 1727
なっていく 1727
を減少させ 1727
ウォーク 1727
パフォーマー 1727
プリン 1727
ヘルメット 1727
がここに表示されていない 1726
への登録は無料です 1726
オフィシャル 1726
以下のボタンを使用してください 1726
具体的に検索することができ 1726
Chris 1725
クラスター 1725
ログインご 1725
位置特定システム 1725
引っ張り 1725
構成要素 1725
DecoNetwork 1724
▁あなたの探偵 1724
あなたの探偵事務所の 1724
を削減し 1724
反復 1724
大人気 1724
Etsy 1723
コンパクトな 1723
描いた 1723
支えられ 1723
歩いた 1723
space 1722
南東 1722
崇 1722
手頃な価格 1722
申 1722
管理を行なってい 1722
自家製 1722
State 1721
ランナー 1721
峡谷 1721
有利 1721
次々と 1721
store 1720
チェイニー 1720
モデルは満 1720
金利 1720
2.8 1719
usr 1719
が備わっています 1719
ように開発された 1719
エスケープ 1719
マイクロソフト 1719
何でしょうか 1719
込んでいる 1719
メコン 1718
取り込み 1718
答 1718
逃れる 1718
Luc 1717
ien 1717
あちこち 1717
アドバイザー 1717
優位性 1717
其 1717
を提案する 1716
ビクトリア 1716
円盤 1716
対外 1716
放題 1716
みましょう 1715
ハッピー 1715
ビデオファイル 1715
ホリデー 1715
外国為替 1715
存在感 1715
詐欺行為 1715
賃 1715
を促し 1714
を打つ 1714
レプリカロレックス 1714
妥 1714
性に優れ 1714
指定します 1714
無力 1714
ヴィー 1713
呼ぶ 1713
車輪 1713
造られた 1713
Auth 1712
することを推奨します 1712
ブレード 1712
機材 1712
翻訳者 1712
OEM 1711
world 1711
と思っていました 1711
を築く 1711
強烈な 1711
行うこと 1711
Slack 1710
一人一人 1710
名刺 1710
浮かべ 1710
直接的な 1710
見かけ 1710
賃金 1710
ena 1709
匂い 1709
大阪市 1709
消失 1709
USD 1708
pls 1708
▁経路図マーカーの色は 1708
うどん 1708
ブルーレイ版 1708
尽くす 1708
当たり前 1708
酸性 1708
Opti 1707
▁Classic 1707
を奨励する 1707
を知ること 1707
ポーズ 1707
発効 1707
起ころうとしている 1707
Point 1706
このスマートフォンの 1706
を使ったり 1706
ミッド 1706
下ろし 1706
卓越性 1706
消耗 1706
▁これらのアプリケーションは 1705
をお読みください 1705
バーベキュー 1705
tech 1704
こともできる 1704
についてコメント 1704
インストールすることができます 1704
所持 1704
SSD 1703
オーシャン 1703
カラム 1703
ソ連 1703
プレッシャー 1703
緑豊かな 1703
雌 1703
CNC 1702
URA 1702
いい特徴 1702
磁気圏 1702
が向上し 1701
カブール 1701
ペルー 1701
一人ひとり 1701
写真を撮る 1701
大都市 1701
導かれ 1701
教える 1701
贅沢 1701
部署 1701
降水量 1701
her 1700
ソロス 1700
ッセ 1700
両替 1700
情報提供 1700
方程式 1700
響き 1700
9.0 1699
それを使用 1699
マニア 1699
傷つけ 1699
舟 1699
預言者 1699
▁SAS 1698
受け取っ 1698
商品性 1698
足跡 1698
雑貨 1698
マックス 1697
丼 1697
劇団 1697
小川 1697
頤 1697
1963 1696
David 1696
LR 1696
テクスチャ 1696
リビングルーム 1696
伊勢 1696
網羅 1696
致命的な 1696
ask 1695
ご存知 1695
っぽい 1695
なくなりました 1695
オシレーター 1695
残酷 1695
虐殺 1695
うつ 1694
なかった場合 1694
歪み 1694
環境問題 1694
ヴァル 1693
啓発 1693
新しいバージョン 1693
隆起 1693
6.2 1692
oth 1692
を右クリックして 1692
エロ動画 1692
ミド 1692
祖母 1692
蜂 1692
bol 1691
ector 1691
▁Travel 1691
を取ること 1691
ブラウザの種類 1691
優先順位 1691
共生 1691
補給 1691
GMT 1690
def 1690
▁以下は 1690
ように思えます 1690
を終えた 1690
申告 1690
経営者 1690
輪郭 1690
使った 1689
男子 1689
過酷な 1689
を費やし 1688
を運営し 1688
不十分 1688
容易な 1688
zhu 1687
アジア太平洋 1687
レコーディング 1687
一週間 1687
南西 1687
姫路城 1687
賞品 1687
風水 1687
感想 1686
暮 1686
write 1685
ルータ 1685
斬 1685
選考 1685
Main 1684
SOHO 1684
いたら 1684
を背景に 1684
ドナルド 1684
次いで 1684
軽食 1684
を得ている 1683
エアー 1683
京都市 1683
他方 1683
原則として 1683
簿 1683
舞踊 1683
BY 1682
qi 1682
▁Europe 1682
ことを約束 1682
よかった 1682
作られる 1682
地質 1682
提供されている 1682
Todoist 1681
erforming 1680
を変更すること 1680
ADA 1679
Don 1679
scape 1679
▁パータンタイプ 1679
あまりにも多くの 1679
プランニング 1679
気をつけ 1679
oku 1678
いいね 1678
ていきました 1678
を検出し 1678
ウォル 1678
セントラル 1678
ブラザー 1678
夢中 1678
描く 1678
足りない 1678
務め 1677
回心 1677
微妙な 1677
航路 1677
鈍 1677
ひとつひとつ 1676
べきだ 1676
フォール 1676
プログラムのリストがあります 1676
判明 1676
喉 1676
満ち 1676
特定の種類のデータ 1676
の元で 1675
を取り巻く 1675
歩いている 1675
研究グループ 1675
count 1674
する為に 1674
賞金 1674
願望 1674
8:00 1673
Firefox 1673
fuck 1673
しやすくなります 1673
てはならない 1673
でも数種類の 1673
わが国 1673
を取り扱うように開発され 1673
協力関係 1673
落とす 1673
OUT 1672
が見つかりませんでした 1672
できなくなります 1672
動かす 1672
告白 1672
赤ん坊 1672
進みます 1672
Contact 1671
▁porn 1671
に掲載されます 1671
に関係する 1671
のではないでしょうか 1671
体感 1671
擬 1671
支払い情報 1671
琴 1671
矮 1671
藤原 1671
MAP 1670
adjust 1670
ことができれば 1670
に到着する 1670
を希望する場合は 1670
トラッカー 1670
宇宙飛行士 1670
市販 1670
を参考に 1669
ナトリウム 1669
搬送 1669
禁じられています 1669
話している 1669
ボウ 1668
北東 1668
後押し 1668
錫 1668
降下 1668
ADC 1667
± 1667
▁Holdings 1667
パブ 1667
ユースホステル 1667
働か 1667
愛する人 1667
照らし 1667
秒間 1667
のあり方 1666
を禁じます 1666
グローバル化 1666
合致 1666
Global 1665
に追加する 1665
を帯び 1665
コースト 1665
スクリュー 1665
先進的な 1665
回帰 1665
治安 1665
関係法令 1665
閲覧履歴 1665
飢え 1665
open 1664
verse 1664
を購入し 1664
を起動します 1664
一般大衆 1664
砂浜 1664
鍛 1664
してはならない 1663
どうなる 1663
なければなら 1663
について詳しく 1663
カイン 1663
創世記 1663
十代 1663
栄養素 1663
聴衆 1663
ウェブビーコン 1662
プロダクション 1662
特権 1662
釜山 1662
aj 1661
▁ガーデンと 1661
を務めた 1661
タマネギ 1661
遥 1661
JAVHD 1660
そうでなければ 1660
にて開催 1660
つ星のホテル 1659
を歓迎した 1659
上野 1659
外国語対応 1659
Fire 1658
к 1658
with 1657
チューニング 1657
下げることができます 1657
実験室 1657
立案 1657
CHA 1656
▁本通知は 1656
お召し上がり 1656
オンラインゲーム 1656
トリートメント 1656
バート 1656
年末までに 1656
覚書 1656
を保存したり 1655
付く 1655
出品 1655
を導入する 1654
再生されます 1654
称賛 1654
Forum 1653
を保護するために 1653
宿題 1653
濡れて 1653
費やす 1653
陶磁器 1653
WBSC 1652
分光 1652
可変 1652
対象地域 1652
azz 1651
temp 1651
に言及し 1651
を守るために 1651
イェ 1651
屋上 1651
御霊 1651
となっております 1650
ヒルズ 1650
反応する 1650
大抵 1650
専門学校 1650
瞬 1650
種々の 1650
褒 1650
PRE 1649
▁Cart 1649
ことを目指しています 1649
してくる 1649
アジア太平洋地域 1649
幹細胞 1649
脅迫 1649
運搬 1649
后 1648
岩石 1648
胆 1648
1800 1647
と信じています 1647
はスーパーユーザの 1647
疾病 1647
▁Canon 1646
プレミア 1646
国産 1646
実質的に 1646
日本国総領事館 1646
湿気 1646
相対的な 1646
知性 1646
Build 1645
Works 1645
に身を 1645
より大きい 1645
上手く 1645
寄贈 1645
木星 1645
Zoom 1644
今日まで 1644
保たれ 1644
工作 1644
聴覚 1644
自衛隊 1644
顧 1644
kHz 1643
ref 1643
を理解すること 1643
アクセント 1643
イスラム教 1643
測定値 1643
間もなく 1643
コロラド 1642
メンバーシップ 1642
優雅な 1642
rec 1641
▁当社では 1641
お客様が弊社 1641
を活用します 1641
キャプテン 1641
一言 1641
遺伝学 1641
釣 1641
高速化 1641
ニクス 1640
メディ 1640
付けられた 1640
潰 1640
謙 1640
ward 1639
に関与し 1639
らせた 1639
を活かした 1639
世界観 1639
ku 1638
▁文書による 1638
あきらめ 1638
そこにある 1638
オーガナイザー 1638
必要とされ 1638
時計職人 1638
に留意し 1637
カリキュラム 1637
サーフィン 1637
同軸 1637
國 1637
圧延 1637
身に着け 1637
6,000 1636
CNN 1636
General 1636
▁担当部署 1636
スマホ 1636
売り手 1636
汽 1636
に会い 1635
イヤリング 1635
占領 1635
尽力 1635
度目の 1635
弾性 1635
食い 1635
餅 1635
Oracle 1634
zu 1634
▁Award 1634
ことを示している 1633
に関わらず 1633
よいでしょう 1633
を作成しました 1633
バレエ 1633
負債 1633
의 1633
▁相談時 1632
ことを可能にし 1632
する義務があります 1632
ズボン 1632
リージョン 1632
明らかです 1632
書いている 1632
KY 1631
Na 1631
iya 1631
アミノ酸 1631
ミナ 1631
拌 1631
来るべき 1631
知能 1631
ification 1630
▁連絡先電話番号 1630
☆ 1630
ドゥー 1630
バスケットボール 1630
三十 1630
広告キャンペーン 1630
1972 1629
▁組織名称 1629
を会計検査を 1629
を検出する 1629
東海 1629
栃 1629
je 1628
が見つかりました 1628
のパス 1628
ギリシャ人 1628
バイパス 1628
万台 1628
使えるということです 1628
宣伝するため 1628
相談可能な 1628
霜 1628
韓国人 1628
を使用してオンライン 1627
夜景 1627
本革 1627
被災 1627
Electr 1626
ious 1626
を証明する 1626
ランタン 1626
ラント 1626
免責 1626
取り付けられ 1626
を受けること 1625
を試して 1625
トランク 1625
世界最高 1625
和解 1625
待た 1625
豊臣秀吉 1625
1930 1624
long 1624
ショッピングモール 1624
マリーナ 1624
事業展開 1624
光栄 1624
建てられました 1624
槽 1624
立っています 1624
給与 1624
絵文字 1624
老舗 1624
著しい 1624
と組み合わせる 1623
ロバート 1623
濁 1623
裂け目 1623
にチェックを入れ 1622
ソング 1622
冗談 1622
合わない 1622
新しい強制セックスサイト 1622
Ha 1621
に渡って 1621
を挿入することが出来 1621
ファンタジー 1621
僅か 1621
周波数帯域 1621
獅子 1621
私の人生 1621
育ち 1621
道に沿って 1621
音色 1621
ima 1620
戦闘機 1620
抑圧 1620
推し進め 1620
IRC 1619
から両方を 1619
についてはこちらをご覧ください 1619
る場合があります 1619
から始まる 1618
がたくさんあります 1618
アジェンダ 1618
カード二枚 1618
信じられないほど 1618
救急 1618
Ref 1617
cia 1617
igu 1617
▁Suite 1617
お客様のウェブサイト 1617
傾け 1617
出生 1617
同じ携帯 1617
所蔵 1617
泳ぐ 1617
税務 1617
輸 1617
ビック 1616
メルボルン 1616
基本的 1616
0.8 1615
だよ 1615
を持っていません 1615
あう 1614
お願い申し上げます 1614
を支配する 1614
低地 1614
童 1614
鈴 1614
▁Room 1613
てほしい 1613
に気づいて 1613
ゲット 1613
プログラマ 1613
世論調査 1613
予告なく変更 1613
包み 1613
子さん 1613
最善 1613
粋 1613
▁今日では 1612
カニ 1612
人員 1612
今朝 1612
嬉しく 1612
ために使用される 1611
めったに 1611
をお探しですか 1611
アダルトサイト 1611
グリップ 1611
スリム 1611
ダイエット 1611
再発 1611
劇的に 1611
強固な 1611
根本的な 1611
海水面 1611
願って 1611
Int 1610
Level 1610
カットオフ 1610
フュー 1610
借金 1610
連動 1610
CHE 1609
ふたり 1609
アウトカメラ 1609
アレイ 1609
ホテル予約 1609
指摘した 1609
ó 1608
を準備する 1608
ショウ 1608
勇 1608
安定化 1608
旅程 1608
最高級 1608
骸 1608
ぼう 1607
ファイナンス 1607
締 1607
Kit 1606
ender 1606
oni 1606
巡回 1606
挙げられ 1606
東大 1606
獄 1606
祠 1606
飲食店 1606
わせる 1605
ステーキ 1605
供養 1605
夫人 1605
所定の 1605
拍子 1605
選ばれました 1605
お気軽にお問合せください 1604
信託 1604
Library 1603
をトラッキングし 1603
ファイアウォール 1603
併せて 1603
見つからない 1603
exp 1602
▁Sar 1602
アクセスできます 1602
ニュートリノ 1602
出版社 1602
動揺 1602
土台 1602
省エネルギー 1602
艦隊 1602
鉄道駅 1602
顧客層 1602
は必要ありません 1601
アデン 1601
改定 1601
発光 1601
神秘 1601
CAM 1600
というのも 1600
を目指しています 1600
サタン 1600
大胆 1600
日曜 1600
軸受 1600
8000 1599
ANA 1599
どの程度 1599
アイスクリーム 1599
カバーアップ 1599
破産 1599
象徴的な 1599
Create 1598
と思われます 1598
入出力 1598
各自 1598
に埋め込むことができます 1597
チャーター 1597
トラブルシューティング 1597
パレード 1597
ブラー 1597
不可欠である 1597
作成される 1597
初日 1597
ステイ 1596
下がり 1596
法務 1596
異星人の存在 1596
軌 1596
Zip 1595
▁サードパーティー 1595
シャンプー 1595
マイクロ波 1595
個人情報へのアクセス 1595
可能な言語 1595
注記 1595
異なっている 1595
設立した 1595
の全ホテル 1594
バスタブ 1594
審査員 1594
干ばつ 1594
捜査 1594
積み重ね 1594
自分達 1594
8.5 1593
から構成され 1593
ってしまった 1593
写真撮影 1593
参拝 1593
大地 1593
操り人形マスター 1593
▁House 1592
エコノミー 1592
寝室 1592
構造物 1592
段落 1592
PVD 1591
roll 1591
▁Archives 1591
を楽しむこと 1591
を見ながら 1591
アニ 1591
ブラウザーの設定を変更 1591
先祖 1591
所要時間 1591
握り 1591
枕 1591
比類のない 1591
重ね 1591
音質 1591
Local 1590
▁Institute 1590
▁もしあなたが 1590
▁ルース 1590
お問合せ 1590
に従うこと 1590
ひろ 1590
アサド 1590
タカ 1590
八幡 1590
大地震 1590
有名人 1590
混沌 1590
湾曲 1590
笠 1590
JO 1589
source 1589
を含んだ 1589
を扱っ 1589
コンベンション 1589
シリアル番号 1589
明らかになった 1589
月下旬 1589
答える 1589
農地 1589
house 1588
play 1588
つつあります 1588
を抑制する 1588
ァ 1588
グランプリ 1588
バトル 1588
bb 1587
オリーブオイル 1587
選択できます 1587
0.9 1586
折れ 1586
爽 1586
選んで 1586
email 1585
nippon 1585
やってきた 1585
カザフスタン 1585
スペクトラム 1585
ワークアウト 1585
孤立 1585
ves 1584
▁MATCHA 1584
は以下の通りです 1584
を供給する 1584
去った 1584
index 1583
matic 1583
と考えられます 1583
ジューシー 1583
審判 1583
少々 1583
水晶 1583
メディアタイプ 1582
功績 1582
盆栽 1582
籍 1582
背の高い 1582
ということだ 1581
を確保し 1581
アダプター 1581
ドメイン名 1581
生きた 1581
Mackerel 1580
ばん 1580
エネルギー効率 1580
テキサス州 1580
トリプル 1580
迷惑行為 1580
なぜなら 1579
を操作する 1579
ジャム 1579
ロッカー 1579
初期設定 1579
参照元 1579
形成される 1579
必要なもの 1579
控えめ 1579
減少する 1579
bre 1578
iro 1578
′ 1578
の格安レンタカー 1578
カリウム 1578
偽造 1578
否定的な 1578
問題解決 1578
始動 1578
摘 1578
随時 1578
を含んで 1577
アンティーク 1577
剖 1577
鉄鋼 1577
shop 1576
これだけ 1576
ぶどう 1576
ように設計されています 1576
アフター 1576
エンコード 1576
コレ 1576
スタディ 1576
フェニックス 1576
綺麗 1576
MON 1575
お迎え 1575
キャンディス 1575
デジタル資産 1575
ボタンを押す 1575
姓 1575
発揮 1575
繰り広げ 1575
製品やサービス 1575
Action 1574
▁MPM 1574
いちばん 1574
ウェディング 1574
厚み 1574
問題の解決 1574
怒る 1574
物品 1574
観点 1574
静的 1574
鳴り 1574
1969 1573
5.00 1573
ORI 1573
だけではありません 1573
ベール 1573
圧倒的な 1573
易い 1573
渡される 1573
源泉 1573
製品またはサービス 1573
▁インカメラ 1572
ないであろう 1572
エコシステム 1572
商工会議所 1572
大部分が 1572
小学生 1572
ello 1571
mini 1571
▁Reports 1571
かも知れない 1571
プッシュ通知 1571
叶え 1571
掩蔽壕 1571
いませんでした 1570
の一つであり 1570
ゼニス 1570
タイムズ 1570
パーム 1570
演技 1570
発見されました 1570
— 1569
ご注文をいただいてから 1569
エステ 1569
4.3 1568
と題し 1568
学期 1568
最低限 1568
踊 1568
とくに 1567
ガリ 1567
予防接種 1567
惜し 1567
デイトジャスト 1566
ボブ 1566
折りたたみ 1566
良いでしょう 1566
郵 1566
Poly 1565
ことを望んで 1565
アリーナ 1565
ルート権 1565
喧 1565
差分 1565
示される 1565
apache 1564
その時点で 1564
スケッチ 1564
傷害 1564
共有することがあります 1564
合理的 1564
特異的 1564
銅合金 1564
震え 1564
NV 1563
Right 1563
ful 1563
づく 1563
を込めて 1563
コネクション 1563
且つ 1563
増進 1563
ぽ 1562
呂 1562
強盗 1562
教科書 1562
知られて 1562
翔 1562
を持たせ 1561
サービスを保証します 1561
総合的 1561
Vungle 1560
が示すように 1560
アパレル 1560
凸 1560
最長 1560
1975 1559
sys 1559
倒れ 1559
愉 1559
抜群 1559
縫 1559
運輸 1559
1973 1558
3.4 1558
microSD 1558
にリンクされている 1558
もらいたい 1558
をコントロールする 1558
尖 1557
明瞭 1557
更 1557
植えられ 1557
総裁 1557
行っており 1557
burg 1556
入居 1556
必要はない 1556
恩恵を受け 1556
even 1555
ポーター 1555
多種多様な 1555
待っている 1555
飲食 1555
1968 1554
Block 1554
head 1554
の生産となります 1554
を確認するには 1554
を追加するには 1554
クーラー 1554
コンステレーション 1554
可愛い 1554
流量 1554
macOS 1553
ウェブサイトの一部 1553
ピエ 1553
地下水 1553
招聘 1553
ular 1552
このような状況 1552
アマゾン 1552
コードパッド 1552
取り揃え 1552
忘れられない 1552
概観 1552
沈む 1552
磁界 1552
▁Germany 1551
とどまる 1551
に乗った 1551
を予約する 1551
アニー 1551
ダニ 1551
丘の上 1551
輝いて 1551
action 1550
▁(4) 1550
▁Wide 1550
個々 1550
在庫が無い場合は 1550
放棄された 1550
Order 1549
htaccess 1549
▁USER 1549
をカバーする 1549
を選択すること 1549
フォームに記入してください 1549
先物 1549
公認 1549
取扱注意点 1549
が必要になる 1548
ウォーキング 1548
不幸 1548
使用する場合があります 1548
滞在中 1548
食べること 1548
ELL 1547
はずだ 1547
を作成するために 1547
中身 1547
油田 1547
許可していません 1547
アサ 1546
カモ 1546
メリ 1546
作曲 1546
大阪府 1546
小林 1546
弥 1546
治療薬 1546
治癒 1546
NR 1545
ご利用いただける 1545
クレイ 1545
トランスミッション 1545
作成日時 1545
僕ら 1545
1977 1544
ECT 1544
change 1544
ocket 1544
▁Ki 1544
の温度が予想 1544
モスク 1544
経口 1544
過ぎた 1544
決める 1543
磁性 1543
竣工 1543
舐め 1543
▁個人情報の取り扱いに 1542
ことに注意 1542
やりたい 1542
を持っていて 1542
仕上がり 1542
手のひら 1542
潜在意識 1542
私ども 1542
込ま 1542
配置されます 1542
電線 1542
build 1541
ボーン 1541
ユーザーエージェント 1541
ランニング 1541
成功を収め 1541
植生 1541
高分子 1541
Display 1540
eu 1540
▁SITE 1540
を思い出し 1540
コスモ 1540
場合もある 1540
破棄 1540
alt 1539
lab 1539
なるべく 1539
に示すように 1539
を遵守し 1539
保湿 1539
全面的に 1539
染色 1539
▁三鷹国際交流協会 1538
システムであります 1538
デバイス設定 1538
告知 1538
豪雨 1538
近代化 1538
遺物 1538
Error 1537
に応える 1537
工科大学 1537
揃って 1537
茂み 1537
CAP 1536
system 1536
wrapper 1536
浮遊 1536
製法 1536
賛美 1536
rat 1535
の改善に向けた 1535
よろ 1535
確定した 1535
絆 1535
老化 1535
PLC 1534
が搭載され 1534
べきではない 1534
を追加しました 1534
含有量 1534
簡潔 1534
資材 1534
通信販売 1534
DATA 1533
んですけど 1533
サインアップ 1533
スマートフォンからでも 1533
事象 1533
描 1533
逃れ 1533
android 1532
▁NIPPON 1532
が得られます 1532
ご意見 1532
させていただきますので 1532
と考えます 1532
発見され 1532
観光名所 1532
追放 1532
を与えている 1531
火事 1531
知らず 1531
聞きました 1531
を修復する 1530
心地よい 1530
経歴 1530
詳細はこちら 1530
DU 1529
commerce 1529
ネスト 1529
リハビリ 1529
向けのゲームを 1529
戯曲 1529
突入 1529
Free 1528
NEW 1528
right 1528
〇 1528
お客様をサポート 1528
など様々なプラットフォーム 1528
にかかわる 1528
中学校 1528
Chain 1527
▁sex 1527
▁これに対する 1527
が出席し 1527
低解像度の画像 1527
慢 1527
新幹線 1527
郭 1527
MY 1526
uni 1526
ドック 1526
不便 1526
厚く 1526
受け継がれ 1526
突破 1526
簡単に制作 1526
適当な 1526
閉じた 1526
Ban 1525
もゲームクリエイター 1525
を接続し 1525
を見てみましょう 1525
を通して行われ 1525
アドベンチャー 1525
伸縮 1525
参考になります 1525
環境省 1525
美食 1525
豊かで 1525
閲覧情報 1525
ICC 1524
MixConsole 1524
VAT 1524
server 1524
または当サイトの 1524
サンゴ 1524
揃 1524
目の前で 1524
ERS 1523
MIT 1523
dev 1523
emo 1523
を知らせる 1523
を調整する 1523
ネック 1523
全土 1523
出店 1523
数千人 1523
業種 1523
点がある場合 1523
神経系 1523
緒 1523
が特徴です 1522
に特権を 1522
ルーヴル 1522
増加しています 1522
臓器 1522
虐待 1522
論じ 1522
AIMR 1521
を埋める 1521
ジェンダー 1521
医療機器 1521
機械的な 1521
沸 1521
行目 1521
いただきたい 1520
インターネット上で 1520
グローブ 1520
対策を講じています 1520
桂 1520
を今しなさい 1519
アイロン 1519
サーチ 1519
以下の目的で 1519
定住 1519
広告目的で 1519
申し立てることができます 1519
航空宇宙 1519
ITE 1518
ROM 1518
ova 1518
▁Embassy 1518
を変えた 1518
インフレ 1518
チェンマイ 1518
ナポリ 1518
有限 1518
立派な 1518
記事を送信してください 1518
開け放た 1518
騰 1518
DOC 1517
len 1517
▁Documentation 1517
▁prav 1517
▁この目的で 1517
を実現しています 1517
ブレー 1517
広告の効果 1517
本利用規約 1517
狩猟 1517
申し上げ 1517
登録の必要なし 1517
負帰還 1517
びっくり 1516
まれな 1516
半袖 1516
疑惑 1516
補充 1516
記事を追加して 1516
雲南省 1516
▁GNU 1515
▁Home 1515
うれしい 1515
つかない 1515
ピクセルの画像 1515
レザーストラップ 1515
域内 1515
妃 1515
宰 1515
屏 1515
支払い方法 1515
滋 1515
閲覧ページ 1515
馳 1515
を実施しました 1514
を無効にする 1514
微小 1514
此 1514
相応 1514
Office 1513
Preferences 1513
▁使用目的 1513
一晩 1513
居酒屋 1513
経緯 1513
霊的 1513
4.4 1512
▁Notes 1512
などがありましたら 1512
オペレーター 1512
プロデュース 1512
人気があります 1512
実のところ 1512
暑さ 1512
極端 1512
法廷 1512
誕生日プレゼント 1512
逆転 1512
▁ホビーサーチ 1511
▁情報の共有 1511
つ目は 1511
を訪ね 1511
ペテロ 1511
事務総長 1511
取得した個人情報は 1511
慣行 1511
荒れ 1511
願います 1511
13:00 1510
▁Taiwan 1510
ともいいます 1510
摩 1510
漁師 1510
るようになるツール 1509
サービスの利用に関する 1509
モバイルデバイス 1509
調印 1509
iga 1508
run 1508
おしゃれ 1508
ように見えた 1508
を設立しました 1508
外見 1508
物資 1508
福島県 1508
date 1507
ville 1507
どうしても 1507
ウェブページや 1507
ブレーク 1507
在籍 1507
★ 1506
といわれる 1506
に戻った 1506
定められ 1506
富山 1506
差異 1506
Benchmark 1505
に分けられ 1505
Delete 1504
カーペット 1504
ファル 1504
坪 1504
裁判官 1504
身近な 1504
開幕 1504
お腹 1503
を含むその他 1503
イースト 1503
チャージ 1503
戦略的な 1503
斜め 1503
納期 1503
▁このスマートフォンは 1502
▁対応可能競技 1502
互換 1502
今夜 1502
心理 1502
重要な要素 1502
電解 1502
Account 1501
xxx 1501
ボンド 1501
以下に記載する 1501
敬愛する最高指導者 1501
発熱 1501
碑文 1501
SEO 1500
▁情報提供サービス 1500
を得ました 1500
を観察し 1500
スカート 1500
フリーウェア 1500
対象者 1500
DIY 1499
bon 1499
お客様のコンピューターに 1499
に直面して 1499
アクセス制御 1499
示している 1499
説明会 1499
7.0 1498
Shu 1498
print 1498
アロマ 1498
アンタルヤ 1498
ハンマー 1498
パンフレット 1498
力強い 1498
急激に 1498
読み取る場合 1498
長い歴史 1498
ZO 1497
▁Mitaka 1497
飢餓 1497
Device 1496
不正な 1496
共鳴 1496
格差 1496
要求できます 1496
賠償 1496
€4 1495
その他の情報 1495
阪 1495
集合体 1495
lyrics 1494
€6 1494
▁HOsPitality 1494
▁の解像度を含ん 1494
ことを認識し 1494
と入力し 1494
ブラインド 1494
唱 1494
WHO 1493
はより長く 1493
めん 1493
を引き出す 1493
コモ 1493
炊 1493
認します 1493
魚介類 1493
Samsung 1492
ご利用の端末 1492
てみてください 1492
の場合と同様に 1492
ウェブサイトを訪問した際に 1492
レポートを作成すること 1492
伝道 1492
含ま 1492
定期的にご確認ください 1492
Yext 1491
アポロ 1491
パナマ 1491
直射日光 1491
行う場合があります 1491
▁デジタルセキュリティマガジン 1490
価値があります 1490
年を超えない 1490
機械学習 1490
Mozilla 1489
に依存します 1489
ネットワーキング 1489
両社 1489
冥 1489
広域 1489
▁保持する 1488
への移行 1488
サービスプロバイダーなど 1488
ダイアル 1488
ドゥーフェンシュマーツ 1488
丈夫 1488
丸紅 1488
夕暮れ 1488
産生 1488
1/3 1487
aud 1487
iki 1487
とは別に 1487
を得ることができる 1487
を把握する 1487
を拒否するか 1487
プロダクトの開発 1487
マスタ 1487
戻ってくる 1487
消滅 1487
烈な 1487
遷移 1487
Basic 1486
ご不明点がある場合 1486
ささげ 1486
されるべきである 1486
を実行している 1486
インジケータ 1486
ブラウザのバージョン 1486
ブラウザーを閉じて 1486
予約者 1486
分解能 1486
移調 1486
裁量 1486
高周波 1486
ONG 1485
PORT 1485
をお願いする場合 1485
チームメンバー 1485
多目的 1485
天文台 1485
彩色 1485
貴族 1485
お客様が当サイトを利用 1484
プリンス 1484
マイナー 1484
先ほど 1484
取り消し 1484
売却したり 1484
極東 1484
話し合い 1484
を超える場合があります 1483
インターンシップ 1483
作られている 1483
千万 1483
怖い 1483
に基づく権利の行使 1482
をいつでも取り 1482
ブレイク 1482
ログ情報 1482
優位 1482
刈 1482
律法 1482
日帰り 1482
明け 1482
目的にのみ 1482
社会主義 1482
膏 1482
オフィスにて 1481
コンテンツの提供 1481
体力 1481
新北市 1481
昼間 1481
溜 1481
▁Du 1480
お客様による当サイトの利用 1480
を削除することも可能 1480
を発行する際に 1480
インターン 1480
クッキーの使用 1480
メディカル 1480
Length 1479
が例外的に 1479
ウェルネス 1479
ウサギ 1479
エコー 1479
バジェットレンタカー 1479
地球変化 1479
戦場 1479
登録されている 1479
選挙運動 1479
随時改訂される 1479
Friend 1478
▁これらの目的 1478
▁情報の取得 1478
の利用状況を分析し 1478
も含めて 1478
よう目指してい 1478
を施した 1478
パフォーマンスの分析 1478
乙 1478
拡 1478
湿地 1478
▁ピクセルタグ 1477
することもありません 1477
も自動的に削除され 1477
メルマガなど 1477
告発 1477
派生 1477
浮上 1477
電子ファイルで 1477
1.7 1476
7000 1476
OIMI 1476
▁イベントカレンダー 1476
いつでも異議を 1476
を希望しない場合 1476
サラウンド 1476
パワフル 1476
下流 1476
以下の用途で使 1476
分ほど 1476
初代 1476
左下 1476
溶融 1476
色々 1476
smart 1475
▁セキュリティ目的 1475
からのイタリアの 1475
のほとんどが 1475
トピックス 1475
巨人 1475
撤 1475
水質 1475
著作権所有 1475
藍 1475
頂きました 1475
お使いの端末から 1474
ご利用中の端末 1474
の管轄当局に 1474
を経験する 1474
シアトル 1474
事前に許可を得 1474
本尊 1474
▁カナリア諸島の 1473
▁当サイトの提供 1473
お客様の使用 1473
に関する調査など 1473
のファームウェアは 1473
タール 1473
ドラフト 1473
ネオプレン 1473
マグロ 1473
一次 1473
引く 1473
肢 1473
言っています 1473
95% 1472
UNIDO 1472
お客様が弊社サイトを訪問した際に 1472
ついてお問い合わせいただく 1472
などの必要不可欠な 1472
をこの目的で使用する 1472
コンテンポラリー 1472
ユーザーエクスペリエンスや 1472
下図の 1472
使われることについては 1472
労働組合 1472
動などの分析 1472
周回 1472
市場の細分化 1472
市場セグメントや 1472
機能が正常に動作しない可能性 1472
浩 1472
発行する第三者 1472
目的で使用するのは 1472
研究の結果を 1472
第三者に発 1472
舞台芸術 1472
訪問者のハードドライブに保存され 1472
貸し出したりすることは 1472
返答 1472
FPGA 1471
▁€7 1471
お客様が当サイトを訪問 1471
するかを確認するように 1471
で取得する情報 1471
にそれを許可 1471
の発行を許可する 1471
を使って自動的に情報を 1471
インライン 1471
ブラウザーに送信される小さな 1471
向上を図るうえで 1471
弊社に代わって活動する 1471
当サイトの品質 1471
簡素化 1471
蜂蜜 1471
電子情報で 1471
▁Hi 1470
る際のメール 1470
期間についてご質問 1470
行を許可した 1470
詐欺行為の検出 1470
の完了と 1469
アーク 1469
バクテリア 1469
下痢 1469
Load 1468
▁Bla 1468
おられる 1468
こども 1468
または本通知 1468
個人情報の取り扱いについてご質問 1468
錬 1468
お客さん 1467
を統合し 1467
スパーク 1467
ドリフト 1467
ワール 1467
今年度 1467
個人情報の取得に 1467
入院 1467
唐辛子 1467
捨てられ 1467
掲示 1467
標 1467
腺 1467
辛い 1467
部族 1467
駅前 1467
その他の連絡 1466
不適切 1466
亘 1466
伝わる 1466
個人情報を使用して 1466
掴 1466
有効になります 1466
16:00 1465
ェ 1465
クレイジー 1465
バリ島 1465
下降 1465
鴨 1465
Child 1464
サムネイル 1464
スーパーマーケット 1464
商店 1464
救援 1464
銀行口座 1464
MOVIES 1463
▁Men 1463
からキプロス 1463
する個人情報は 1463
を抑える 1463
フェラーリ 1463
ホリデーカー 1463
周年を迎え 1463
奇妙 1463
廊 1463
思いやり 1463
ified 1462
pass 1462
からのスペイン 1462
からプレステージ 1462
に重要な影響を及ぼす 1462
のレンタカーの比較 1462
オペレータ 1462
律 1462
憂 1462
最も安いレンタカー 1462
点滅 1462
積雪 1462
自動運転 1462
からのポルトガル 1461
での予算の 1461
と共有することで 1461
ぴったり 1461
カタール 1461
スポーツカーのレンタル 1461
ヴェン 1461
到着前の 1461
本ウェブサイトに掲載されている 1461
目に見える 1461
総重量 1461
証券取引所 1461
エレガンス 1460
抗生物質 1460
擦 1460
百万円 1460
読み込まれ 1460
14:00 1459
kan 1459
ここをクリックしてください 1459
を登録し 1459
セーフティ 1459
己 1459
ひら 1458
ウィリアム 1458
分析業務 1458
勝者 1458
罪人 1458
CAT 1457
▁Company 1457
を取り囲む 1457
コツ 1457
勅 1457
故宮の 1457
辺り 1457
ato 1456
不当 1456
婦人 1456
心がけております 1456
鄭 1456
非常に重要です 1456
BBC 1455
help 1455
▁投稿された 1455
が何であるか 1455
に資する 1455
を表明した 1455
サーフェス 1455
作成されました 1455
機関車 1455
MaxClients 1454
で動きますが 1454
なければなりませんでした 1454
まったく同じ 1454
スペル 1454
上層 1454
FILE 1453
▁この情報には 1453
より低い 1453
Chord 1452
みられる 1452
新しいバージョンに更新され 1452
津軽びいどろ 1452
洗練 1451
てもよい 1450
ほん 1450
トレーナー 1450
墓地 1450
平方 1450
特定の状況において 1450
目立つ 1450
続けること 1450
順位 1450
DIS 1449
してほしい 1449
んですね 1449
先住民 1449
賓 1449
kai 1448
rsquo 1448
お客様の個人データは 1448
によって引き起こされる 1448
フレキソ印刷 1448
モンド 1448
具合 1448
大勢の 1448
深海 1448
990 1447
Safe 1447
することを決定 1447
ヴォー 1447
客観的 1447
害虫 1447
浙 1447
祭壇 1447
見本市 1447
親戚 1447
配達時間 1447
ough 1446
に頼る 1446
の同意を求め 1446
デジタルカメラ 1446
ドキュメンタリー映画 1446
ドリーム 1446
レバノン 1446
人への手紙第 1446
人間の介入 1446
Message 1445
case 1445
の良さ 1445
辿 1445
MUSIC 1444
Nuendo 1444
が完了すると 1444
の密接な 1444
を促進するために 1444
セーフ 1444
失業 1444
校正 1444
IEEE 1443
support 1443
こちらをご覧ください 1443
ことのできない 1443
しておらず 1443
を表明し 1443
タイガー 1443
ていった 1442
になれる 1442
プレイリスト 1442
ユーザーの同意を得 1442
レオナルド 1442
レクチャー 1442
商船三井 1442
穂 1442
繋がる 1442
陽光 1442
を調べた 1441
何処 1441
刑事 1441
旅行関連の 1441
本プライバシーポリシーに記載され 1441
総面積 1441
駒 1441
1.00 1440
JSON 1440
が保存され 1440
に中心街にあるホテル 1440
に囲まれて 1440
を発生させ 1440
メルセデス 1440
ユーザーに提供するため 1440
飼料 1440
▁活動予定 1439
ご本人 1439
のなかに 1439
を増し 1439
を有している 1439
保安 1439
凹 1439
加算 1439
庁舎 1439
知られていない 1439
考古学者 1439
行進 1439
被害を受け 1439
ISE 1438
スリップ 1438
マヤ 1438
夏の住居 1438
昔ながらの 1438
食べられ 1438
しようとします 1437
個人情報を保持します 1437
汝 1437
管理目的 1437
コスト削減 1436
デュシタニ 1436
家の植物 1436
浴室 1436
漂流 1436
規制当局 1436
鉛筆 1436
食べられる 1436
IGHT 1435
cor 1435
▁WPS 1435
ビルディング 1435
心理的 1435
燃費 1435
AWS 1434
ZIP 1434
▁法的根拠 1434
ご不明な点がある場合は 1434
を作成することができます 1434
を見下ろす 1434
ビジネスモデル 1434
散乱 1434
満足度 1434
犯罪者 1434
終え 1434
▁FROM 1433
すべての個人情報は 1433
素晴らしい評判を得ているされてい 1433
Test 1432
WTO 1432
とも共有され 1432
ステータスレポート 1432
ダイカスト 1432
予約を完了し 1432
個人情報への不正なアクセス 1432
品質を持って 1432
地方自治体 1432
建築様式 1432
検出および防止 1432
等しく 1432
Author 1431
San 1431
と名付け 1431
を保持します 1431
を順守するため 1431
余分 1431
個人情報を提供します 1431
継ぐ 1431
wan 1430
▁Framework 1430
▁セキュリティについて 1430
やり直す必要がなくなるため 1430
アライアンス 1430
受験 1430
必要なときにすぐ 1430
이 1430
▁+82- 1429
▁Setup 1429
スンダ 1429
リスク評価と 1429
リバースエンジニアリング 1429
予約手続きを 1429
偶 1429
改善を行うため 1429
▁Technologies 1428
▁第三者のサービスプロバイダー 1428
によって制約され 1428
の権限がある 1428
ブラント 1428
申請者 1428
進んだ 1428
電荷 1428
鳳 1428
EPC 1427
module 1427
いかなる当事者 1427
および公益 1427
やり取り 1427
を制御します 1427
を記述する 1427
コミュニケーションなどの 1427
法的目的 1427
美しい景色 1427
胎児 1427
重ねて 1427
関しては 1427
高層ビル 1427
QSFP 1426
されることはありません 1426
のウェブサイトを使用する際 1426
またはその他の不正 1426
を保有し 1426
を挿入する 1426
レクリエーション 1426
手首 1426
水準を満たし 1426
篇 1426
連鎖 1426
ister 1425
ことを明らかにし 1425
予約確認メール 1425
大胆な 1425
廷 1425
狩り 1425
8.0 1424
OKI 1424
dataprotection 1424
▁ダイレクトマーケティング 1424
▁個人情報の使用目的 1424
お客様に個人情報 1424
に定期的にアクセス 1424
の転送には 1424
を見つけました 1424
セール 1424
ユーザーに管理 1424
地球上で 1424
当施設と 1424
第三者に委託する場合があります 1424
複雑さ 1424
要求に準拠 1424
Cisco 1423
SAR 1423
▁当施設が使用 1423
ことを目的としています 1423
のに十分 1423
のサービスプロバイダーは機密 1423
ジャワ 1423
バット 1423
マーケティング活動に使用し 1423
上の個人情報へのアクセスや使用に 1423
他の者達 1423
大きくなる 1423
情報を自動的に収集します 1423
物理的な制限やセキュリティ対策を 1423
自分に合った宿泊施設を 1423
[...]
