▁the 11118467
, 9591548
. 8986627
▁of 5498881
▁and 5257764
▁to 5201601
▁a 3625259
s 3479205
▁in 3451708
▁is 2648701
▁for 1857800
- 1733865
▁that 1603103
▁with 1560473
▁you 1491103
▁on 1300237
▁The 1282276
' 1255547
▁are 1193556
▁as 1167817
▁be 1132470
▁it 994732
: 964999
▁( 945438
▁from 934557
▁or 928516
▁ 927539
▁by 898727
▁can 877083
▁this 874189
▁will 831085
▁I 810403
▁not 800526
▁your 780673
▁" 773042
▁at 731479
▁have 692914
) 671863
▁was 647805
▁an 578843
▁- 547899
ing 530474
▁has 501728
▁we 489329
▁which 479829
ed 466747
▁our 437669
t 437389
" 428527
▁In 427904
▁also 423374
▁all 420376
▁We 418450
▁use 405984
▁This 375800
▁A 375508
▁but 365796
d 363715
▁their 358191
▁more 345780
▁file 342665
▁time 341839
? 341181
▁one 337431
▁other 315301
▁It 314524
▁about 308133
▁they 299946
▁any 289181
▁its 286600
▁so 280876
▁If 272452
▁when 272330
▁do 269981
▁there 262790
▁may 261862
▁: 261388
▁if 252846
▁new 251623
▁data 249726
▁information 248250
▁been 247463
! 247359
▁up 246111
▁only 244479
▁such 242762
/ 236341
▁who 233644
▁into 227868
▁Japan 224712
▁out 222707
S 217465
ly 213607
▁people 212446
▁You 212200
▁his 211822
er 211728
e 211180
▁were 200667
▁he 200416
▁these 199379
▁system 195808
▁used 194076
▁than 192290
▁them 191306
▁like 190841
▁world 189575
▁us 186016
▁first 182990
▁no 182751
). 181478
▁well 180517
; 179328
▁very 177759
▁– 177517
▁most 176995
▁my 175799
y 174265
▁should 173690
▁after 173288
▁would 172699
▁make 170686
▁. 169292
▁many 169014
▁years 168023
▁over 166896
▁had 166623
▁what 165669
▁some 165553
m 164830
▁where 162275
▁through 160397
▁site 160292
a 156180
al 154421
▁then 153973
▁S 153243
▁using 152493
▁see 152392
in 151595
re 150066
▁two 149843
▁different 147548
▁To 147248
▁[ 147097
th 145913
▁now 143751
▁files 142929
▁how 141997
▁3 141528
▁want 141457
▁For 141064
▁find 140095
▁even 138698
▁high 138072
), 138045
▁Japanese 137101
▁her 136319
] 134473
com 133734
▁part 131833
▁work 131766
▁1 131317
▁open 130308
▁way 130146
▁each 129897
▁services 129824
▁number 128701
▁need 127865
▁Rome 125229
▁get 125051
▁products 124528
▁/ 124384
▁order 123022
i 122587
C 122392
or 122120
▁2 121851
▁page 121473
▁between 121381
D 120923
▁made 120323
▁set 120313
▁just 120187
o 118799
▁same 118365
▁year 118270
r 117689
▁service 117119
▁name 116346
▁including 116062
g 115573
▁go 115235
▁place 115176
▁water 115047
▁me 114194
▁extension 114064
▁because 114047
es 113872
▁download 113666
▁personal 113183
▁around 113099
▁best 112537
A 112380
▁available 111819
▁When 111105
▁As 110707
▁car 109555
▁C 109349
▁before 109279
▁take 108631
▁help 107897
▁How 107604
▁under 107583
▁right 106831
to 106746
▁No 106459
▁does 105855
▁during 105571
▁day 105180
▁those 105066
▁here 103712
▁All 103691
▁good 103333
▁' 103229
▁change 102522
". 102141
2 101464
n 101391
▁being 101269
▁support 100101
▁still 100014
▁back 99973
▁B 99835
▁re 99176
▁There 99051
▁free 97940
▁quality 97716
▁& 97696
▁must 97450
▁long 97170
▁business 97161
▁without 96138
▁5 95828
c 95602
▁could 94693
▁He 94133
▁10 93773
▁video 93718
▁case 93618
▁provide 93613
▁image 93116
▁user 92850
▁computer 92775
▁own 92753
▁However 91654
▁life 91572
▁E 91382
_ 90945
▁area 90912
▁problem 89730
▁Please 89515
▁while 89502
▁But 89221
▁special 89069
▁days 88875
▁said 88269
▁On 87704
▁company 87632
F 87392
▁experience 86286
G 85928
▁And 85780
▁know 85694
The 85010
▁website 84734
▁contact 84224
▁please 84033
▁old 83089
▁last 82912
▁Free 82443
▁both 82037
▁application 81676
." 81576
▁much 81342
▁New 81240
▁At 81226
▁local 81008
▁process 80747
▁s 80268
▁down 79758
▁U 79682
▁great 78568
▁program 78482
▁possible 78412
▁development 78263
▁following 77820
▁three 77672
▁With 77461
▁small 76694
ve 76336
▁group 76180
▁They 76144
▁important 76130
▁within 76058
▁4 76050
I 75912
▁times 75811
able 75710
▁start 75526
B 75206
▁project 75206
▁18 74732
▁What 74477
▁point 74466
▁type 73985
3 73858
▁videos 73775
▁content 73740
▁N 73702
▁market 73426
▁every 73300
▁e 73196
▁city 72554
▁large 72452
▁countries 72411
▁G 72386
▁T 72201
▁end 72029
▁per 71958
h 71854
▁power 71736
on 71326
ll 71306
▁offer 71243
▁product 71025
▁software 70802
▁online 70720
▁list 70587
▁access 70197
▁China 70137
▁So 69924
▁color 69785
▁Tokyo 69708
▁come 69694
▁full 69485
▁create 69465
▁she 69431
▁F 69386
▁able 69289
▁show 69197
▁watches 69088
T 68925
▁did 68820
▁design 68769
p 68197
( 67785
▁example 67375
▁Information 67325
K 67118
▁various 66846
▁always 66652
▁material 66632
▁problems 66365
▁found 66356
▁settings 65699
▁above 65367
ers 65269
▁X 65203
▁20 65083
▁O 64860
▁another 64602
▁based 64448
▁Earth 64260
▁de 64087
▁D 63885
▁Our 63748
▁Select 63712
▁control 63705
▁next 63679
▁off 63561
▁un 63430
▁him 63269
▁international 63094
▁become 63081
▁changes 62763
▁country 62608
E 62538
▁since 62508
▁cannot 62284
▁am 62189
▁University 62067
▁think 62016
▁real 61967
▁level 61926
▁click 61831
▁World 61736
▁research 61681
no 61366
▁technology 61302
▁known 61216
▁P 61215
▁team 61063
▁top 61031
▁These 60769
▁7 60629
P 60486
▁Site 60277
V 59903
▁H 59700
▁dollar 59491
▁look 59452
▁working 59387
▁called 58849
ation 58820
▁body 58780
the 58762
▁line 58715
▁public 58516
▁below 58424
▁After 58328
▁International 58324
▁error 58288
▁few 57903
▁size 57706
▁red 57701
▁6 57678
it 57606
▁value 57581
▁select 57544
en 57536
▁My 57471
up 57328
▁too 57288
▁addition 57095
▁view 56847
▁third 56755
▁again 56648
▁give 56628
▁allows 56606
an 56589
x 56402
▁V 56402
▁etc 56341
▁home 56278
b 55899
▁course 55824
▁game 55790
▁M 55620
▁hotel 55024
le 54851
▁necessary 54723
▁K 54682
▁main 54629
▁form 54558
▁side 54514
... 54453
▁US 54406
▁due 54302
▁light 54259
▁event 54199
ic 54017
▁left 53986
▁current 53865
k 53796
▁companies 53789
▁device 53759
▁Typhoon 53462
▁replica 53286
▁looking 52983
▁person 52960
▁Re 52820
▁By 52819
W 52818
▁making 52226
▁really 51995
▁future 51919
▁account 51789
▁hand 51559
ity 51549
▁already 51542
▁law 51440
▁R 51394
", 51271
▁little 51125
▁selected 51107
▁space 51019
▁popular 50834
▁price 50722
," 50703
▁field 50688
▁built 50534
co 50528
▁customer 50392
M 50315
▁specific 50261
▁activities 50110
▁allow 50095
l 49934
▁features 49913
H 49903
▁types 49901
▁watch 49862
▁media 49852
▁users 49810
▁along 49749
▁include 49736
▁programs 49694
▁run 49658
▁screen 49625
▁held 49520
▁network 49447
▁region 49410
▁button 49299
▁put 49251
▁2016 49191
▁man 49159
▁appropriate 48869
▁downloading 48843
▁things 48820
▁environment 48676
▁means 48594
▁production 48451
▁don 48350
▁Photos 48286
▁Service 48223
▁today 48084
▁Transfer 48014
▁building 47931
▁function 47773
▁30 47755
▁City 47701
na 47668
ro 47624
▁Stock 47546
▁W 47501
▁least 47494
▁human 47437
▁several 47370
▁together 47363
▁second 47354
Y 47282
▁away 47097
▁rate 47066
▁images 47064
▁OF 47044
4 47039
▁share 46991
▁something 46954
▁children 46935
▁sites 46889
▁further 46812
▁required 46812
▁performance 46754
▁low 46486
▁version 46217
▁God 46207
▁food 46197
▁until 46165
▁Windows 46138
u 46086
▁items 46058
ion 46051
▁period 45967
▁enjoy 45949
▁better 45925
▁delivery 45760
▁everyone 45752
▁play 45717
▁option 45700
▁South 45683
▁young 45647
N 45620
▁room 45587
▁started 45481
▁energy 45472
▁check 45431
▁Chinese 45327
▁industry 45230
▁Co 45228
▁feel 45181
▁family 45153
▁security 45058
▁8 45014
▁standard 44978
▁add 44904
ment 44844
▁global 44800
▁management 44779
▁offers 44770
▁against 44745
▁details 44602
▁easy 44550
▁often 44227
▁displayed 44103
▁private 44078
▁lot 44063
▁An 44030
▁tool 44005
▁result 43998
8 43959
ri 43936
▁located 43936
▁done 43808
▁shall 43790
▁THE 43778
▁range 43755
▁created 43710
▁Yun 43670
▁Your 43608
▁sea 43586
▁section 43547
▁history 43536
▁Do 43434
▁results 43401
▁Then 43327
▁men 43231
▁store 43229
▁detective 43193
▁Digital 43188
▁hotels 43186
▁Cookies 43166
▁rental 43117
▁past 43106
▁cause 43093
▁installed 43060
▁address 43051
▁minutes 42934
▁15 42903
▁hard 42863
▁Center 42815
▁transfer 42779
▁email 42772
▁going 42755
▁operating 42561
▁tap 42540
▁12 42474
▁might 42372
▁L 42367
▁women 42359
▁materials 42339
▁linked 42252
▁say 42243
ma 42196
▁choose 42114
st 42104
▁review 42081
▁visit 42077
▁travel 42031
▁works 42026
▁text 42002
▁save 41900
▁beautiful 41819
▁students 41719
▁leading 41693
f 41671
▁agree 41663
▁One 41550
▁tab 41510
▁having 41482
ra 41401
▁fact 41272
▁understand 41183
▁display 41166
▁live 41134
▁care 41100
▁non 41049
▁members 41004
▁contains 40985
▁government 40949
us 40934
▁ensure 40926
▁applications 40925
▁key 40899
X 40734
▁p 40726
▁flowers 40564
▁systems 40442
▁Use 40350
▁given 40346
man 40291
▁areas 40291
▁... 40260
▁white 40095
▁makes 40036
▁location 39929
▁needs 39851
ta 39818
▁keep 39785
▁link 39762
▁air 39755
▁date 39754
▁opening 39743
▁customers 39654
▁send 39643
▁music 39565
ness 39554
▁purposes 39551
▁provided 39530
▁via 39491
▁Airport 39461
▁search 39403
▁million 39377
▁position 39299
▁Group 39296
▁money 39226
▁common 39207
▁once 39188
▁single 39185
▁among 38911
▁item 38784
▁present 38782
O 38732
▁unique 38732
▁questions 38725
▁driver 38634
▁uses 38614
▁natural 38582
▁protection 38560
J 38485
▁Aurotek 38454
de 38344
▁increase 38342
▁never 38331
▁came 38277
▁style 38233
▁total 38070
▁source 37945
▁rights 37927
▁File 37916
▁reason 37899
▁sure 37853
ive 37731
▁close 37731
▁four 37719
▁From 37718
▁front 37706
▁United 37688
1 37683
▁brand 37682
▁note 37562
▁heart 37543
▁community 37511
▁sound 37475
▁original 37446
ex 37435
▁improve 37351
ji 37268
▁big 37248
▁rules 37212
▁series 37163
▁continue 37158
▁model 37149
▁devices 36938
and 36923
▁conditions 36909
▁far 36871
▁format 36772
▁famous 36765
▁school 36743
▁whole 36734
▁events 36706
▁provides 36642
▁shown 36632
▁center 36630
▁love 36616
▁parts 36580
▁night 36547
▁hours 36541
▁state 36525
▁purpose 36482
▁Korea 36469
▁pages 36469
▁reservation 36332
▁stores 36278
▁menu 36261
▁track 36228
▁method 36223
▁kind 36133
▁directly 36122
▁why 36050
▁professional 35995
▁major 35902
▁simple 35800
▁others 35799
▁less 35761
▁solution 35662
▁Asia 35617
▁easily 35613
▁certain 35549
▁100 35495
ko 35465
▁server 35460
▁She 35296
▁inside 35291
▁early 35246
ku 35236
▁interest 35229
▁seen 35158
▁hot 35102
▁Hotel 35061
▁read 35007
▁Internet 34970
▁later 34931
▁let 34877
▁amount 34855
▁Open 34766
▁face 34739
▁complete 34706
▁art 34696
▁near 34677
▁19 34598
at 34588
▁includes 34582
▁That 34525
▁request 34382
▁outside 34339
ate 34319
▁Click 34294
▁processing 34259
▁code 34216
L 34171
▁shows 34117
▁OR 34033
▁< 33991
me 33883
▁photos 33877
▁try 33846
▁extensions 33833
▁Sun 33789
▁National 33787
▁elements 33766
▁* 33760
▁box 33726
▁wish 33712
▁taken 33701
6 33684
▁went 33525
do 33480
▁9 33417
▁developed 33370
▁2017 33346
▁Italy 33338
▁frame 33329
▁road 33316
▁pre 33313
▁study 33309
as 33291
▁Fiumicino 33273
R 33272
▁cases 33252
ling 33210
▁language 33167
▁i 33145
ist 33069
▁flower 33023
▁short 32985
▁receive 32970
ry 32964
▁economic 32951
▁J 32862
▁meet 32814
net 32792
▁TO 32787
▁About 32752
▁equipment 32699
▁inconvenience 32630
▁web 32623
▁English 32594
rs 32543
▁comes 32432
▁included 32412
Japan 32385
▁wallpaper 32370
il 32264
▁Data 32264
▁issues 32261
▁mind 32232
▁card 32150
▁mobile 32130
▁difference 32126
▁general 31999
▁social 31988
▁associated 31957
age 31929
▁move 31923
▁guarantee 31918
▁class 31900
tic 31848
▁won 31842
▁house 31828
▁Since 31745
un 31684
▁Planet 31674
▁mountain 31604
▁Sorry 31599
In 31567
▁app 31553
▁plants 31511
▁modern 31457
▁almost 31438
▁automatically 31425
▁whether 31399
▁carefully 31393
▁report 31373
▁May 31311
go 31290
▁games 31278
▁11 31200
▁culture 31187
▁temperature 31172
▁article 31126
▁c 31117
▁traditional 31016
▁oil 31000
▁coped 30964
▁connection 30948
▁designed 30785
▁yen 30767
▁across 30741
▁actual 30729
▁enter 30676
▁head 30657
▁Live 30625
▁safety 30623
▁cookies 30600
▁according 30560
▁effect 30540
▁changed 30531
ne 30451
▁Prefecture 30404
▁bar 30321
▁points 30288
▁land 30264
▁Is 30238
▁photo 30235
▁camera 30232
▁yet 30219
▁related 30210
▁hold 30205
▁thing 30164
▁variety 30128
te 30124
▁book 30113
▁needed 30098
▁strong 30095
ru 30087
▁particular 29980
▁European 29977
▁Mr 29945
▁health 29882
▁surface 29879
▁July 29851
▁plan 29790
▁audio 29752
▁1. 29751
▁return 29746
▁Note 29742
▁Some 29741
We 29677
▁half 29665
▁call 29649
▁stay 29591
li 29581
▁message 29574
▁Now 29565
▁Other 29562
▁exchange 29561
▁m 29454
z 29453
▁learn 29419
▁week 29387
lo 29379
▁enough 29372
▁places 29362
▁took 29360
▁individual 29353
▁words 29268
▁Pro 29180
▁party 29175
ary 29160
Z 29137
▁received 29104
▁knowledge 29034
▁window 29015
▁manufacturer 28931
▁copy 28912
▁analysis 28892
▁cost 28881
▁Here 28878
▁16 28866
w 28833
▁test 28822
▁growth 28821
▁feature 28818
▁living 28817
▁itself 28805
▁added 28788
▁Hotels 28782
▁March 28706
mo 28697
v 28678
ization 28609
▁longer 28603
▁technologies 28575
▁higher 28546
▁clear 28533
▁marketing 28531
▁solve 28525
ated 28371
▁States 28331
▁applicable 28326
▁issue 28307
▁believe 28283
▁IN 28275
▁months 28262
el 28250
▁edit 28245
▁pay 28244
▁month 28220
▁Terms 28199
ST 28163
▁Research 28142
▁bring 28076
▁Also 28061
▁property 28050
ting 28038
▁florists 28029
▁ZetaTalk 28021
▁either 27853
▁especially 27839
▁difficult 27825
▁sub 27818
ton 27770
ar 27742
▁drive 27722
se 27673
ch 27655
▁though 27614
▁Apache 27585
▁yuan 27583
▁2. 27564
▁Enter 27538
da 27525
time 27522
▁Pandora 27388
▁black 27372
▁object 27372
▁wide 27353
▁policy 27352
▁thought 27307
▁taking 27304
▁April 27286
▁asked 27283
▁got 27260
▁true 27251
▁town 27250
▁lower 27231
▁film 27227
▁ago 27192
▁$ 27182
▁projects 27173
): 27170
▁co 27170
▁national 27162
▁Korean 27149
est 27115
▁supports 27103
ant 27076
▁technical 27046
be 27044
▁ground 27019
ya 26984
line 26967
▁five 26928
ating 26926
▁Go 26919
ul 26913
▁speed 26864
ki 26858
▁training 26810
▁Q 26799
▁De 26672
▁coming 26627
▁table 26627
▁background 26615
▁Can 26590
▁Add 26586
▁multiple 26557
ba 26528
▁however 26517
▁seems 26496
▁recent 26492
View 26466
▁sales 26459
ent 26457
▁Taxi 26457
▁effects 26450
▁stop 26438
5 26431
ty 26408
▁era 26392
ka 26357
▁Privacy 26355
▁additional 26354
▁Download 26294
▁skin 26239
▁construction 26234
▁airport 26223
▁Web 26222
▁staff 26192
▁green 26180
▁upon 26169
▁structure 26162
▁nature 26159
▁operation 26126
hour 26112
▁Taiwan 26111
mm 26107
▁began 26084
based 26078
▁age 26058
▁opened 26037
▁risk 26008
▁Of 26006
ac 25994
▁leave 25984
▁Europe 25983
ur 25938
▁trying 25931
▁resources 25925
▁North 25917
▁Company 25915
▁forward 25909
▁expected 25889
▁thus 25869
▁subject 25866
shi 25833
▁American 25816
▁takes 25785
▁San 25778
▁soon 25770
chi 25766
▁options 25741
out 25717
▁similar 25715
▁behind 25707
▁La 25688
▁eat 25674
▁terms 25674
▁friends 25662
ia 25657
▁14 25627
▁became 25616
▁setting 25598
▁machine 25592
▁TV 25535
▁post 25522
▁limited 25491
▁prepare 25491
▁Kyoto 25484
▁2018 25468
▁turn 25412
▁entire 25405
▁attention 25396
▁quite 25374
▁x 25374
▁yourself 25372
▁situation 25355
▁output 25285
▁step 25278
▁cover 25272
▁immediately 25255
▁platform 25243
▁cities 25193
▁doing 25191
▁phone 25149
▁visitors 25105
▁shop 25101
▁buy 25092
▁Dr 25075
▁walk 25027
▁occured 25025
▁payment 24955
▁browser 24917
▁command 24871
▁default 24862
▁financial 24838
▁13 24823
▁established 24813
▁General 24757
la 24736
▁efforts 24715
▁selection 24713
▁Business 24679
▁role 24668
▁His 24667
▁Track 24661
▁maintenance 24647
▁summer 24645
ized 24643
▁guide 24604
▁build 24602
▁activity 24572
▁East 24564
® 24540
▁written 24538
▁ways 24530
▁print 24526
▁parties 24523
▁con 24517
▁actually 24484
▁garden 24475
▁plate 24449
▁quickly 24444
▁action 24429
▁contents 24423
ian 24420
▁hope 24394
▁bit 24382
— 24362
▁While 24338
▁providing 24337
ter 24326
ge 24315
▁Hong 24312
▁functions 24311
▁trip 24284
▁prices 24273
▁Facebook 24248
▁question 24225
▁tools 24225
▁fixed 24223
ance 24218
▁prevent 24214
▁laws 24212
▁17 24197
▁self 24190
▁Content 24180
▁paper 24178
▁getting 24174
▁PC 24151
▁movement 24150
▁President 24145
▁steps 24142
▁maximum 24136
▁digital 24097
@ 24093
ence 24092
▁Ko 24082
& 24047
eg 24021
▁Contact 23948
▁tea 23945
▁weather 23929
▁meeting 23919
▁ask 23898
▁Why 23885
▁ever 23884
▁Or 23883
▁Help 23879
▁50 23877
▁currently 23864
▁mode 23859
ism 23856
ce 23826
one 23826
▁plant 23823
▁sun 23823
▁Li 23780
▁taste 23731
▁develop 23725
▁pictures 23660
▁lead 23647
▁Man 23609
▁meters 23602
▁member 23597
ci 23587
▁expert 23587
▁Institute 23536
▁Festival 23533
▁foreign 23475
▁dialog 23448
▁June 23399
▁usually 23369
7 23314
is 23311
▁office 23309
▁considered 23305
▁List 23300
▁simply 23286
▁heat 23255
▁values 23245
▁Project 23240
▁IP 23192
▁reserved 23189
▁Account 23187
▁treatment 23176
▁child 23157
▁legal 23152
▁September 23144
▁pro 23134
▁connected 23085
▁cookie 23056
▁Where 23055
▁sent 23034
▁weight 23032
▁society 23019
▁iPhone 22992
▁October 22968
um 22915
▁force 22904
▁School 22891
▁November 22878
▁collect 22874
ies 22853
▁ancient 22830
▁purchase 22825
▁modify 22823
▁themselves 22819
▁billion 22812
▁responsible 22812
▁Station 22810
▁carry 22808
▁glass 22788
▁Chat 22763
▁picture 22762
▁gas 22757
▁stage 22753
10 22742
▁highly 22742
▁supply 22742
ga 22739
ted 22726
▁everything 22717
for 22709
▁path 22680
▁perfect 22679
▁active 22674
▁latest 22636
less 22619
▁says 22584
▁Russian 22581
bo 22550
▁sense 22540
▁station 22535
▁regarding 22459
▁tell 22449
▁fields 22445
▁Be 22433
▁cars 22430
▁JAPAN 22412
▁mark 22380
▁beginning 22364
▁Home 22362
▁matter 22345
▁secure 22324
▁allowed 22319
▁follow 22318
▁hands 22242
▁Kong 22217
▁charge 22200
▁Sex 22197
▁map 22183
▁Museum 22179
▁multi 22176
▁confirm 22169
con 22168
▁friendly 22139
▁Global 22112
▁Booking 22103
▁highest 22094
▁published 22092
▁Ltd 22084
▁appear 22049
▁sex 22026
▁24 22014
▁hire 21980
▁steel 21968
▁Day 21967
▁objects 21932
▁Not 21926
▁facilities 21827
▁caused 21822
▁Ka 21818
▁rather 21812
▁environmental 21798
▁existing 21794
▁running 21793
▁gift 21784
▁directory 21781
▁Singapore 21736
▁floor 21715
ous 21700
▁owners 21688
▁High 21680
▁potential 21674
▁System 21655
▁described 21652
▁cold 21644
▁therefore 21624
▁increased 21618
▁pressure 21611
▁base 21598
▁See 21584
▁successfully 21563
▁daily 21561
▁tour 21559
▁creating 21553
▁mountains 21552
▁largest 21545
▁Support 21507
▁France 21479
▁news 21447
▁gold 21414
Q 21393
▁Android 21386
▁December 21356
▁happen 21336
48 21318
▁3. 21317
▁blue 21293
▁basis 21291
▁Therefore 21289
▁properties 21281
▁completely 21275
▁resort 21266
▁detailed 21234
▁reach 21225
▁internet 21220
▁opportunity 21209
▁comfort 21180
▁loss 21162
▁told 21152
▁Australia 21139
▁press 21137
▁saw 21136
▁gives 21128
▁temple 21118
▁official 21112
▁January 21094
▁Item 21090
▁notice 21090
▁tourism 21070
▁measures 21052
▁rest 21041
▁Notice 21037
▁useful 21036
▁basic 21028
▁More 20989
▁25 20984
▁Temple 20978
▁groups 20931
▁Once 20925
▁record 20912
U 20907
▁prior 20899
▁shared 20888
▁0 20877
▁Because 20871
▁story 20867
▁apply 20854
▁specified 20792
▁cooperation 20782
▁August 20778
men 20774
per 20771
▁morning 20763
im 20748
▁focus 20739
▁• 20737
▁models 20708
▁aims 20704
▁direct 20690
▁likely 20668
▁average 20643
▁Mo 20626
▁consent 20620
▁lines 20611
▁Park 20598
ine 20588
▁Corporation 20587
ha 20580
▁safe 20559
▁America 20539
▁season 20530
▁fully 20499
▁Products 20474
11 20441
▁presence 20435
▁Although 20432
mi 20426
▁+ 20421
▁Mac 20409
▁relevant 20402
▁damage 20336
▁— 20334
▁Today 20320
▁girls 20295
▁length 20288
▁dis 20284
▁decided 20271
▁Even 20267
▁word 20261
▁throughout 20249
▁Each 20241
▁fun 20224
▁offered 20205
▁capital 20185
▁Nature 20175
▁During 20144
▁o 20133
▁First 20111
▁cultural 20101
▁profile 20079
jo 20043
▁century 20037
】 20025
▁remove 20022
▁Ma 20021
▁lost 19976
▁previous 19973
▁hour 19965
▁rooms 19958
gen 19953
▁forced 19951
▁levels 19930
et 19923
am 19874
▁shift 19871
▁respective 19867
▁idea 19865
▁40 19860
▁Server 19849
▁trade 19817
▁damaged 19810
▁Per 19807
▁chance 19792
▁release 19788
id 19764
▁direction 19750
▁status 19748
▁Watches 19745
son 19741
= 19715
▁collection 19707
12 19706
▁Security 19702
▁fresh 19702
▁Development 19698
▁enable 19672
gu 19667
▁generation 19635
▁Technology 19628
ie 19624
▁Jesus 19617
▁promote 19608
▁host 19593
▁impact 19585
▁physical 19575
ten 19573
ize 19562
▁Travel 19544
If 19522
▁restaurant 19500
▁informations 19483
▁spring 19459
▁response 19456
▁effective 19452
▁module 19440
▁Zetas 19420
▁talk 19420
▁achieve 19406
▁1, 19403
▁fish 19395
▁Time 19391
▁placed 19390
▁solutions 19361
▁filter 19360
▁Search 19355
▁moment 19340
▁en 19339
▁write 19337
▁Car 19326
▁someone 19322
▁huge 19319
▁ONLY 19300
▁equipped 19295
▁successful 19285
▁eyes 19283
▁reduce 19274
▁bus 19261
▁explicit 19235
▁death 19230
▁external 19230
▁bottom 19225
▁operations 19225
▁rates 19208
▁understanding 19201
ING 19196
▁custom 19192
▁investment 19187
ED 19185
▁storage 19182
▁sky 19176
▁recently 19168
▁boys 19166
▁late 19163
▁holding 19159
▁hair 19150
▁Le 19140
▁Ciampino 19120
▁People 19116
▁communication 19108
▁River 19084
▁User 19078
▁flow 19072
▁produced 19057
▁ability 19053
▁booking 19050
▁costs 19036
▁Google 19035
▁House 18995
▁shape 18989
▁Online 18964
▁deep 18961
▁contain 18957
▁fine 18938
▁target 18928
▁printing 18917
▁2019 18911
▁mod 18906
9 18900
▁CO 18858
▁players 18852
▁Many 18840
▁Thus 18830
▁carried 18809
▁India 18795
▁distance 18787
▁Z 18786
OK 18785
ful 18780
▁possibility 18778
sa 18777
▁rich 18745
▁Ho 18736
▁slightly 18716
▁perform 18711
▁involved 18688
▁install 18687
▁sexually 18670
▁credit 18661
▁earth 18655
▁clean 18654
▁characteristics 18648
▁input 18644
▁tree 18634
▁avoid 18625
▁atmosphere 18615
▁stated 18610
ni 18607
▁ready 18606
▁approach 18604
▁anything 18597
ER 18592
▁education 18589
▁toward 18575
ir 18542
▁Mi 18542
▁cut 18523
▁cells 18521
bi 18516
▁final 18495
▁port 18474
land 18471
if 18470
▁released 18469
▁Tourism 18466
▁krone 18461
▁capacity 18459
▁Art 18444
nd 18425
▁resolution 18425
▁Size 18419
▁occur 18414
▁fire 18388
▁nothing 18377
▁According 18371
▁! 18370
▁NOT 18350
▁Black 18340
▁choice 18311
▁Image 18303
▁normal 18287
▁Options 18284
▁depending 18268
▁feeling 18233
▁theme 18204
▁methods 18185
▁names 18185
▁fast 18164
▁agency 18159
▁commercial 18156
▁medical 18131
▁【 18116
▁completed 18107
▁password 18036
▁newly 18029
so 18024
▁February 18010
▁relationship 18006
▁Special 17959
▁Return 17940
▁cell 17930
▁developing 17930
▁license 17930
▁river 17912
▁wind 17911
▁complex 17899
▁accessible 17887
▁block 17887
▁Professional 17886
rd 17879
▁rice 17878
▁looks 17845
▁blood 17839
▁warm 17790
▁Sea 17787
▁sell 17776
▁Video 17755
▁war 17754
▁Central 17734
▁door 17734
▁28 17714
▁refer 17708
▁Africa 17704
▁compared 17696
▁train 17696
▁ID 17694
▁Inc 17690
end 17688
▁village 17681
* 17675
▁African 17674
▁2015 17658
▁Na 17649
▁Policy 17618
▁processes 17588
▁Only 17587
▁military 17587
▁fonts 17581
▁towards 17574
▁anti 17556
▁IT 17546
▁Part 17538
▁Al 17529
▁MIDI 17498
▁fail 17497
▁organization 17496
▁wanted 17491
▁Replica 17487
▁reports 17475
▁Christian 17459
▁manufacturing 17457
▁21 17430
▁Let 17429
▁HD 17425
you 17424
▁sign 17416
▁nuclear 17395
▁accordance 17387
▁category 17384
▁protect 17353
▁stone 17346
ong 17343
ho 17330
san 17325
▁Russia 17323
▁West 17323
▁playing 17307
▁memory 17290
▁electronic 17270
▁regions 17266
▁signal 17261
▁update 17253
▁instead 17245
▁starting 17235
▁lives 17221
▁guests 17220
▁colors 17218
▁reported 17217
▁welcome 17212
▁job 17201
▁snow 17194
▁Design 17192
▁interests 17192
▁g 17190
▁recommend 17189
▁Sometimes 17171
▁employees 17166
▁Office 17164
▁Just 17155
op 17131
▁publication 17128
mon 17111
▁announced 17106
▁State 17100
▁reasons 17098
▁six 17098
▁respect 17097
▁middle 17076
▁gave 17050
▁Un 17042
▁deliver 17034
▁HTTP 17032
▁character 17009
▁agreement 16973
+ 16972
▁Ha 16972
Re 16956
It 16951
▁becomes 16934
▁Science 16901
▁association 16853
▁County 16845
▁progress 16840
▁doesn 16838
▁km 16837
bu 16829
▁News 16829
▁condition 16828
▁communications 16824
▁industrial 16821
01 16820
▁practice 16819
min 16808
▁French 16798
▁beauty 16792
ial 16790
▁advanced 16789
▁increasing 16787
▁package 16786
▁requirements 16769
▁grow 16765
▁zone 16765
ke 16763
▁movie 16760
▁En 16758
▁accept 16753
▁Swiss 16750
▁mm 16701
▁belong 16693
▁produce 16693
▁ink 16665
▁exhibition 16664
▁Tap 16662
cm 16660
▁goal 16660
of 16639
▁channel 16639
▁Watch 16636
▁foot 16623
▁White 16612
ally 16607
▁nice 16604
▁advise 16602
▁reliable 16601
▁island 16591
▁engine 16581
▁excellent 16576
ak 16575
▁4. 16528
party 16521
po 16520
▁= 16519
▁rock 16510
▁drop 16506
ities 16504
▁friend 16502
▁cross 16501
▁Photo 16492
▁registration 16489
▁plans 16485
hi 16484
▁Me 16453
▁dark 16448
▁downloaded 16446
▁Flowers 16437
▁Most 16429
ung 16427
▁applied 16422
tion 16415
▁agencies 16403
ster 16384
▁document 16370
▁serve 16369
▁central 16360
This 16356
▁stand 16351
▁moved 16344
▁concept 16339
ative 16326
▁learning 16324
▁Create 16311
mail 16306
▁moving 16301
▁views 16285
▁log 16272
▁Air 16266
▁configuration 16253
▁hit 16238
term 16231
▁smartphone 16221
▁Name 16218
ard 16215
▁finally 16215
▁scale 16206
▁wall 16199
▁Check 16193
▁demand 16191
▁suitable 16190
▁stock 16186
▁standards 16175
ー 16159
▁pressing 16154
▁happens 16139
os 16115
▁heavy 16111
20 16108
▁solar 16106
▁# 16105
MP 16065
mp 16065
▁winter 16062
▁piece 16055
▁handle 16049
▁appears 16036
▁t 16036
▁tax 16030
▁extra 16021
▁board 16019
▁interesting 16008
▁correct 16005
▁Power 16002
▁experts 15991
izing 15990
▁introduced 15981
▁listed 15979
▁shipping 15979
▁trees 15975
▁felt 15974
▁books 15960
▁links 15954
▁spread 15950
gi 15949
▁answer 15921
▁planning 15914
▁festival 15890
▁rain 15875
▁shrine 15864
▁offering 15854
▁Model 15847
lu 15844
tro 15836
▁star 15811
▁shopping 15806
▁d 15800
▁AND 15799
▁Department 15797
▁contract 15796
▁eye 15795
▁pass 15794
▁components 15790
é 15782
▁wear 15781
▁success 15772
▁60 15768
▁remain 15766
▁core 15765
side 15761
▁growing 15753
ca 15736
▁happy 15722
▁SITE 15713
▁Software 15695
▁Da 15694
ning 15689
▁mentioned 15670
▁USD 15652
▁Pole 15650
▁manually 15645
▁brought 15638
▁Su 15629
▁Press 15624
▁client 15618
▁Network 15614
▁entry 15606
▁born 15601
▁Area 15598
▁patients 15585
pe 15573
▁feedback 15566
▁consider 15557
ding 15556
▁Water 15552
▁Av 15551
▁supported 15551
▁Services 15548
▁Vietnam 15534
▁messages 15516
ability 15505
▁2014 15495
▁street 15490
▁worldwide 15490
▁regard 15486
▁installation 15472
▁Management 15470
ish 15469
▁bad 15464
▁heard 15460
▁balance 15449
▁whose 15443
▁giving 15429
▁metal 15429
AL 15423
▁tourist 15421
▁extremely 15420
▁« 15417
▁significant 15414
▁procedure 15408
▁St 15379
▁Council 15370
▁dance 15362
▁positive 15354
▁sometimes 15341
▁obtain 15335
▁accepted 15333
▁Ta 15326
30 15315
▁Po 15306
▁Con 15299
▁double 15293
▁permission 15293
▁require 15286
▁・ 15280
▁soft 15273
▁Germany 15267
▁overseas 15262
wa 15258
ner 15250
▁Chi 15246
▁ship 15245
▁cards 15230
free 15223
▁mother 15221
▁magnetic 15200
▁convert 15193
▁north 15191
▁Road 15187
▁Yu 15185
he 15183
sion 15183
▁fraud 15182
▁remember 15182
▁term 15163
▁notes 15160
▁break 15140
▁sources 15139
▁Bank 15135
▁disease 15127
▁advance 15126
ise 15117
▁height 15115
▁skills 15111
▁Official 15110
▁father 15103
0 15099
▁numbers 15096
▁Ro 15092
▁rent 15083
▁registered 15075
▁student 15069
▁larger 15068
▁recommended 15057
▁percent 15050
▁porn 15015
▁automobiles 15012
▁panel 14995
▁Price 14980
▁creation 14977
▁requests 14976
▁distribution 14965
▁isn 14961
ology 14950
▁woman 14940
io 14934
▁Di 14924
▁di 14923
▁Bar 14919
09 14916
▁description 14914
▁writing 14914
▁touch 14904
▁Asian 14899
▁mean 14893
17 14889
▁title 14879
▁USE 14876
▁taxi 14873
▁Paris 14870
▁volume 14861
▁detectives 14856
▁resource 14851
▁unit 14851
▁Government 14850
▁passed 14829
▁player 14825
▁Using 14819
▁approximately 14782
▁particularly 14780
▁Moon 14776
▁vehicle 14744
▁pattern 14743
▁ideas 14736
ol 14724
You 14716
▁expect 14713
di 14712
To 14707
▁copyright 14707
led 14700
▁supporting 14697
▁Island 14681
▁protected 14678
▁presented 14668
ang 14667
▁participants 14666
▁Mar 14649
▁Program 14639
▁ideal 14631
▁Zealand 14630
▁fall 14622
▁goods 14621
▁Buy 14614
25 14599
▁fashion 14593
j 14591
▁passengers 14584
▁weeks 14583
▁population 14581
by 14580
vo 14577
▁CD 14577
60 14574
day 14565
▁join 14564
▁dry 14547
▁peace 14532
▁Minister 14520
▁tourists 14519
▁contained 14517
we 14513
▁conduct 14505
den 14485
▁mainly 14481
▁climate 14479
▁appearance 14474
▁Access 14470
▁named 14466
▁kinds 14452
▁legitimate 14441
▁wine 14435
▁count 14431
si 14427
▁component 14416
▁Cookie 14402
▁regulations 14395
▁square 14394
▁turned 14394
ure 14385
▁round 14362
▁park 14357
▁200 14352
▁Shi 14349
▁usual 14347
-1 14346
▁powerful 14339
cho 14330
▁played 14330
▁former 14319
▁paid 14315
za 14305
▁Australian 14302
ite 14297
▁tried 14296
15 14292
▁followed 14291
▁dedicated 14271
▁Nibiru 14270
▁Year 14267
▁icon 14265
50 14259
▁goes 14251
▁traffic 14247
▁-- 14242
les 14235
▁else 14235
▁Great 14225
▁easiest 14207
▁remains 14207
▁converting 14200
▁master 14184
▁b 14183
▁sample 14183
▁destination 14182
▁Detailed 14176
US 14163
▁interface 14145
▁interested 14143
▁anyone 14128
▁establishment 14128
ible 14125
▁22 14118
▁Rolex 14118
▁generated 14117
ler 14113
▁pole 14107
▁Lake 14105
▁political 14105
ping 14099
▁corporate 14096
▁rise 14091
▁beyond 14089
▁continued 14088
▁deal 14085
▁essential 14067
▁individuals 14060
▁efficiency 14058
▁Type 14053
▁consumption 14051
▁cancer 14050
ti 14046
▁Christ 14045
AS 14035
old 14023
▁Ministry 14019
▁symbol 14012
▁Bitcoin 14010
▁department 14008
▁inter 14002
▁wait 14002
ium 13993
▁science 13986
▁meaning 13985
▁authorities 13983
zu 13977
▁sports 13974
▁ten 13972
▁ones 13969
▁greater 13963
IT 13961
▁valuable 13960
▁buildings 13955
▁circle 13945
▁launch 13941
year 13930
▁graphics 13916
▁begin 13909
▁super 13896
▁scene 13890
way 13879
▁entered 13879
▁ticket 13863
▁occasion 13850
▁comfortable 13832
40 13829
▁War 13825
▁led 13825
▁Buddha 13824
▁Any 13822
▁determine 13819
pa 13814
yama 13813
▁although 13810
▁Saudi 13802
▁Extension 13792
▁didn 13783
RE 13778
▁leaves 13774
ze 13765
▁fuel 13759
▁Touch 13758
▁frequency 13756
▁database 13748
▁delete 13743
▁Euro 13741
▁Y 13736
▁separate 13733
▁manner 13729
▁UK 13720
▁south 13717
の 13713
▁attack 13700
▁Order 13693
16 13688
EN 13685
▁heritage 13672
▁regular 13665
ship 13663
28 13662
▁2013 13651
▁seem 13651
▁yellow 13639
▁PDF 13629
▁Sa 13623
▁importance 13615
▁Garden 13606
▁advertising 13590
▁Statement 13575
▁limit 13572
▁worked 13572
▁Ra 13565
▁Italian 13564
ID 13553
▁aware 13551
act 13541
▁economy 13540
▁Madrid 13532
▁figure 13530
▁UN 13525
lic 13519
▁Ni 13518
▁Pre 13508
▁internal 13508
Use 13503
▁probably 13500
▁automatic 13489
▁stored 13485
▁wood 13482
▁requires 13471
▁root 13466
que 13462
▁onto 13462
▁facility 13450
▁Committee 13445
Save 13439
Set 13438
▁decision 13428
MA 13427
▁factors 13425
▁Her 13417
▁session 13401
bit 13398
▁Association 13392
▁Make 13377
▁Gwangju 13376
▁counter 13373
▁connect 13367
▁App 13366
▁flat 13364
▁Ba 13350
▁Market 13349
▁Take 13347
▁spirit 13343
▁Version 13338
▁match 13333
▁Pa 13329
▁Date 13328
▁affected 13320
▁Heuer 13309
like 13308
au 13302
down 13259
▁collected 13256
▁comply 13252
▁Bo 13242
▁feet 13235
▁cool 13234
▁maintain 13219
ny 13209
▁Back 13209
▁usage 13203
▁23 13201
▁micro 13197
Hide 13195
▁ex 13194
▁ANY 13193
▁Pacific 13193
▁mechanism 13191
▁Economic 13179
SE 13168
▁Case 13164
▁speaking 13163
▁Step 13162
▁gets 13146
▁bag 13145
▁forecast 13145
▁2012 13141
▁waste 13139
▁strength 13128
▁enhance 13127
▁documents 13113
▁otherwise 13099
▁diagnose 13095
▁thanks 13088
▁mass 13085
▁fee 13084
▁Red 13079
lin 13065
her 13061
▁locations 13057
▁organizations 13053
▁lack 13049
▁pop 13049
▁finding 13041
▁visited 13038
▁ice 13035
▁Page 13033
14 13030
▁Every 13027
▁jav 13026
▁recognize 13026
▁collaboration 13023
▁clients 13015
▁directive 13012
▁launched 13011
▁corresponding 13004
▁frequently 13004
▁clearly 13002
▁combination 12994
▁offices 12973
▁monitor 12960
▁waiting 12959
▁degree 12952
▁benefits 12951
▁favorite 12951
ina 12933
▁delicious 12930
▁returned 12925
▁performed 12922
▁chemical 12917
▁pieces 12917
▁Jewelry 12912
▁defined 12912
▁concerning 12903
▁King 12899
▁Personal 12893
▁Plate 12890
▁Sichuan 12882
▁bank 12880
▁thinking 12880
▁Mu 12877
▁son 12870
▁specify 12870
▁Media 12866
▁humans 12861
▁truth 12861
▁opportunities 12857
▁orders 12844
▁York 12842
▁Bush 12838
▁instance 12836
▁scenery 12836
▁5. 12826
▁allowing 12825
▁nor 12811
▁saying 12808
80 12807
▁studies 12801
▁investigation 12793
▁Lord 12792
▁Play 12792
▁folder 12792
▁Okinawa 12790
▁prepared 12779
▁characters 12773
▁Vi 12767
▁actions 12765
▁alone 12750
▁techniques 12748
▁responsibility 12744
▁advantage 12738
▁troll 12735
▁Tour 12731
▁disk 12730
va 12729
▁drivers 12724
▁blog 12700
▁vast 12693
▁bridge 12686
▁Top 12679
▁effort 12671
▁Store 12669
▁author 12669
▁mouth 12662
Folder 12659
▁artists 12653
07 12647
▁URL 12645
▁Hu 12640
▁Ri 12639
▁Real 12636
▁recovery 12627
▁planet 12619
▁covered 12617
▁helps 12617
▁load 12612
ical 12598
▁domestic 12596
▁landscape 12595
▁sector 12595
▁Hall 12581
▁Czech 12574
▁cable 12569
▁markets 12558
▁LIMU 12553
21 12549
ynow 12538
▁himself 12536
▁Files 12533
▁Lu 12530
▁hear 12509
▁forms 12506
yu 12500
▁discount 12496
▁wrong 12491
▁500 12490
▁Solving 12488
▁Its 12472
cy 12450
▁Due 12450
ries 12446
▁Foundation 12422
.11.27 12387
For 12385
ad 12384
▁2018.06.2 12381
▁scenes 12377
▁met 12375
2016.06.14 12366
▁changing 12364
▁detection 12354
▁exit 12345
▁suddenly 12343
▁Law 12337
om 12336
▁2011 12335
▁Hi 12334
▁layer 12334
▁Canadian 12330
▁Director 12325
▁fear 12325
▁assistance 12324
iv 12320
▁la 12307
▁articles 12304
▁contribute 12296
▁finish 12286
▁permitted 12279
sen 12276
▁Code 12275
▁reference 12270
pro 12254
▁benefit 12254
over 12252
▁looked 12240
▁corner 12238
▁participate 12235
zo 12233
▁mechanical 12229
▁Get 12222
▁Safety 12221
▁cloud 12214
▁° 12213
▁influence 12209
▁hall 12204
▁explained 12191
▁thin 12190
▁band 12185
13 12170
▁explain 12170
▁f 12158
▁edge 12155
▁pick 12151
▁drink 12149
▁showing 12146
primer 12145
▁Set 12142
▁Shanghai 12141
▁OS 12126
tra 12119
▁Are 12117
・ 12114
▁virtual 12111
▁Map 12107
▁seven 12104
IN 12098
▁websites 12094
▁filled 12090
00 12082
?" 12078
▁mid 12065
ja 12064
▁Post 12062
ph 12053
▁Republic 12044
▁German 12038
▁SCHEDULE 12028
▁JKT 12027
TM 12026
use 12026
my 12014
▁soil 12005
05 12002
▁evidence 11999
▁Don 11998
▁Han 11998
▁partner 11998
▁architecture 11996
▁Obama 11995
▁JPY 11994
▁act 11984
▁memes 11981
90 11977
▁Those 11974
▁Wish 11968
▁smaller 11966
▁manage 11963
▁electric 11954
▁disaster 11945
▁fill 11945
ron 11935
▁Fandom 11933
▁expand 11929
▁obtained 11925
▁colour 11920
▁dust 11914
China 11912
▁machines 11907
▁TRY 11898
▁reading 11896
press 11893
▁copper 11889
▁stars 11885
▁2000 11870
▁Yes 11869
▁Details 11865
▁budget 11864
▁behavior 11863
▁evening 11860
Photos 11859
▁intended 11855
▁CGI 11848
▁Before 11842
▁PM 11838
▁Line 11827
▁policies 11822
▁Best 11821
▁businesses 11820
▁resistance 11816
▁transport 11815
▁everywhere 11812
▁voice 11811
▁myself 11810
▁aim 11797
▁announcement 11791
▁spot 11791
▁Music 11790
▁occurred 11779
▁reduction 11779
▁conducted 11775
▁joint 11772
▁fruit 11769
▁transmission 11763
▁reached 11760
▁sold 11759
red 11754
▁channels 11754
▁mail 11745
▁arise 11742
ju 11739
▁implementation 11738
ious 11733
▁bright 11731
▁Western 11729
▁sale 11729
▁bed 11722
▁exercise 11719
▁Street 11716
▁mission 11716
▁Beijing 11714
▁CAD 11713
▁MP 11712
▁clicking 11707
▁rare 11705
▁Website 11702
▁27 11700
▁browse 11697
▁forest 11696
▁Private 11687
▁Description 11686
▁2010 11685
▁couple 11684
▁Copy 11683
▁properly 11670
▁comprehensive 11669
▁vehicles 11669
▁element 11666
▁overall 11664
▁negative 11662
▁battery 11651
▁Osaka 11648
▁upper 11648
▁sweet 11646
~ 11641
$ 11634
▁Ar 11632
▁communities 11630
▁library 11629
ray 11626
ub 11623
▁minute 11623
▁procedures 11619
08 11616
▁Master 11616
▁beach 11599
▁easier 11574
▁Club 11573
▁units 11573
▁Omega 11572
▁infrastructure 11569
qui 11567
▁familiar 11567
ring 11562
▁owner 11561
can 11558
▁brain 11554
▁radio 11541
▁worth 11532
▁sets 11512
▁coffee 11502
style 11496
yo 11494
▁accurate 11487
▁walking 11487
▁26 11469
▁vary 11465
▁audience 11464
▁saved 11463
▁Shrine 11461
CO 11459
▁6. 11456
▁straight 11456
▁annual 11454
▁Long 11452
▁Moreover 11450
▁imp 11447
▁impression 11447
▁race 11438
▁Foreign 11436
▁Collection 11435
▁Ga 11435
▁Ad 11427
▁2, 11423
sha 11421
▁films 11417
▁task 11414
▁ceremony 11413
▁Color 11407
ME 11401
oc 11397
▁ocean 11395
zi 11394
▁continuing 11392
▁Chengdu 11389
▁Indonesia 11389
18 11383
▁Guide 11381
▁London 11380
▁factory 11377
▁MDR 11374
▁trading 11373
▁Wiki 11372
▁becoming 11370
▁serious 11369
▁formats 11368
▁Wigs 11367
▁Turkish 11345
▁experienced 11345
su 11344
▁Share 11339
▁accommodation 11328
.1 11319
ified 11317
▁west 11317
▁lake 11316
▁integrated 11310
▁reduced 11308
mb 11301
▁repair 11298
▁spend 11292
▁experiences 11291
▁delivered 11279
▁animals 11278
▁slowly 11274
▁Life 11273
▁View 11269
▁backup 11266
▁templates 11263
▁carbon 11262
▁regional 11262
▁lose 11257
CA 11246
▁express 11245
▁removed 11242
▁TAG 11236
▁families 11232
▁stable 11226
▁80 11224
▁closed 11221
▁sides 11212
▁seconds 11208
06 11205
▁FREE 11190
▁wearing 11185
▁solid 11164
▁Allow 11159
▁eight 11152
▁numerous 11151
Com 11149
▁species 11144
NO 11139
▁expression 11139
LE 11133
▁plug 11131
▁bouquets 11117
▁updated 11113
▁movies 11107
▁push 11104
▁Exchange 11101
▁partners 11095
▁Settings 11091
▁adjust 11090
▁determined 11086
▁leaving 11086
▁versions 11086
▁detail 11085
▁ride 11080
tsu 11079
such 11071
▁login 11066
type 11062
house 11053
▁EUR 11050
▁Twitter 11049
▁extreme 11049
▁languages 11047
▁arrangements 11046
▁director 11034
70 11032
ran 11025
▁starts 11025
▁cheap 11024
AC 11022
▁monitoring 11020
▁logo 11019
▁states 11018
▁El 11017
▁comment 11012
▁formed 11009
▁campaign 11008
ep 10999
▁Men 10995
cha 10991
▁measure 10991
▁st 10991
ator 10990
▁Figure 10987
ins 10984
▁Shin 10981
xi 10974
▁degrees 10974
▁committed 10971
、 10971
▁sleep 10964
▁driving 10957
▁sustainable 10953
▁continues 10950
▁Control 10948
▁discovered 10941
▁certified 10940
OR 10936
No 10934
▁independent 10924
▁100% 10922
▁smooth 10921
▁opt 10920
▁conference 10916
▁spaces 10902
24 10901
▁Swedish 10899
top 10893
▁Brazilian 10892
▁Ya 10891
< 10887
▁historical 10884
▁visible 10884
▁die 10878
▁Thailand 10877
▁salt 10877
▁certainly 10875
▁viewing 10875
▁failure 10868
19 10867
▁hidden 10861
▁orbit 10850
▁Light 10848
▁gain 10844
res 10838
iPhone 10835
▁plastic 10828
ual 10798
▁recorded 10793
▁dead 10788
32 10785
▁Party 10784
▁Report 10780
▁dream 10774
▁variables 10769
▁pussy 10764
36 10760
ging 10757
▁Energy 10757
▁served 10752
▁Award 10751
▁hardware 10748
▁FOR 10747
▁dishes 10746
ped 10738
▁switch 10738
che 10732
▁answers 10731
▁causes 10727
▁Ex 10726
▁founded 10717
▁mix 10716
car 10703
▁register 10696
▁reality 10692
fe 10681
▁Green 10674
▁90 10669
work 10651
▁Blue 10647
▁chat 10643
▁II 10641
▁kept 10637
▁medium 10633
▁challenges 10626
▁vision 10622
▁column 10621
▁functionality 10619
▁Product 10618
▁parameters 10617
▁context 10615
▁respond 10615
ps 10614
") 10612
▁brief 10607
▁USA 10603
▁sounds 10594
▁appeared 10584
▁identify 10584
▁(" 10581
▁finished 10581
▁Another 10576
31 10575
▁iron 10572
ever 10568
▁NASA 10567
wigs 10564
▁win 10558
off 10553
▁previously 10552
▁helpful 10551
▁import 10550
▁follows 10547
26 10545
▁SE 10545
▁strategy 10545
back 10540
▁Series 10538
▁earlier 10532
▁learned 10531
kin 10530
▁providers 10529
▁despite 10525
▁Under 10519
▁info 10518
▁Women 10506
▁journey 10500
▁noise 10499
▁drug 10495
▁introduce 10495
▁pain 10494
▁displays 10493
▁Fixed 10486
▁Conditions 10477
▁exist 10476
▁restaurants 10476
▁layout 10472
▁church 10470
▁YOU 10469
– 10453
ification 10451
▁powered 10451
▁fit 10442
Do 10440
▁Union 10440
TO 10437
tan 10424
▁Fu 10421
▁shops 10420
▁Protection 10419
▁export 10419
▁truly 10419
▁auto 10418
▁ratio 10412
shan 10402
▁Article 10402
▁affect 10401
related 10400
▁stress 10400
▁criminal 10398
▁realize 10398
▁Gold 10394
▁activated 10393
▁Over 10392
04 10390
▁residents 10390
▁soul 10389
▁rule 10386
▁Welcome 10383
▁Manager 10376
▁tickets 10375
▁parents 10372
35 10370
▁baskets 10369
▁wonderful 10366
▁template 10362
mer 10359
▁castle 10354
NA 10353
02 10351
▁trust 10343
▁except 10342
▁invite 10342
▁bio 10339
▁Next 10336
▁surrounding 10333
▁Act 10331
TA 10327
ward 10326
▁watching 10324
▁Tu 10320
app 10318
▁fo 10313
▁factor 10312
CH 10308
▁SAR 10305
▁wife 10304
▁deleted 10300
▁observation 10299
▁? 10297
▁generally 10294
▁Castle 10293
▁Society 10290
▁Pay 10287
▁limitation 10284
▁recording 10283
▁sending 10283
▁Glass 10281
▁script 10280
let 10276
03 10274
▁wobble 10272
▁sharing 10270
▁ahead 10261
▁income 10260
▁dating 10254
▁chain 10252
▁luggage 10250
▁phase 10249
▁Videos 10245
▁gate 10243
▁Font 10236
▁improved 10232
▁song 10230
▁Show 10224
▁houses 10221
▁silver 10221
▁increasingly 10220
▁cutting 10219
▁Jiuzhaigou 10218
▁300 10213
▁arrived 10210
tri 10206
▁administration 10193
▁testing 10193
board 10185
fi 10185
▁Bi 10184
▁API 10179
▁dinner 10176
▁preview 10176
ET 10165
▁installing 10160
▁exactly 10157
▁refund 10154
▁remote 10154
▁LINE 10152
▁Super 10145
▁Ukrainian 10145
dis 10141
▁RE 10139
▁Two 10128
▁chosen 10112
▁artist 10111
▁Health 10100
▁university 10094
▁instrument 10084
▁quick 10081
▁fix 10079
▁printed 10077
▁rely 10077
▁happened 10066
tin 10059
27 10055
▁Danish 10055
▁suggestions 10049
▁exclusive 10046
scale 10044
▁Ku 10041
▁forces 10037
SA 10026
▁leader 10026
▁poor 10023
▁DO 10016
▁tower 10014
▁nearly 10011
▁sterling 10011
▁~ 10011
▁challenge 10006
▁Norwegian 10004
ice 10003
▁east 9996
▁operate 9994
▁mouse 9991
▁older 9986
▁leaders 9981
▁achieved 9974
▁belongs 9974
bar 9970
▁franc 9969
▁noted 9969
▁speak 9966
low 9965
▁towns 9963
▁critical 9957
▁entrance 9955
▁Arts 9951
▁sheet 9946
fa 9945
▁minimum 9945
▁compliance 9944
ES 9943
▁competition 9940
CC 9935
▁Space 9925
▁thousands 9920
▁Grand 9919
▁decide 9918
▁arts 9914
▁processed 9912
ide 9908
▁represent 9908
▁currency 9902
▁museum 9902
▁wet 9898
▁wants 9894
▁girl 9888
37 9882
▁initial 9879
ther 9877
▁suggest 9876
▁Thank 9875
▁GBP 9873
▁Crypto 9870
▁Their 9870
▁brands 9868
▁desired 9865
▁represents 9860
▁meat 9859
▁fiscal 9855
▁Channel 9854
▁AUD 9853
▁pool 9850
▁Language 9847
▁THIS 9847
▁recognized 9847
▁extensive 9837
La 9830
▁marked 9828
▁route 9828
▁tracks 9827
▁combined 9826
▁Auto 9823
▁cm 9823
▁nearest 9822
▁Human 9820
▁Plan 9820
▁sand 9819
▁enables 9818
▁manual 9815
ichi 9814
▁Professor 9812
▁visiting 9812
▁creative 9810
▁innovative 9807
▁wire 9807
▁Mountain 9804
▁abroad 9797
▁secret 9797
▁updates 9796
▁circumstances 9760
pre 9758
▁indicate 9758
▁president 9757
dy 9755
▁Jamiroquai 9750
▁organized 9750
▁enabled 9747
cur 9742
▁relatively 9738
van 9733
▁thick 9733
▁lunch 9729
▁perhaps 9725
▁expressed 9723
▁Well 9716
▁Buddhist 9715
▁adding 9713
▁instructions 9705
▁seats 9705
▁tube 9705
▁mo 9702
▁female 9697
ee 9695
▁Pound 9695
▁valid 9692
▁schools 9691
▁inner 9687
▁peak 9683
▁elite 9681
▁letter 9679
▁RUB 9677
▁net 9674
▁efficient 9670
100 9666
ber 9664
▁district 9663
▁fabric 9661
▁patient 9661
:30 9660
▁Community 9658
▁SEK 9653
▁classic 9653
▁Lo 9652
▁70 9648
▁Who 9646
▁primary 9643
▁researchers 9642
▁discussion 9639
▁Xi 9633
▁guest 9632
▁pure 9630
▁Graduate 9629
▁advice 9629
log 9624
▁krona 9624
45 9620
▁Wi 9616
der 9614
▁occurs 9613
▁colleagues 9612
▁records 9608
▁Call 9605
ken 9604
29 9603
▁presentation 9603
ware 9602
▁theater 9601
▁Up 9598
▁Friday 9596
val 9594
▁Blockchain 9592
▁firm 9592
set 9589
ン 9588
▁healthy 9585
▁Application 9583
cc 9579
▁controls 9577
▁ruble 9575
▁smart 9575
EL 9573
▁satellite 9564
▁behalf 9562
!! 9561
▁10:00 9558
▁Main 9551
▁History 9549
▁showed 9544
▁CNY 9542
▁implement 9535
ip 9533
fu 9530
▁earthquake 9529
▁trend 9527
▁navigation 9526
▁Spanish 9522
▁establish 9522
▁proper 9520
▁prevention 9519
▁rand 9519
▁CHF 9518
▁western 9518
▁scientific 9514
▁Florist 9508
form 9502
▁citizens 9501
▁editing 9501
▁Canada 9499
▁definitely 9498
▁Ver 9494
shima 9490
▁ring 9489
▁CZK 9485
▁connections 9482
▁Apple 9481
▁Board 9481
hu 9477
▁Love 9477
▁engineering 9475
▁KRW 9474
▁Will 9474
▁ingredients 9472
▁analytical 9465
▁ZAR 9462
sy 9461
▁httpd 9455
▁specifications 9455
▁UTC 9451
▁Material 9448
port 9443
▁bound 9443
han 9441
▁comments 9435
▁Audio 9434
▁crown 9434
▁designs 9434
▁flight 9431
[ 9419
▁bo 9413
▁pull 9408
▁Jo 9407
As 9404
don 9404
▁Star 9402
▁styles 9402
▁serving 9399
▁index 9393
▁NOK 9389
▁fees 9384
▁fans 9381
▁brings 9374
▁Start 9372
vi 9370
▁persons 9369
▁maps 9368
▁HKD 9359
▁boat 9353
▁SGD 9351
▁translation 9347
▁spent 9342
pt 9339
▁DKK 9336
▁Shift 9332
▁Good 9327
▁handling 9326
▁dial 9324
▁strive 9324
▁Microsoft 9322
▁career 9322
▁electricity 9319
▁Through 9317
▁significantly 9317
▁emissions 9309
▁liquid 9309
▁bodies 9307
ow 9304
▁participation 9304
55 9302
▁Kim 9302
▁motion 9301
▁differ 9294
▁forget 9294
▁funds 9293
▁runs 9291
▁lira 9286
▁measurement 9285
tu 9282
▁16. 9278
▁manufacture 9277
▁» 9275
▁origin 9270
▁NZD 9269
▁sensor 9269
Japanese 9265
▁Key 9264
▁bought 9264
▁Termini 9263
▁listen 9263
▁capable 9262
▁coast 9261
site 9259
▁BRL 9257
▁Ki 9253
000 9252
▁Ru 9251
95 9248
▁riyal 9243
▁award 9239
▁motor 9239
▁Automatic 9238
▁topic 9237
see 9235
▁slow 9235
▁UAH 9234
▁Ocean 9232
sp 9230
▁hryvnia 9228
▁encourage 9221
▁koruna 9220
▁pax 9220
▁2003 9215
▁cameras 9214
▁whom 9211
MS 9207
▁anytime 9204
▁Bay 9202
▁institutions 9202
▁Second 9199
▁unless 9190
hara 9187
▁crystal 9187
▁statement 9184
▁wave 9184
▁survey 9182
▁club 9180
kan 9175
▁USB 9174
RC 9169
▁assets 9167
▁secured 9167
▁seeing 9167
▁preferences 9164
▁goals 9162
500 9158
▁Furthermore 9158
▁authors 9157
ck 9152
▁Customer 9149
▁knows 9149
▁waves 9148
Free 9146
▁platforms 9143
ven 9141
▁anywhere 9141
▁separated 9137
ions 9136
▁Both 9130
▁authority 9130
▁iOS 9130
▁innovation 9125
▁sp 9121
tube 9119
▁biggest 9117
▁provider 9117
▁industries 9115
▁Know 9111
▁Israel 9097
▁quiet 9094
ture 9091
▁standing 9091
▁Multi 9083
▁Ne 9080
ok 9071
▁Te 9070
▁controlled 9070
▁passage 9068
▁constantly 9063
▁ca 9061
▁improvement 9061
▁networks 9060
▁privacy 9060
▁Last 9057
-2 9051
▁John 9051
▁insurance 9039
▁gradually 9034
▁Mt 9033
▁Editor 9032
q 9030
▁Game 9030
▁crowd 9029
▁plates 9021
du 9017
AR 9016
▁string 9013
including 9005
▁fight 9005
▁DVD 9001
▁birth 8996
▁Tai 8990
▁holiday 8988
▁situations 8988
tor 8984
▁planned 8983
▁Studio 8978
▁Spain 8974
▁IS 8968
not 8966
▁beer 8961
▁Room 8958
▁manufacturers 8957
▁practical 8954
▁helping 8952
istic 8951
▁trouble 8944
▁Agreement 8942
ut 8940
ami 8936
mura 8936
▁computers 8933
▁cream 8933
▁northern 8928
▁relations 8928
But 8927
▁cycle 8923
▁assigned 8922
▁concerned 8921
▁Fuji 8920
▁wild 8917
▁integration 8916
▁creates 8905
▁FAQ 8903
▁Youth 8901
▁miles 8898
▁centre 8894
DO 8893
▁widely 8892
▁attempt 8889
▁Greek 8886
▁bath 8886
▁domain 8881
▁Working 8877
▁emergency 8875
▁accounts 8874
▁ho 8873
▁concerns 8867
fer 8861
▁seek 8861
ming 8860
▁British 8860
▁faster 8860
▁Sunday 8859
▁variable 8859
our 8856
ient 8855
▁Sales 8854
SI 8852
lan 8849
▁feed 8849
▁Sha 8847
▁authentication 8842
▁riding 8839
▁Team 8838
▁tail 8836
▁Pi 8832
▁stories 8830
▁Food 8826
▁permanent 8822
AT 8819
De 8819
▁eating 8819
▁keeping 8818
▁dish 8817
▁workers 8816
▁specifically 8814
▁alternative 8813
▁drawing 8810
▁unable 8807
ura 8805
▁desire 8799
▁Ju 8798
▁wiki 8798
▁Movement 8796
▁teams 8795
▁confirmed 8793
▁streets 8792
level 8790
▁walls 8787
▁Ten 8786
▁transferred 8781
tain 8773
▁gallery 8773
▁managed 8773
▁border 8772
▁categories 8772
ah 8770
▁equal 8768
# 8762
▁southern 8762
▁raise 8760
▁containing 8757
▁convenient 8756
▁cash 8754
▁flavor 8752
▁powder 8749
Other 8738
kawa 8737
▁Wikia 8737
▁MILFS 8736
▁nearby 8735
▁consult 8718
▁resistant 8718
64 8714
▁Indian 8713
▁introduction 8707
▁sin 8706
ger 8705
▁windows 8699
▁illegal 8689
bra 8688
▁indeed 8685
▁2007 8683
▁diseases 8683
22 8675
light 8672
rate 8671
▁Conference 8666
▁photographs 8666
▁transportation 8665
!" 8664
BA 8661
cing 8661
▁Culture 8659
▁Edo 8654
▁Cal 8653
▁album 8653
▁selling 8652
▁studying 8651
▁receiving 8650
▁Iran 8644
▁terminal 8638
▁stopped 8636
ON 8635
DI 8634
▁newest 8632
nes 8629
▁l 8629
▁signed 8627
▁Town 8624
▁joined 8622
▁Thanks 8621
▁liable 8616
sur 8614
▁Communications 8614
OL 8598
▁promoting 8586
▁resolve 8581
▁sit 8580
▁modules 8579
▁urban 8578
▁Organization 8572
king 8560
▁Email 8559
▁activate 8559
▁clothes 8556
▁Trump 8552
▁died 8552
▁visual 8550
▁clouds 8549
▁expensive 8549
▁increases 8549
▁pretty 8545
▁extent 8544
▁sugar 8544
▁technique 8543
▁reads 8540
igh 8539
▁failed 8536
▁issued 8535
▁sorry 8535
sis 8534
▁Emperor 8534
▁accuracy 8532
ists 8531
▁bi 8528
▁Village 8525
▁Full 8524
▁draw 8519
▁comfortably 8517
RO 8516
▁JAV 8516
▁Choose 8510
▁talking 8510
▁voltage 8508
▁Trade 8498
ana 8497
▁signs 8494
▁kilometers 8485
IP 8481
▁consists 8480
▁formation 8477
▁FANDOM 8476
▁wooden 8475
▁divided 8471
▁submit 8468
▁closer 8465
▁Release 8464
▁Such 8464
▁setup 8460
▁Inter 8454
▁interior 8449
▁strengthen 8449
▁Spring 8446
▁Education 8442
▁claim 8441
▁customize 8439
UN 8438
▁Se 8436
▁Meeting 8432
ley 8428
▁Seoul 8427
▁addresses 8422
▁pair 8420
▁AMeDAS 8406
▁Non 8405
▁competitive 8405
▁Tibetan 8400
▁correctly 8399
art 8395
▁gone 8390
▁colours 8386
▁turns 8383
▁mining 8382
▁operated 8381
▁Adobe 8369
33 8361
aki 8361
▁Book 8359
IC 8355
pan 8353
box 8351
cat 8349
▁Boys 8346
▁depth 8340
▁lease 8340
long 8338
▁definition 8323
gg 8322
lip 8315
▁posts 8315
▁rapid 8313
▁cap 8309
vis 8307
▁calls 8306
▁Tsu 8300
▁horse 8299
▁painting 8298
room 8294
▁missing 8294
ot 8293
▁focused 8293
clock 8292
▁angle 8290
▁29 8289
▁editor 8288
▁Place 8286
▁Pan 8284
▁roof 8281
▁exact 8279
av 8276
▁targeted 8270
▁roll 8269
▁stream 8269
▁attached 8266
▁Cloud 8261
▁Have 8259
▁35 8258
▁Railway 8258
▁promotion 8258
uff 8256
AN 8252
▁raw 8251
▁Third 8249
▁enforcement 8248
▁Steel 8246
▁acts 8235
▁spots 8235
▁Netherlands 8234
▁consideration 8233
▁mention 8233
ap 8226
Wallpapers 8225
23 8219
▁Sho 8219
▁45 8218
▁al 8218
▁investors 8217
34 8211
click 8210
▁explore 8206
▁differences 8201
▁n 8199
MO 8195
▁implemented 8195
▁optical 8195
▁typical 8193
▁insert 8191
▁2.4 8190
▁giant 8189
▁temperatures 8189
▁elegant 8188
▁Division 8184
▁framework 8180
▁milk 8180
▁organic 8176
which 8175
▁lived 8172
▁outlet 8169
▁Learn 8167
▁ball 8167
▁greatly 8166
39 8159
▁broken 8152
▁YOUR 8149
▁patterns 8140
▁(1) 8139
▁2009 8135
ek 8133
▁observed 8129
▁originally 8125
▁schedule 8124
▁stability 8121
▁telephone 8116
▁hosted 8114
85 8113
° 8112
ab 8110
TE 8104
▁escape 8099
war 8094
▁resulting 8094
▁Dial 8093
▁mu 8086
▁depends 8084
▁fair 8083
▁header 8082
▁reserve 8080
▁Middle 8079
▁Studies 8077
▁150 8076
When 8075
▁mis 8075
▁Palace 8070
▁amazing 8069
▁Old 8068
▁recognition 8065
▁Engineering 8063
▁Activities 8054
▁Find 8054
▁strange 8050
▁battle 8048
▁cock 8046
▁breakfast 8044
ple 8042
star 8042
▁cooking 8041
▁treated 8041
▁seat 8036
DA 8035
▁cast 8035
▁cup 8030
bin 8028
kai 8028
▁pm 8019
▁restore 8019
▁cheaper 8018
▁venue 8018
▁instruments 8011
▁apartment 8009
▁foundation 8007
gar 8004
▁Dai 8004
。 8004
▁knew 8002
und 8000
▁sizes 7997
▁strictly 7996
▁detect 7984
ade 7982
quality 7977
▁faith 7975
▁inform 7975
▁Change 7974
▁plus 7973
▁DELIVERY 7971
▁tasks 7971
▁Games 7970
▁Court 7969
▁Features 7968
▁brother 7962
▁Big 7959
▁1: 7954
uri 7951
made 7949
▁7. 7949
▁Industry 7948
▁scan 7948
▁risks 7947
ics 7943
▁(2) 7941
▁identified 7941
ants 7940
▁lo 7939
▁parameter 7937
▁pot 7937
▁movements 7929
▁Affairs 7921
▁End 7921
▁ma 7919
ash 7916
▁Monday 7916
▁concrete 7914
86 7913
▁helped 7910
Fonts 7907
▁FLORI 7900
▁※ 7900
▁meal 7897
▁th 7894
▁luxury 7891
▁Location 7889
ose 7888
▁apart 7883
MI 7881
▁weapons 7881
ase 7880
▁CA 7878
des 7877
▁Am 7877
▁Hokkaido 7870
ised 7868
▁treat 7867
▁Hot 7866
▁agent 7864
▁Cyclone 7863
▁flash 7863
▁alien 7862
▁classes 7860
▁32 7859
▁raised 7859
▁specialize 7858
▁expansion 7857
sol 7855
▁indicates 7852
▁generate 7850
▁Cup 7843
▁po 7840
▁Card 7839
▁theory 7839
▁vendors 7839
▁concert 7833
▁Images 7830
▁acid 7830
Con 7828
sh 7827
▁distributed 7822
▁capabilities 7820
Please 7819
book 7813
▁fan 7813
▁dynamic 7812
▁agreed 7806
▁pan 7803
name 7802
-3 7801
▁capture 7797
▁viewed 7795
▁Three 7793
ations 7792
▁shoes 7792
75 7790
▁79 7788
▁massive 7779
ft 7775
▁Stainless 7773
▁Environment 7772
▁OUR 7770
▁trademark 7767
38 7766
ute 7764
▁electrical 7762
Ma 7760
▁aspects 7755
▁v 7755
▁Islands 7747
uck 7746
▁begins 7746
▁conversion 7746
▁tracking 7746
▁emails 7744
▁withdraw 7744
ct 7743
▁precision 7739
ments 7736
mic 7736
ency 7733
ological 7730
▁examples 7730
▁31 7729
▁intellectual 7727
▁discuss 7723
tre 7721
▁Maps 7718
▁trends 7717
▁Class 7716
▁careful 7712
▁satisfied 7711
ration 7698
pi 7697
ren 7695
▁magazine 7695
▁soup 7692
▁Environmental 7690
▁Switzerland 7690
▁moon 7686
▁Ben 7684
lar 7680
ear 7674
▁Tw 7673
46 7672
Self 7668
,5 7667
tal 7667
▁Taka 7662
▁couldn 7662
▁Forum 7658
▁Centre 7655
▁awareness 7654
GA 7653
▁Prime 7652
▁Edit 7651
▁plays 7651
▁taxes 7648
list 7646
▁Customs 7646
▁recover 7645
▁entering 7639
▁police 7638
LA 7636
▁searching 7636
▁Taipei 7634
▁Wikipedia 7630
▁contrast 7627
▁modified 7626
▁causing 7624
Ro 7623
▁Sports 7623
▁afternoon 7623
▁seemed 7623
▁lens 7622
▁commitment 7619
▁invited 7619
PA 7613
▁2008 7612
▁define 7612
▁Us 7610
known 7606
▁Tri 7605
▁kitchen 7603
▁hundred 7597
▁virus 7596
▁marks 7595
▁Read 7594
▁requested 7592
▁conventional 7591
▁] 7586
▁Mexico 7575
▁hole 7575
▁arrival 7573
▁browsing 7570
▁segment 7563
▁lies 7562
▁cuisine 7559
▁Realm 7556
Google 7552
▁replace 7552
▁Onlinesaleus 7547
▁cat 7546
▁contemporary 7544
▁designer 7544
▁distribute 7541
Pro 7540
▁autumn 7540
▁profit 7538
▁expanding 7536
▁2020 7533
▁Quality 7532
gra 7531
row 7531
▁outdoor 7531
▁performances 7529
▁delay 7528
▁improving 7528
▁2001 7526
▁Rotary 7521
▁leather 7520
▁clock 7518
▁perspective 7518
▁texture 7516
▁obvious 7515
▁EU 7514
ties 7511
▁Dis 7511
▁prefer 7509
▁Sen 7507
▁Skype 7503
▁opens 7503
▁sightseeing 7502
▁Industrial 7500
▁lights 7497
▁reducing 7497
▁worship 7497
▁severe 7494
ned 7492
▁practices 7492
▁ON 7486
▁Force 7484
▁residence 7481
tel 7477
▁2: 7477
serv 7475
▁revealed 7475
IS 7473
▁BE 7473
▁SERVICES 7473
▁forth 7469
▁Statistics 7468
▁charges 7465
▁mankind 7464
with 7462
▁tradition 7459
▁Sustainability 7457
▁eventually 7456
▁lots 7456
ably 7452
▁rising 7450
▁Like 7447
AD 7444
▁Du 7444
▁Finally 7444
▁Look 7444
▁attended 7444
▁reasonable 7442
▁reaction 7440
▁Summer 7438
▁sauce 7437
ix 7436
▁personnel 7431
▁bear 7425
▁referred 7425
▁empty 7412
▁majority 7410
read 7408
all 7406
▁Sky 7406
▁adult 7406
▁upload 7405
▁courses 7403
▁errors 7401
LO 7399
ham 7396
▁Nations 7393
gan 7387
▁constant 7387
What 7385
▁(1 7385
▁ha 7384
▁Mode 7380
▁Mon 7380
▁fishing 7377
▁nation 7373
▁Kingdom 7368
class 7366
▁spiritual 7365
▁positions 7363
44 7360
vent 7358
▁passing 7358
▁Gu 7355
▁attractions 7352
▁discover 7351
-5 7348
▁songs 7348
▁Turkey 7345
▁miss 7342
▁pitch 7338
OS 7336
▁evaluation 7336
▁participated 7335
▁impossible 7334
▁Afghanistan 7329
▁Out 7327
▁matters 7326
▁acknowledge 7324
TH 7322
▁automation 7316
▁performing 7316
▁Number 7315
▁vegetables 7313
▁fundamental 7312
▁transactions 7308
▁Kids 7306
▁apps 7306
▁regularly 7298
▁Summary 7297
ier 7296
▁disclose 7293
▁sort 7292
▁superior 7289
▁PRO 7287
SP 7286
▁disc 7284
IG 7283
▁designated 7276
▁cryptocurrency 7275
▁pursue 7273
▁trial 7271
▁BookingSuite 7269
▁captured 7268
▁Min 7265
▁banks 7265
▁Save 7264
▁Rinpoche 7263
▁Request 7262
▁label 7262
▁speech 7260
ery 7259
▁Anti 7259
IA 7257
▁GPS 7257
▁featured 7256
▁Social 7253
DE 7252
▁communicate 7252
▁officials 7249
▁CEO 7245
▁cancel 7244
▁Yo 7242
▁predicted 7242
PC 7241
▁Public 7241
▁Square 7240
▁wash 7240
ile 7239
▁NO 7232
▁claims 7232
ect 7231
▁discussed 7228
▁workshop 7226
▁adopted 7223
DB 7219
TION 7219
ulation 7219
▁globe 7214
▁Contest 7213
▁k 7211
▁structures 7210
▁reputation 7209
RI 7207
▁Rights 7206
▁arranged 7205
pon 7203
▁produces 7201
lam 7200
▁Local 7200
AM 7197
fin 7197
▁Standard 7197
▁holidays 7197
▁tests 7196
▁Event 7195
▁Ji 7193
▁assessment 7193
▁Cultural 7191
▁male 7191
▁400 7190
▁civil 7190
▁remaining 7188
▁upgrade 7188
▁minor 7185
▁aircraft 7181
▁anniversary 7181
▁retain 7177
▁watched 7176
▁Alexander 7172
▁sake 7167
▁wrote 7162
▁absolutely 7161
▁leads 7154
▁drag 7153
▁Family 7152
▁bowl 7152
▁edition 7149
▁thousand 7149
99 7141
▁Child 7139
▁indicated 7138
▁busy 7135
▁Study 7130
mit 7128
▁2017. 7127
Pa 7124
▁Word 7124
▁Print 7123
ition 7117
▁labor 7113
▁Prof 7111
▁Land 7107
▁normally 7105
right 7104
▁producing 7104
▁appreciate 7103
▁clothing 7102
▁narrow 7100
▁rapidly 7097
uring 7096
jav 7093
▁effectively 7093
hand 7092
▁operates 7089
▁continuous 7086
▁sitting 7085
▁assist 7084
Be 7082
▁court 7082
▁enjoyed 7082
▁primarily 7080
illa 7076
LY 7073
-7 7071
There 7066
Fi 7064
▁fucking 7064
▁representative 7064
▁province 7062
▁quarter 7061
▁Charm 7055
▁sta 7054
▁row 7050
▁shot 7049
moto 7048
▁flexible 7047
▁parking 7044
▁plane 7044
() 7043
▁representation 7043
▁Fleet 7040
▁Nara 7037
▁Cross 7033
mun 7032
▁opposite 7031
AP 7029
▁thank 7027
▁catch 7026
nt 7024
▁golf 7024
PO 7023
▁ob 7023
▁Head 7020
▁expanded 7018
▁surrounded 7018
▁drugs 7013
ris 7011
▁reliability 7007
▁Advanced 7006
▁2004 7004
▁Users 7004
▁greatest 7002
▁youth 7001
▁Among 7000
head 6996
▁Si 6995
▁stands 6995
yl 6994
▁precious 6994
ons 6992
▁baby 6991
▁governments 6991
▁California 6988
▁engage 6988
▁Amsterdam 6987
▁Christmas 6986
▁conflict 6986
▁CONTENT 6983
▁attractive 6982
▁Hillary 6978
called 6971
▁Library 6971
▁Che 6970
▁width 6969
tation 6968
▁exists 6967
66 6966
▁servers 6966
▁facing 6963
▁owned 6963
ify 6961
▁Roman 6961
▁husband 6958
rt 6957
▁preparation 6954
▁convenience 6952
▁approved 6949
▁sudden 6949
-4 6947
▁WiFi 6947
▁worry 6946
47 6944
▁diverse 6941
▁unknown 6940
▁Sitemap 6939
▁keyboard 6938
▁packaging 6938
▁strongly 6936
▁Blog 6934
▁FROM 6931
ign 6929
▁actively 6925
▁Agency 6924
▁fly 6922
tter 6916
making 6914
▁Church 6912
▁awarded 6909
▁manager 6907
65 6906
▁nine 6906
▁Events 6904
▁rotation 6904
▁sufficient 6903
▁Dan 6902
▁gentle 6902
ving 6901
▁rose 6901
pot 6895
▁Nagoya 6895
▁scheduled 6895
ue 6894
▁compact 6891
▁AI 6889
▁prove 6888
par 6887
public 6884
▁1) 6880
▁everyday 6880
▁sensitive 6879
▁patent 6878
▁Table 6876
▁realized 6876
41 6875
ino 6873
▁Portal 6872
oo 6870
▁Record 6870
▁meetings 6868
▁leadership 6864
▁estimated 6862
▁kids 6860
▁gifts 6859
▁passion 6859
cal 6855
ella 6851
lus 6848
▁transaction 6848
▁dollars 6847
▁Malaysia 6846
▁Releases 6845
▁tables 6843
▁priority 6839
▁extended 6838
ens 6837
▁purchased 6837
▁warning 6836
▁Philippines 6833
▁sat 6832
▁Pe 6828
▁king 6828
▁du 6825
49 6824
▁partnership 6824
▁temporary 6824
▁wallet 6822
▁grand 6821
wi 6814
▁mostly 6814
▁(19 6813
▁Source 6813
▁entertainment 6812
▁wheel 6812
My 6811
-8 6807
cell 6807
▁Commission 6805
▁delivering 6803
WA 6802
▁reflect 6802
rin 6801
▁Hand 6799
cle 6797
▁diamond 6792
▁lighting 6790
▁logos 6789
▁aid 6788
point 6787
▁Building 6786
matic 6785
▁blockchain 6785
▁directives 6785
gin 6782
▁cent 6782
▁closely 6781
▁bamboo 6780
shu 6777
▁turning 6777
▁environments 6776
ero 6772
▁4, 6772
PS 6770
▁studio 6770
▁8. 6766
▁te 6765
▁diameter 6764
ker 6753
IL 6752
▁adults 6747
▁dangerous 6747
▁density 6743
▁Ken 6742
▁animal 6739
▁Thai 6733
▁Available 6731
▁arrive 6731
▁ordinary 6731
▁Meanwhile 6727
▁Mobile 6725
med 6723
▁Mother 6723
▁exciting 6721
ef 6717
▁proposed 6716
ui 6715
bs 6714
▁ends 6712
▁pen 6712
▁Course 6710
▁leg 6710
▁hundreds 6709
▁medicine 6701
▁traveling 6701
▁node 6699
▁Spirit 6698
▁toolbar 6698
▁modif 6694
▁Tower 6692
▁Cooperation 6690
▁Apparel 6686
▁threat 6686
▁circuit 6685
SC 6684
▁branch 6683
▁Executive 6682
▁Cat 6681
▁occu 6675
▁broad 6673
▁Experience 6672
▁doctor 6670
▁Bag 6668
▁accident 6668
▁thread 6666
▁exchanges 6659
▁characteristic 6652
▁regardless 6651
ria 6650
▁sight 6650
▁Rock 6644
▁Wu 6642
▁scientists 6642
▁Florence 6640
▁su 6640
▁blocks 6634
__ 6633
▁KDDI 6632
▁principle 6632
▁2005 6630
▁honor 6628
▁elderly 6627
Mo 6626
▁signature 6624
▁Imperial 6623
▁FLOWERS 6622
▁drawn 6619
▁Port 6617
▁Try 6615
▁carrying 6615
▁posted 6615
▁sole 6615
▁Gallery 6614
▁inspection 6612
▁wireless 6607
COM 6603
▁Questions 6601
▁stuff 6596
▁bl 6594
▁Beach 6591
▁overview 6590
▁stainless 6590
▁Bridge 6589
▁comparison 6585
km 6583
▁Multiple 6578
▁Hit 6576
mate 6572
▁signals 6571
▁Plus 6567
▁mixed 6567
take 6566
▁floral 6565
▁symptoms 6565
▁attend 6563
▁centers 6563
▁craft 6562
ld 6559
▁loved 6558
▁2006 6557
ular 6556
Me 6554
▁boxes 6553
▁Connect 6548
▁Za 6548
▁calendar 6544
▁false 6542
▁professionals 6542
▁tablet 6540
▁daughter 6539
▁eastern 6539
▁Ministers 6536
▁Right 6536
▁OpenImageBank 6535
▁Xhamster 6535
▁MO 6532
ack 6529
▁parent 6523
▁reviews 6523
cent 6517
▁Export 6517
▁Based 6515
▁joy 6514
TS 6511
▁6, 6508
▁vi 6507
▁Sakura 6502
sk 6499
▁suffering 6498
▁laser 6496
▁score 6496
▁Analytics 6494
▁attempts 6494
▁configure 6493
▁Greece 6491
▁native 6491
▁macro 6485
▁approval 6483
▁Spa 6481
▁payments 6472
lia 6471
▁summary 6469
▁outfit 6468
▁par 6468
▁identity 6467
▁caught 6466
▁tips 6466
▁interview 6465
▁topics 6465
jin 6461
▁Children 6461
▁mono 6461
▁concern 6459
▁grid 6458
▁assume 6457
\ 6454
▁DE 6454
-10 6453
▁accessories 6453
▁notification 6453
▁Dorjee 6450
▁Friends 6449
▁confirmation 6447
▁Rinchen 6446
▁SIM 6446
▁Qing 6445
▁Sp 6445
▁flexibility 6444
▁sections 6442
▁Gen 6438
▁mini 6437
▁Yet 6436
▁Display 6433
org 6430
▁2018. 6429
▁attacks 6426
nic 6425
▁doubt 6419
▁whatever 6418
▁respectively 6417
▁Systems 6416
▁naturally 6416
▁listing 6415
▁ships 6415
▁layers 6413
▁smell 6411
▁Small 6409
▁initiatives 6408
▁thermal 6407
▁District 6404
▁MOVIE 6404
▁beings 6404
▁trans 6404
▁SHARE 6401
▁planets 6398
▁Bible 6397
▁purchasing 6396
▁fat 6395
▁24/7 6394
▁Coast 6388
▁corresponded 6386
▁Iraq 6385
▁MS 6383
▁replaced 6380
ara 6378
▁scenic 6377
▁academic 6375
▁editors 6375
▁execute 6374
▁Basic 6372
▁Work 6372
▁para 6372
▁pulled 6371
42 6370
▁fell 6367
▁bringing 6366
▁clip 6365
▁contribution 6365
▁existence 6362
sta 6361
vert 6357
▁cave 6357
▁College 6355
▁tend 6353
▁Convention 6352
ND 6351
▁crop 6351
▁w 6349
▁extend 6348
▁strategic 6348
are 6347
ey 6347
▁Mars 6346
▁dress 6346
hua 6344
▁Wall 6343
▁2) 6342
▁customs 6342
▁DC 6341
▁Sub 6341
▁thoughts 6340
PR 6339
▁7, 6337
jp 6335
▁Royal 6335
▁Shop 6335
▁Depending 6334
▁liability 6334
ver 6333
▁Cryptocurrency 6333
▁grass 6330
▁Girls 6326
▁moves 6326
▁putting 6325
51 6324
▁Promotion 6324
yang 6323
▁hospital 6323
▁freedom 6321
▁gmail 6318
▁Strap 6314
▁holes 6314
▁senior 6314
ult 6313
CM 6310
▁expertise 6308
▁proud 6306
▁tank 6303
▁Buddhism 6302
69 6300
▁proprietary 6300
▁Qu 6299
▁functional 6295
▁se 6294
▁advertisements 6293
St 6291
▁covers 6291
▁logged 6291
aries 6290
98 6289
▁vote 6289
▁im 6288
▁teaching 6288
ud 6287
▁samples 6287
but 6285
▁Province 6285
▁conversation 6281
ette 6280
▁IF 6280
▁audit 6280
▁surprise 6280
▁tight 6280
mu 6277
77 6276
▁bread 6276
OP 6275
▁¥ 6272
82 6270
▁Academy 6269
▁em 6269
ng 6268
"). 6266
▁Saturday 6265
▁likewise 6264
▁Transfers 6262
▁bathroom 6262
▁composition 6261
▁discussions 6260
qua 6257
▁fault 6257
▁loop 6256
▁sunlight 6256
▁transition 6256
▁min 6254
▁climb 6246
▁h 6244
▁aspect 6241
▁sensors 6241
89 6237
▁television 6236
▁sequence 6235
▁palace 6234
ola 6233
lit 6230
▁equivalent 6227
▁Film 6226
▁Nan 6224
uma 6223
▁cleaning 6222
lib 6216
▁portion 6215
▁bodyguard 6214
ato 6212
tech 6211
▁weak 6211
wn 6209
stone 6208
▁visitor 6208
▁2018.04.2 6206
strictly 6203
▁entirely 6202
▁engaged 6201
2) 6199
▁symbols 6199
▁tomb 6199
.02.09 6197
▁2018.07.1 6197
.09.06 6195
2016.12.14 6195
▁grown 6195
▁believed 6194
2016.05.18 6193
▁returns 6192
▁curve 6191
.06.05 6188
▁outstanding 6187
2016.09.21 6186
▁2016.09.1 6186
▁relationships 6185
▁saving 6184
16.05.19 6183
2017.06.03 6183
2017.06.18 6183
rovideo 6183
▁constructed 6183
▁periods 6183
friendly 6177
oka 6177
▁Oh 6177
▁2018.07.30 6176
▁desktop 6176
▁na 6176
▁li 6174
▁scheme 6174
ita 6173
▁entity 6173
▁sh 6172
▁Cor 6169
▁developers 6168
▁guaranteed 6168
200 6167
▁inspired 6165
▁paint 6159
▁departure 6156
▁Materials 6155
speed 6154
▁Jin 6154
▁scope 6154
▁defense 6153
▁killed 6153
▁tall 6153
JI 6152
▁Form 6151
▁SO 6150
RA 6147
ob 6147
▁consumers 6146
▁wonder 6146
▁drum 6145
▁Ph 6144
▁quantity 6143
▁relative 6139
▁bags 6136
how 6135
▁ApparelGoods 6134
MB 6132
▁smile 6132
▁Regional 6129
▁feels 6126
▁ran 6126
▁OK 6124
▁ourselves 6124
▁crisis 6123
▁restrictions 6120
tle 6118
▁contest 6118
mal 6116
qu 6114
▁Update 6114
▁Golf 6112
▁bars 6111
ction 6110
▁election 6104
▁genuine 6104
ane 6103
▁Bu 6102
▁documentation 6101
▁grant 6101
▁Length 6100
▁marketplace 6100
▁Dragon 6098
▁hill 6097
run 6096
▁newsletter 6095
▁availability 6094
▁boost 6091
▁clinical 6091
▁camp 6090
design 6089
▁charged 6089
ric 6086
▁Ge 6086
▁spa 6085
5% 6083
▁array 6083
▁initiative 6083
▁Ac 6082
▁observe 6080
chu 6079
ome 6079
▁phones 6077
▁FLOWER 6075
▁lifestyle 6074
▁compare 6069
▁refuse 6069
▁aimed 6068
▁9. 6066
▁valley 6066
▁contacts 6065
▁ME 6063
▁Smart 6063
▁Heritage 6062
▁checked 6062
▁decisions 6059
▁placement 6059
▁compatible 6054
▁decades 6054
CL 6050
TI 6050
▁pace 6049
▁ra 6049
▁selecting 6049
▁religious 6048
2018 6045
▁complaints 6042
▁Sharing 6040
▁educational 6040
ns 6039
▁arch 6038
air 6035
onic 6035
▁ne 6035
▁varieties 6035
▁GB 6032
▁birds 6030
▁encoding 6030
▁Peace 6028
▁listening 6028
▁tons 6024
▁Cubase 6023
▁maybe 6023
Ex 6019
▁aliens 6018
▁repeatedly 6017
from 6015
▁· 6015
Pandora 6013
code 6012
57 6009
wan 6009
▁enterprises 6008
▁Processing 6007
83 6005
IM 6005
▁Jun 6005
▁Embassy 6003
▁YouTube 6001
▁cherry 6001
▁wedding 6001
▁universities 5999
▁ongoing 5995
▁outer 5994
▁Ja 5993
▁reset 5993
▁evil 5992
▁jobs 5988
▁embedded 5985
▁chicken 5974
▁specialized 5973
▁granted 5971
▁aluminum 5970
▁agricultural 5968
▁capability 5968
▁prompt 5965
▁Fund 5963
ai 5960
▁AM 5960
zen 5958
▁Micro 5958
▁72 5956
▁ease 5956
▁poly 5956
▁ALL 5955
▁discovery 5954
▁plenty 5954
▁1000 5953
▁zero 5953
EP 5952
▁Action 5951
CE 5950
▁artificial 5950
▁understood 5948
▁holds 5947
▁nations 5947
▁cancellation 5946
▁LED 5945
▁Charts 5944
▁pin 5944
▁dates 5941
▁keys 5940
▁funding 5939
▁arm 5936
▁trigger 5936
▁2018, 5935
▁opinion 5935
▁Training 5930
▁ONLINE 5929
▁interpreter 5928
▁twice 5927
▁choices 5926
▁2017, 5925
▁charts 5924
▁simultaneously 5923
▁Brand 5922
▁impressive 5918
▁extract 5917
▁Cap 5915
▁attitude 5915
▁teacher 5915
1) 5912
▁tri 5910
▁protein 5906
ima 5902
meter 5900
▁str 5898
▁cook 5895
▁demands 5895
▁satisfaction 5893
▁explanation 5890
▁ni 5887
ff 5886
▁Kin 5886
56 5882
▁DAMAGES 5882
▁housing 5882
▁roads 5882
iamo 5879
▁celebrate 5878
ball 5877
▁completion 5872
▁foods 5866
▁Link 5865
▁Dark 5860
▁Does 5860
▁administrative 5860
▁pe 5857
ス 5854
▁buying 5853
▁feelings 5851
▁Tan 5850
▁Test 5849
▁proof 5848
▁Log 5847
▁chose 5846
▁pixels 5846
rant 5845
▁Zen 5845
ick 5843
duc 5841
▁genetic 5838
▁participating 5837
97 5835
▁Toshiba 5834
▁agents 5834
▁pushed 5834
▁AD 5832
▁typhoon 5832
▁continuously 5831
▁studied 5830
▁Pass 5828
cul 5827
▁IC 5826
▁fibres 5825
43 5823
▁universe 5823
▁Winter 5822
▁pleasure 5818
yn 5817
▁submitted 5816
▁forcing 5813
▁scanning 5813
▁Enjoy 5812
▁controller 5811
▁underground 5808
mar 5806
▁flying 5806
▁strip 5806
ei 5805
▁MA 5804
▁novel 5804
▁burn 5803
▁Night 5798
▁sc 5797
▁describe 5792
▁stations 5790
い 5789
▁Express 5786
▁random 5781
He 5780
▁Overview 5779
All 5778
▁Vol 5778
▁Fire 5776
▁hide 5771
▁confidence 5768
▁drinking 5766
MC 5765
ari 5764
▁lecture 5761
▁Paul 5760
FA 5759
▁Engine 5758
▁tells 5757
▁Em 5756
▁bow 5756
▁15, 5753
▁marine 5753
▁Financial 5752
▁tags 5752
▁ended 5751
▁gather 5751
▁del 5748
ati 5747
je 5747
ili 5746
▁Meiji 5745
▁container 5745
ig 5743
ude 5743
▁ensuring 5742
▁companys 5741
pu 5740
▁birthday 5740
▁fourth 5733
DC 5731
▁Analysis 5731
lor 5729
em 5728
▁accompanied 5728
▁heaven 5728
nch 5726
▁Song 5726
Co 5722
sai 5720
▁David 5718
▁rear 5717
▁entities 5714
ATION 5713
▁01 5713
▁Sciences 5711
▁jump 5711
▁OTHER 5708
▁semi 5708
54 5707
▁Ms 5707
▁MI 5706
▁sport 5705
▁technological 5705
shin 5704
▁Profile 5704
▁strict 5704
▁islands 5702
▁homes 5699
▁mUniSm 5697
▁packages 5695
ama 5693
▁36 5692
mor 5691
▁strategies 5691
67 5690
▁Naka 5685
▁processor 5685
▁typically 5685
ble 5683
▁Mail 5683
▁cursor 5682
▁uniqueness 5682
▁gear 5680
dai 5679
▁ISO 5678
▁iPad 5674
▁Nam 5673
dic 5671
▁intelligence 5671
▁sister 5670
How 5668
▁Pen 5668
▁bike 5668
▁weekend 5667
▁Resort 5665
▁brown 5665
62 5659
▁transparent 5659
▁Dong 5657
▁Field 5657
ev 5656
pass 5656
▁oldest 5655
▁Mark 5654
▁applies 5654
HA 5653
▁Sicily 5653
▁deeply 5653
▁deals 5651
mpl 5644
▁ver 5644
bil 5643
pp 5643
FT 5642
ates 5641
▁2015. 5641
▁describes 5640
▁dining 5640
▁musical 5640
▁Made 5638
▁serves 5638
▁split 5638
struct 5636
▁Level 5636
▁Trans 5635
▁Everyone 5631
▁perfectly 5631
▁3: 5630
▁Notes 5629
▁Evernote 5627
▁ads 5626
▁maintaining 5623
▁sum 5622
▁Excel 5620
▁affects 5620
▁chocolate 5620
▁playback 5620
▁scratch 5618
rk 5613
▁exposure 5613
▁lessons 5613
chan 5612
▁diet 5612
▁Sound 5611
UL 5608
▁asking 5604
▁Los 5603
▁Washington 5603
▁ta 5603
▁composed 5600
▁lu 5600
68 5599
▁tag 5597
▁Royalty 5596
▁Has 5595
▁Despite 5594
▁coating 5594
▁% 5592
▁iTunes 5591
▁silk 5591
▁8, 5588
berg 5587
▁Having 5587
▁buyer 5586
▁folk 5586
▁Though 5584
▁ro 5584
▁talked 5584
▁Subaru 5583
▁transmit 5582
▁revenue 5581
▁winning 5581
ION 5578
kg 5576
▁stretch 5576
Pressure 5573
▁120 5573
▁seeking 5572
▁vertical 5570
And 5565
RAR 5565
▁Exhibition 5564
▁teenage 5563
▁fuck 5561
79 5556
▁filters 5556
▁assign 5554
part 5551
▁Future 5548
▁willing 5543
96 5541
▁photograph 5541
▁Hiroshima 5538
sia 5537
▁2016. 5537
▁timing 5537
▁diamonds 5536
▁skill 5533
▁Cam 5532
▁Come 5532
▁concepts 5532
84 5529
jet 5527
▁replacement 5526
▁Technical 5524
▁statistics 5524
▁suffer 5524
▁License 5523
play 5522
▁deposit 5522
▁pleasant 5519
▁Salesforce 5518
▁Com 5516
PL 5514
rry 5509
▁improvements 5509
▁routes 5509
ancy 5508
▁FY 5507
▁Snow 5507
▁subscription 5507
▁arms 5505
88 5504
▁guidelines 5504
▁lifetime 5502
-6 5501
▁51 5501
▁$9 5500
▁Region 5499
▁Asahi 5498
81 5496
▁Mount 5496
HO 5494
LI 5493
▁lock 5490
▁golden 5486
▁cruel 5485
umi 5484
▁finance 5484
▁r 5483
▁tours 5482
▁Nippon 5481
▁PA 5481
▁TE 5481
rus 5480
▁Gi 5480
▁Machine 5480
▁Remo 5480
▁Further 5479
▁Members 5478
▁Weight 5478
▁gray 5477
▁advantages 5476
▁revision 5476
DR 5473
▁Address 5473
▁totally 5473
▁chart 5471
▁connecting 5469
▁imagine 5467
▁noticed 5467
EX 5466
▁Valley 5466
▁absence 5466
▁rubber 5464
▁stick 5464
▁Base 5463
ica 5461
▁Baby 5461
▁Whether 5458
ano 5457
MAN 5455
▁Nu 5454
▁certification 5454
▁Rain 5453
▁simulation 5453
▁Custom 5451
▁particles 5450
▁principles 5450
▁Myanmar 5449
▁Charms 5448
▁prize 5448
minute 5445
▁shock 5444
▁tsunami 5442
▁refers 5439
▁experiment 5438
▁inquiry 5438
▁watchmaking 5438
KO 5437
▁argument 5435
▁calm 5434
ル 5434
74 5432
▁smoke 5431
▁modification 5430
rm 5429
▁2015, 5429
ibility 5428
▁unto 5428
▁execution 5424
▁Him 5423
▁committee 5423
▁Yokohama 5422
▁2016, 5421
▁suit 5420
▁provision 5419
▁Bangkok 5415
▁Messagg 5414
▁adjustment 5414
rov 5412
▁objective 5412
▁lie 5410
▁Introduction 5409
▁delayed 5409
▁2002 5408
▁moisture 5408
▁Gra 5407
▁va 5407
▁Net 5405
▁Java 5404
▁teachers 5402
IF 5401
▁guidance 5401
gn 5399
▁RO 5399
▁farm 5398
▁Pisa 5397
▁converted 5396
DS 5394
▁Eco 5394
▁Prize 5392
▁consumer 5391
▁Command 5388
▁freely 5388
▁rec 5388
▁Camp 5384
▁ba 5384
▁happening 5384
76 5383
ators 5383
▁Rose 5383
▁trail 5383
eng 5382
▁Heavy 5382
▁fantastic 5382
▁Je 5380
▁cloth 5380
▁wa 5379
▁tip 5377
▁Dec 5376
▁adapt 5376
▁Ambassador 5375
▁shares 5374
range 5373
▁bottle 5373
▁latter 5373
▁automated 5370
▁microwave 5370
▁grade 5369
VI 5368
▁Bio 5368
▁Cla 5365
▁afraid 5363
▁letters 5363
▁parallel 5361
800 5360
▁Crystal 5360
▁blend 5359
RU 5358
od 5358
▁evolution 5356
0.00 5353
▁estate 5352
▁findings 5352
▁seminar 5352
▁Section 5351
▁Changes 5350
▁Error 5350
even 5349
▁ordering 5348
▁predict 5348
Text 5346
▁Yi 5346
▁Hill 5345
▁tungsten 5345
▁deemed 5343
ada 5340
▁ve 5339
▁Nancy 5338
▁explains 5338
▁ultra 5337
cut 5336
EC 5332
300 5331
▁cl 5331
▁figures 5331
▁Besides 5330
▁Platform 5330
▁exceptional 5329
▁measured 5329
▁breaking 5326
▁Review 5325
」 5325
▁Masa 5324
▁trace 5324
▁Manufacturer 5323
▁spec 5323
▁supplies 5323
▁Delivery 5322
▁Motor 5322
▁earthquakes 5322
ney 5321
py 5321
▁Range 5321
til 5320
▁animation 5319
92 5318
▁Mitsui 5318
▁hi 5317
▁Bus 5315
▁founder 5311
▁readers 5311
UT 5308
▁Currently 5308
▁cheese 5307
▁fi 5307
nan 5306
▁42 5305
▁Students 5304
▁chord 5304
▁monument 5301
int 5300
▁exposed 5300
▁Shu 5297
▁warranty 5295
▁Wind 5293
▁gathered 5291
▁pepper 5291
▁Solar 5290
▁welcomed 5289
get 5288
▁membership 5288
▁presents 5286
mark 5285
▁buttons 5285
▁meter 5285
▁Fi 5280
▁broadcast 5279
TER 5278
▁Cho 5276
61 5275
▁DJ 5273
▁Gate 5272
▁cluster 5272
▁debt 5272
ros 5270
▁900 5269
lation 5268
▁featuring 5268
); 5265
59 5264
▁consistent 5263
▁dog 5262
TC 5261
▁disabled 5261
▁cake 5259
87 5258
▁radiation 5256
▁sexual 5254
tric 5252
▁Bureau 5251
イ 5247
▁@ 5246
▁Ski 5246
▁bomb 5244
▁crypto 5244
▁historic 5244
▁markers 5243
▁ah 5242
With 5241
eb 5238
▁HPJAV 5238
▁souls 5238
▁sync 5238
jima 5235
▁Tang 5231
▁matches 5230
0° 5226
▁suEXEC 5221
▁criteria 5220
▁acting 5219
▁reporting 5219
▁Yang 5218
cu 5216
▁1999 5216
▁48 5216
▁emerging 5216
▁Brazil 5215
▁marriage 5215
▁Ablogg 5214
▁Mid 5213
▁directed 5212
cep 5208
gawa 5205
▁Restaurant 5205
▁eliminate 5204
▁removal 5201
▁rural 5201
▁booth 5200
▁ensures 5200
now 5199
▁Send 5199
▁reception 5199
▁reform 5198
▁Phone 5197
▁Guest 5196
▁Max 5195
▁Golden 5194
▁intense 5194
▁1995 5193
▁Hoimi 5193
▁True 5193
▁gr 5191
▁Body 5190
▁encounter 5188
rr 5187
▁hybrid 5187
▁immediate 5187
▁investigate 5186
OD 5184
▁entitled 5182
▁invest 5181
▁mine 5177
▁therapy 5177
▁lets 5176
▁philosophy 5176
▁Process 5175
▁tilt 5174
ded 5173
▁Atlantic 5172
rum 5171
lf 5170
▁Box 5170
▁waters 5170
▁flood 5167
▁WEB 5166
78 5165
▁Olympic 5164
▁SA 5164
Forcing 5163
rit 5162
▁Bra 5162
▁Son 5162
▁forum 5162
cip 5161
▁Sch 5161
▁Cha 5157
Mi 5156
▁Silver 5154
▁Compare 5153
▁expectations 5153
▁opinions 5153
▁provisions 5153
▁Total 5152
▁guy 5152
▁laptop 5152
▁none 5152
eo 5151
▁Actress 5148
▁imported 5147
▁surprised 5146
Po 5145
▁Fukushima 5145
▁automotive 5145
▁limousine 5145
-19 5144
▁38 5144
▁measurements 5144
▁survival 5144
▁incest 5141
▁mom 5141
▁swimming 5141
▁stones 5140
▁repeat 5138
PP 5137
▁laid 5137
SS 5136
CR 5134
▁considering 5133
▁pack 5133
vol 5131
▁UFO 5129
▁authentic 5127
▁ka 5127
ori 5126
▁fruits 5124
▁targets 5124
▁Premiere 5123
open 5122
▁Mix 5122
▁Seminar 5122
▁commonly 5121
▁blocked 5120
▁statue 5118
pping 5117
vers 5117
▁charm 5117
▁configured 5113
▁intensity 5112
mat 5111
gue 5110
▁suite 5109
▁faces 5108
▁colorful 5107
▁enjoying 5107
▁horses 5107
▁seasonal 5107
52 5106
▁adequate 5106
▁measuring 5105
▁employment 5102
▁washing 5102
▁Payment 5101
▁Congress 5100
▁Insert 5100
▁orange 5100
▁CE 5099
▁dessert 5098
load 5097
tical 5094
▁swim 5091
▁territory 5090
▁analyze 5089
roll 5088
94 5087
▁commands 5086
▁TERMS 5085
Un 5084
▁Chemical 5084
▁gained 5083
▁lifespan 5083
▁Mai 5080
▁alcohol 5079
▁yesterday 5076
pm 5074
▁involves 5074
▁lists 5074
An 5072
▁combine 5072
▁desk 5071
▁informed 5071
▁mechanisms 5071
▁photography 5069
▁Medical 5068
▁enterprise 5068
▁employee 5064
▁engineers 5064
▁seeds 5063
▁Hawaii 5061
▁quakes 5061
▁danger 5059
▁egg 5059
ア 5058
PI 5056
ening 5056
▁calling 5055
aff 5054
itch 5054
rated 5053
▁representatives 5053
▁Far 5052
▁Connection 5051
▁engines 5051
resistant 5050
▁happiness 5050
▁marker 5050
▁brush 5047
▁Following 5046
▁Lijiang 5046
gal 5045
▁destroyed 5043
rn 5040
▁flows 5037
▁guess 5037
▁taught 5037
▁Im 5036
ese 5035
▁Chang 5035
▁Text 5035
▁Related 5034
▁programming 5034
cri 5032
▁VST 5032
osis 5031
▁Fast 5031
▁Learning 5031
▁decoration 5030
▁explosion 5030
▁excited 5029
▁lift 5028
▁mental 5028
▁ordered 5027
▁Ca 5026
▁Category 5025
▁Northern 5025
▁gardens 5025
General 5022
▁doors 5020
▁Additionally 5019
▁dialogue 5018
▁posting 5017
▁pray 5017
itis 5016
▁Calendar 5016
▁Ti 5016
ou 5015
▁facilitate 5015
▁heads 5014
▁circles 5013
ake 5012
▁classified 5011
)" 5007
▁Comp 5005
▁approaches 5005
▁Info 5004
▁Twin 5004
▁legs 5004
▁suggests 5003
FS 5002
▁$20 5001
▁earn 4999
▁monthly 4999
atory 4997
▁Instead 4996
▁represented 4996
▁stages 4996
cor 4995
▁tired 4995
▁infected 4994
▁PO 4991
▁millions 4991
▁whenever 4991
▁fiber 4990
▁shadow 4990
ography 4988
▁Universe 4988
▁Member 4987
▁sexy 4987
▁surveillance 4987
▁kill 4986
ky 4985
wood 4985
cus 4983
ENT 4982
▁pointed 4982
▁33 4980
▁analytics 4979
▁dragon 4979
ML 4978
▁IWC 4977
▁obligation 4977
▁Tea 4974
▁planting 4971
▁seed 4971
▁ski 4971
ea 4970
▁Classic 4970
▁fluid 4970
▁losing 4970
▁religion 4970
PM 4969
avi 4968
▁Secretary 4966
▁gra 4963
▁GO 4961
▁decrease 4961
▁orientation 4961
▁bill 4959
late 4958
At 4957
▁phenomenon 4957
▁PowerPoint 4956
▁effectiveness 4956
▁coal 4955
▁Author 4953
▁Bags 4952
▁hearts 4951
▁seasons 4951
▁1,000 4946
▁unusual 4946
▁Filter 4945
▁gravity 4945
ida 4944
▁generations 4944
ay 4942
▁boot 4942
▁transformation 4940
SO 4939
▁2.0 4938
LC 4936
▁Generator 4935
▁Did 4934
ters 4931
▁victims 4931
▁Dynasty 4930
▁600 4929
▁retail 4928
ラ 4926
var 4925
▁Marine 4925
▁mature 4924
▁Investment 4922
order 4917
▁mirror 4917
▁disputes 4916
▁reply 4916
▁Properties 4915
▁Sample 4915
▁Firefox 4914
▁attract 4914
▁determination 4914
▁retention 4914
ala 4913
▁tits 4913
sei 4911
▁Electric 4911
fo 4909
▁precise 4908
▁younger 4908
600 4906
field 4906
▁Xiao 4906
cap 4902
▁focusing 4898
▁Bill 4896
▁hesitate 4895
SHI 4894
▁$1 4894
▁essence 4893
Name 4892
bb 4891
▁Player 4891
53 4889
▁boy 4887
▁floating 4886
Sa 4885
▁villages 4883
▁checking 4882
▁magic 4882
▁Was 4881
FE 4880
▁conclusion 4877
pri 4876
▁Period 4875
▁temporarily 4875
IR 4874
sho 4873
ō 4873
▁falling 4873
▁division 4872
▁Kobe 4867
▁relief 4867
▁adds 4866
▁agreeing 4866
▁arrangement 4865
▁enhanced 4865
iko 4862
▁Vice 4862
▁Legal 4860
some 4857
▁Credit 4857
▁drama 4856
▁Heart 4855
▁vessels 4854
▁Coin 4850
▁admin 4850
table 4847
▁chapter 4847
▁Leather 4844
▁conservation 4843
bus 4842
▁prohibited 4842
online 4841
▁blind 4839
▁drives 4838
▁Pri 4836
▁1990 4835
▁guard 4835
▁truck 4835
▁Zone 4833
▁strap 4833
▁relation 4831
▁Lab 4830
BO 4829
▁farmers 4829
tive 4827
▁steam 4825
▁Explorer 4824
ez 4823
▁상세 4822
iti 4821
▁verification 4821
uro 4818
▁Linux 4813
▁Pakistan 4813
▁wealth 4813
▁wishes 4812
91 4810
NT 4810
pen 4810
▁attracted 4809
▁vital 4809
water 4808
▁rivers 4807
inter 4805
▁clips 4805
▁plot 4805
▁safeguard 4804
▁token 4804
▁com 4803
▁sticker 4800
▁survive 4800
shaped 4799
▁DNA 4799
▁euros 4798
▁Amend 4797
▁hat 4797
Pre 4795
▁directions 4795
▁Unit 4794
▁designers 4793
▁solely 4791
ini 4790
▁Clinton 4790
▁demo 4790
dra 4789
▁teach 4789
link 4788
▁EPLAN 4788
▁regulatory 4788
▁disasters 4786
▁appeal 4784
cer 4783
og 4783
▁Saint 4783
▁certificate 4782
▁Run 4780
▁Daily 4779
▁preparing 4779
▁mood 4778
NE 4777
▁Earthquake 4777
▁Double 4775
▁Lin 4773
▁sa 4773
58 4771
63 4768
▁maintained 4767
▁railway 4765
▁chief 4764
▁Kei 4763
▁Win 4763
▁wasn 4761
1. 4759
▁Put 4759
▁acquired 4759
▁duty 4759
▁fl 4759
▁reverse 4758
NS 4757
▁Bun 4755
bed 4752
▁Tibet 4751
▁stronger 4751
▁Sets 4750
▁Chu 4749
▁magnificent 4749
▁Radio 4747
▁gene 4747
▁Chen 4746
zhou 4745
▁desert 4745
▁somewhat 4744
▁stomach 4744
▁ASEAN 4743
▁Gal 4743
▁Large 4743
▁Tohoku 4743
CZ 4742
html 4742
▁lab 4739
▁shell 4739
▁lay 4738
▁Plant 4734
▁choosing 4734
tern 4732
▁€ 4731
win 4730
▁Unfortunately 4730
sofar 4729
ov 4728
▁Marketing 4728
▁Medicine 4728
▁gl 4728
TV 4727
▁(3 4724
sign 4723
▁Fo 4723
▁bronze 4723
▁guides 4723
▁Canon 4722
▁scripts 4722
▁broke 4721
▁cute 4721
On 4720
▁Dusit 4719
▁3- 4718
▁unlimited 4718
▁Initiative 4717
▁Ste 4717
▁mill 4716
▁bell 4714
MENT 4713
collectively 4711
▁detects 4711
▁tested 4711
▁scenario 4710
▁Chronograph 4709
▁bird 4709
▁reserves 4709
▁sunset 4709
に 4709
▁amounts 4708
▁graphic 4707
▁hearing 4706
▁meant 4706
SM 4704
tes 4704
amp 4703
▁peaceful 4703
6) 4702
▁enabling 4702
cen 4701
▁college 4700
▁roots 4700
▁supposed 4700
▁cooperate 4699
So 4698
▁plain 4698
▁Flower 4695
▁adventure 4695
▁infection 4695
▁Livorno 4694
▁Remove 4694
▁oxygen 4693
lon 4692
▁paintings 4692
bul 4691
▁partial 4691
map 4689
▁Care 4688
▁Fair 4688
▁proceed 4687
▁verify 4687
ject 4684
▁Production 4684
▁specification 4684
▁Face 4682
▁applying 4682
▁appointed 4682
72 4679
▁AV 4677
▁interaction 4676
▁shooting 4676
▁spoke 4676
▁trademarks 4674
▁limits 4673
▁popularity 4672
ace 4670
▁worse 4670
▁hydrogen 4669
lect 4668
▁Outlook 4667
▁Quick 4667
▁keeps 4667
▁assumed 4666
▁exception 4666
▁flooding 4666
IO 4665
▁mold 4664
▁boss 4663
hen 4662
ians 4662
key 4662
▁relax 4662
71 4661
bling 4661
▁begun 4661
▁ATTRACTIONS 4660
▁dealing 4660
enti 4658
▁Hy 4658
▁mixture 4658
▁elsewhere 4657
▁Administration 4656
▁Recover 4655
sized 4654
▁Country 4654
▁rail 4654
▁Hello 4653
▁matched 4653
▁si 4653
▁yield 4653
pha 4652
▁Taoyuan 4652
uk 4651
▁regret 4651
▁mutual 4650
▁Visit 4648
▁productivity 4648
file 4647
▁Low 4647
▁Wang 4647
▁physician 4647
3% 4645
oolshopus 4645
▁Civitavecchia 4645
▁Peak 4645
▁250 4644
▁ph 4643
▁premium 4643
Confidential 4642
▁landing 4642
!!! 4641
▁sessions 4641
▁terrace 4641
▁excuse 4639
▁repeated 4639
-18 4638
eration 4638
las 4638
tim 4638
▁intelligent 4638
New 4637
▁Kanagawa 4636
▁agenda 4636
▁contributions 4635
▁pleased 4635
▁operational 4634
á 4633
lock 4630
▁sword 4630
▁Guangzhou 4629
▁artistic 4629
▁calculated 4629
▁loaded 4628
▁pink 4628
▁Archives 4626
oma 4625
▁Southeast 4625
▁rough 4625
▁HA 4623
▁shapes 4623
▁font 4622
▁utilize 4622
▁Activate 4620
▁fund 4620
▁frequent 4618
▁Being 4616
▁Minibus 4614
▁redirect 4614
▁Positano 4611
▁Mer 4609
▁Minivan 4609
▁manufactured 4609
▁Enterprise 4608
▁remained 4608
▁sharp 4608
cast 4605
▁Hon 4605
▁Tiburtin 4605
▁disappear 4605
▁Circle 4604
ulating 4601
▁Yoshi 4601
▁passenger 4601
etc 4599
ched 4598
▁Style 4596
▁Chauffeur 4595
▁Ser 4595
▁Active 4594
▁Shipping 4594
▁Bit 4593
▁England 4593
▁reflected 4590
ule 4589
▁Without 4589
lt 4588
▁Bal 4588
▁forming 4588
▁guys 4588
▁memories 4588
▁JS 4587
VER 4584
▁Format 4584
▁Riding 4584
▁rape 4583
▁sectors 4583
▁Keep 4581
▁Venus 4579
▁discretion 4578
▁Prince 4576
▁apartments 4575
era 4574
ident 4574
▁knowing 4574
▁noodles 4574
▁Edition 4572
▁magnet 4572
▁restart 4572
PE 4571
lig 4570
user 4570
▁Fukuoka 4570
▁everybody 4570
ution 4568
▁2012, 4568
▁prefecture 4568
▁receipt 4568
▁withdrawal 4568
char 4567
ell 4567
▁basically 4566
▁entries 4566
▁carrier 4563
▁$2 4561
▁Nissan 4561
▁cottage 4561
▁duration 4561
▁1997 4560
▁2014. 4560
▁tension 4559
iness 4554
▁phenomena 4553
-11 4552
test 4552
▁Pu 4552
▁reflection 4552
▁introducing 4549
▁professor 4547
▁ONE 4546
▁legend 4546
NI 4544
▁Kai 4544
▁Natural 4541
▁votes 4540
kura 4539
▁Ban 4539
▁Fashion 4539
▁continent 4538
tory 4537
▁Summit 4537
▁meals 4537
▁bigger 4536
▁statistical 4536
▁cultures 4535
▁stamp 4534
▁hosts 4533
▁malicious 4532
▁ranking 4532
▁graduate 4531
▁haven 4531
▁travelers 4530
dom 4528
▁decline 4528
cess 4526
▁Wave 4526
73 4525
▁incident 4525
▁Forest 4524
▁metals 4524
shirts 4523
▁Direct 4523
▁tropical 4522
▁uploaded 4522
▁Young 4520
▁Modern 4518
▁distant 4518
pat 4517
▁olive 4517
▁suggested 4517
▁Corporate 4516
▁LA 4516
▁copies 4516
▁migration 4516
▁2014, 4515
▁Mod 4515
▁APEC 4514
▁Mitaka 4513
▁Sei 4513
▁examination 4513
▁overcome 4510
▁Brussels 4509
▁\ 4508
▁Shangri 4507
▁Zi 4507
about 4504
▁acquisition 4504
▁visits 4504
▁SD 4503
▁compensation 4502
▁rat 4501
▁(2 4500
▁Template 4499
▁cur 4499
▁Later 4498
▁Move 4498
▁reduces 4498
▁bicycle 4497
▁possibilities 4496
▁utmost 4496
▁cons 4495
ral 4493
tai 4493
vin 4493
▁Should 4493
sure 4492
▁organize 4492
▁Recently 4491
hole 4488
▁administrator 4487
▁trips 4487
▁IoT 4486
▁Sam 4486
▁pocket 4486
▁seafood 4486
▁9, 4485
% 4483
LP 4482
▁Metal 4482
▁customized 4482
▁finds 4482
ites 4481
edge 4480
▁stood 4480
▁moments 4479
booking 4478
▁colored 4478
▁electronics 4476
▁nu 4476
uc 4475
▁EX 4475
▁walked 4475
bot 4474
▁50% 4472
▁flu 4468
tract 4467
▁Amazon 4467
▁detected 4467
▁announce 4465
ans 4464
▁implementing 4464
Cheap 4463
▁percentage 4463
place 4461
▁12, 4461
▁Belgium 4461
▁poker 4461
cn 4460
▁intervention 4460
▁static 4460
About 4458
-12 4457
ivity 4456
▁(3) 4456
▁Gar 4455
▁strengthening 4454
dia 4453
▁cotton 4453
▁j 4453
▁quake 4453
cla 4452
▁Famous 4450
▁achievements 4449
▁neither 4449
gy 4447
▁Magazine 4446
▁returning 4446
▁drinks 4445
▁lowest 4445
▁warming 4445
wing 4443
▁casting 4443
▁sends 4443
▁Followers 4442
▁Premium 4441
▁achieving 4441
put 4439
▁Mori 4439
▁complicated 4439
▁Den 4438
▁tone 4437
rio 4435
▁Van 4435
yan 4434
▁Clear 4434
▁involve 4434
sum 4433
▁Virtual 4431
pos 4430
▁Islamic 4430
▁Matsu 4430
▁shoot 4430
wear 4429
400 4428
mine 4427
▁1996 4426
rib 4424
this 4422
▁breath 4422
Budget 4421
▁Limited 4421
ec 4420
▁intention 4420
▁outcome 4419
card 4416
▁Joint 4415
▁Kan 4415
ALL 4414
▁statements 4414
▁internationally 4413
▁abundant 4411
BI 4410
replica 4410
▁Agent 4410
▁sophisticated 4410
▁thickness 4410
rc 4409
▁1998 4409
▁des 4409
isation 4408
▁Exp 4408
RT 4407
▁gap 4407
cons 4406
▁exp 4406
▁threads 4406
new 4405
▁Entry 4405
▁personally 4405
VE 4403
▁delicate 4402
▁grew 4399
▁springs 4399
▁paste 4398
life 4397
path 4396
▁ear 4396
▁magnitude 4395
▁renewable 4395
▁CON 4394
▁Repair 4394
▁JR 4393
▁branches 4393
▁pump 4393
oz 4392
▁brutal 4392
▁flights 4392
ender 4391
ye 4390
▁optimal 4390
izer 4388
print 4388
▁AS 4387
▁hydro 4387
001 4385
▁valued 4385
▁pending 4382
▁Four 4380
▁€9... 4380
▁11, 4379
▁Worlds 4379
▁Database 4377
▁subsequent 4377
▁examine 4376
▁interact 4376
▁publish 4376
atsu 4375
▁PS 4375
▁furniture 4375
▁venture 4372
ae 4370
▁defend 4370
▁ultimate 4366
power 4365
▁agriculture 4365
▁Hiro 4364
▁interpretation 4364
▁visa 4364
▁Which 4363
▁stops 4363
▁:: 4362
▁disable 4362
▁02 4360
▁Mini 4360
▁STORE 4360
DP 4359
fish 4359
▁prayer 4359
と 4359
organ 4358
▁difficulty 4358
▁Package 4356
▁shore 4354
KU 4353
▁struggle 4353
ets 4352
▁delivers 4351
▁ports 4351
AI 4350
▁separately 4350
▁Zeta 4348
▁belt 4348
screen 4347
▁Age 4347
▁ir 4346
TSU 4345
▁throw 4345
▁adopt 4344
▁responses 4344
▁Er 4343
▁gorgeous 4343
▁forests 4341
▁officially 4339
nce 4338
uch 4338
▁Peter 4334
▁geographical 4331
▁scroll 4329
▁managing 4325
▁thereby 4325
▁solo 4324
▁Clean 4323
▁roles 4323
▁kg 4321
▁tape 4320
▁assembly 4319
▁tire 4319
▁yes 4319
BS 4317
▁tomorrow 4317
▁Screen 4316
▁heating 4316
mus 4315
oi 4315
▁34 4315
▁Downloads 4315
▁discharge 4315
ature 4314
▁PR 4314
▁Berlin 4313
▁HO 4313
▁ranging 4313
▁demonstration 4312
▁depend 4312
▁2011, 4310
grade 4309
▁Creating 4309
▁succeed 4308
▁filling 4307
▁highlight 4307
Ha 4305
▁supplied 4303
▁rid 4301
▁2013, 4300
▁Poly 4300
din 4299
▁occurring 4299
emb 4298
fic 4298
script 4297
train 4297
▁reservations 4297
▁clay 4296
▁crack 4296
suke 4295
▁Har 4295
▁passes 4295
PT 4294
ied 4294
▁Mont 4293
▁Times 4293
▁Computer 4292
▁inches 4292
▁burning 4290
▁programme 4290
▁Electronics 4289
▁mounting 4288
ik 4286
▁neutral 4286
▁contracts 4285
EM 4282
▁alive 4282
▁stunning 4281
▁react 4280
▁coins 4277
please 4273
▁CSR 4273
MM 4272
mination 4272
rop 4272
▁partition 4272
App 4271
▁believes 4270
▁oven 4269
は 4269
▁shut 4268
▁© 4268
inc 4266
▁username 4264
▁covering 4263
city 4262
▁comp 4261
CI 4260
bri 4260
phe 4260
vid 4259
▁acquire 4258
▁Sc 4257
dong 4256
▁disclosure 4255
kyo 4253
▁flag 4253
▁eco 4252
-20 4251
▁Common 4251
▁Title 4249
▁utility 4248
▁Import 4245
▁dose 4245
▁regulation 4244
ory 4243
▁Catalog 4242
▁glasses 4242
▁medication 4240
▁gun 4239
cia 4238
▁chair 4238
▁Compliance 4237
▁Follow 4237
▁Fa 4236
▁LTD 4235
▁serial 4232
nu 4231
▁seal 4230
▁advised 4229
▁ceramic 4228
lish 4225
▁Join 4225
▁crucial 4225
▁decorated 4225
▁League 4224
▁crash 4224
▁XXL 4223
▁chi 4223
▁conscious 4222
▁receiver 4222
▁shower 4222
▁subjects 4222
▁collision 4219
▁spin 4219
▁transform 4219
▁dispute 4218
▁instantly 4218
mission 4214
▁Inquiry 4214
▁populace 4213
▁cha 4211
▁sons 4211
▁Way 4209
▁loading 4209
▁Innovation 4208
▁Yama 4208
▁harm 4208
▁Ring 4207
▁victory 4207
▁mistake 4206
▁aren 4205
▁inspiration 4205
specific 4203
▁harvest 4203
▁mask 4203
ras 4202
▁transfers 4201
ls 4200
▁2010, 4197
▁Solution 4197
▁Turn 4197
▁fer 4197
▁BC 4196
▁machinery 4196
▁substances 4196
▁suits 4196
▁alloy 4194
▁falls 4194
AND 4193
▁typography 4193
UR 4192
▁columns 4192
Republic 4190
eth 4190
▁alarm 4190
▁Ch 4189
▁algorithm 4188
▁god 4188
▁Ming 4187
▁absolute 4187
▁Ke 4183
▁Diamond 4182
▁Southern 4182
▁Artist 4181
▁MISHOP 4180
mul 4179
▁household 4178
▁rolling 4178
▁pollution 4177
▁Property 4173
▁Queen 4173
▁asset 4173
▁blow 4173
▁luck 4173
▁potentially 4172
▁Tel 4170
▁developments 4170
▁VI 4169
Note 4168
▁singing 4168
▁Install 4167
▁army 4165
▁calculate 4163
日 4163
cin 4162
:1 4161
▁hang 4160
▁4: 4159
▁eggs 4159
▁hopes 4159
▁HTML 4158
▁reveal 4158
▁laboratory 4157
▁mysterious 4155
ggle 4154
vic 4154
▁Awards 4151
▁AC 4150
▁Index 4150
▁assignment 4150
▁Season 4148
▁theft 4148
3) 4147
▁Mag 4146
▁Fill 4145
▁calculation 4145
▁dropped 4145
▁fare 4144
▁threats 4144
▁worn 4144
▁ears 4141
hai 4139
▁Unlimited 4139
▁convey 4139
▁AN 4138
▁portal 4138
▁casual 4136
▁BY 4134
▁Down 4133
▁toilet 4133
▁Egypt 4129
▁fighting 4129
cam 4128
▁Oil 4128
▁reaching 4128
▁Vo 4127
▁dump 4127
oid 4124
▁Suite 4122
graph 4121
rick 4121
▁Comment 4121
▁expenses 4121
▁alloys 4120
▁spectrum 4120
▁antivirus 4117
▁sink 4117
Data 4116
hal 4116
▁awards 4116
▁plum 4114
ville 4112
rise 4110
mod 4109
▁Ai 4109
ore 4108
▁dimensions 4108
▁sinking 4108
▁Louis 4106
IVE 4105
gon 4105
generation 4104
rid 4104
▁Kyo 4104
▁Magic 4104
▁Bur 4102
▁climbing 4101
▁rocks 4101
▁Niseko 4099
▁breach 4099
▁confident 4098
▁elevation 4098
▁chronograph 4097
▁exhibit 4097
▁formal 4097
▁grabbed 4097
▁relating 4096
▁altitude 4095
pr 4094
▁possibly 4093
▁summit 4092
▁universal 4092
▁workshops 4090
77. 4089
gri 4089
▁Yan 4089
▁panels 4089
rator 4088
▁Reports 4088
▁compression 4088
▁suspension 4088
▁recipe 4087
▁Mission 4086
▁Applications 4085
▁PLC 4084
▁beef 4084
▁dreams 4084
▁firms 4084
▁immune 4084
▁painted 4083
▁shirt 4083
-0 4082
▁inserted 4082
ew 4080
ien 4080
rian 4080
▁conducting 4078
▁reaches 4077
▁1980 4076
▁initially 4075
▁highway 4074
▁Waterproof 4073
RP 4072
▁Located 4071
imp 4070
▁Performance 4069
▁Horse 4068
▁driven 4068
gger 4067
▁burden 4067
Le 4065
tis 4064
▁SDK 4064
▁attraction 4064
▁leisure 4064
FP 4063
▁Sai 4062
▁bid 4062
▁representing 4062
▁ion 4061
▁Amphipolis 4059
▁Launch 4059
7% 4058
band 4058
▁massage 4058
▁3) 4057
▁Tool 4055
▁analog 4054
▁et 4054
▁Block 4053
▁concentration 4053
▁particle 4052
シ 4051
▁Ab 4050
▁qua 4050
ena 4049
▁ill 4048
▁investments 4048
▁panic 4048
▁recommendations 4048
iz 4047
▁Bai 4047
zan 4046
▁dual 4046
cr 4045
▁destruction 4045
▁Looking 4043
▁Convert 4042
▁Sal 4042
▁Shot 4042
▁necessarily 4042
▁y 4042
▁Fan 4041
▁swing 4040
▁Drive 4038
▁spectacular 4038
▁extraordinary 4036
hy 4035
▁coverage 4035
▁searches 4035
▁emerge 4034
입선 4034
more 4033
▁breast 4033
▁juice 4033
▁pioneer 4033
▁robot 4033
▁Meme 4032
▁Sign 4032
▁pile 4032
▁paths 4031
▁talks 4031
cro 4030
▁Accommodation 4030
▁Th 4030
▁le 4029
NC 4028
ending 4027
▁greenhouse 4026
▁hosting 4026
▁vacation 4026
tors 4025
▁libraries 4025
▁Wednesday 4023
▁Lightning 4022
▁WA 4022
93 4020
▁Suzhou 4020
▁BR 4019
▁classification 4019
▁intersection 4016
verse 4015
▁TOKYO 4015
▁genes 4015
▁placing 4015
▁console 4014
▁politics 4014
▁banking 4013
▁authorized 4012
fully 4011
▁alert 4011
▁unexpected 4011
▁Holy 4010
▁deck 4010
▁terminate 4010
▁Tours 4009
encies 4007
▁da 4006
▁observations 4006
▁Belt 4005
▁tied 4005
▁closing 4004
AGE 4003
▁boom 4003
▁coin 4003
tur 4002
▁Host 4002
▁grams 4002
を 4002
▁Defense 4001
▁Status 4001
▁executive 4001
▁Arm 4000
▁formula 4000
▁matching 4000
hold 3999
▁Holdings 3999
▁XP 3998
unk 3996
▁1.5 3996
▁hub 3996
▁mice 3996
▁married 3995
▁pet 3995
▁Tag 3994
▁developer 3994
▁snap 3994
▁Safe 3993
▁exhibitions 3992
▁charging 3989
Al 3988
Ho 3988
▁appreciated 3988
▁cache 3988
▁constitute 3988
▁coordination 3988
▁tough 3988
▁Lee 3987
▁diversity 3987
▁experiencing 3987
▁Tips 3986
▁recycling 3985
▁pigment 3984
▁Fe 3983
▁Ship 3983
▁Gas 3982
▁accessing 3982
▁semiconductor 3980
▁03 3979
/10 3978
▁[...] 3978
▁encouraged 3978
▁structural 3977
▁Hospital 3975
▁adoption 3975
4% 3973
▁centuries 3973
▁phrase 3973
1, 3972
▁seriously 3972
▁brilliant 3971
▁identification 3971
▁van 3971
▁Heaven 3970
▁Assembly 3969
▁chip 3969
col 3968
hiro 3968
▁Forecast 3968
BE 3967
▁HE 3967
▁butter 3967
rag 3966
▁bloom 3965
▁neighborhood 3965
▁draft 3964
▁meets 3964
"), 3962
▁shipped 3962
▁Results 3961
▁Rule 3961
▁decade 3961
▁highlights 3961
Ch 3960
▁Original 3959
▁Paper 3959
▁soldiers 3959
▁governmental 3958
▁leaf 3958
▁Satellite 3956
ban 3954
road 3954
▁64 3954
▁coach 3953
▁Ci 3951
jiang 3950
▁Selection 3950
▁accommodate 3950
▁reconstruction 3950
▁Along 3949
▁Cell 3947
▁ST 3947
▁Val 3947
▁honey 3947
ement 3946
▁establishing 3946
▁specially 3946
zip 3945
▁odd 3945
cca 3943
wide 3943
▁Chapter 3943
▁JA 3943
▁uniform 3943
conf 3942
▁2019. 3941
▁Apartments 3941
▁Core 3941
▁Device 3941
cl 3939
live 3939
town 3939
▁horizontal 3939
well 3938
▁Week 3938
▁compiled 3938
▁contacting 3938
▁37 3936
▁Tools 3936
▁regarded 3936
▁cooling 3935
▁cryptocurrencie 3935
▁Moscow 3934
▁Arab 3931
▁den 3930
▁jointly 3930
ECT 3929
bound 3929
nia 3928
▁mild 3928
▁precisely 3928
▁preventing 3928
▁suppliers 3928
blog 3927
User 3925
▁collapse 3925
▁pad 3925
▁vs 3923
▁Father 3920
▁epi 3920
▁Tom 3919
▁Transport 3919
▁contributing 3919
▁AP 3918
ach 3917
▁favor 3917
▁query 3917
▁Eastern 3916
▁Traditional 3913
▁brothers 3913
▁classical 3913
▁relaxing 3913
ks 3912
▁SP 3910
▁anymore 3910
gun 3909
▁Diameter 3909
▁Nha 3909
▁graph 3908
▁operators 3908
▁routing 3908
▁thoroughly 3908
Su 3907
▁storm 3907
▁Short 3906
▁economies 3906
face 3905
▁crew 3905
▁Syria 3902
ense 3900
tori 3900
▁facts 3900
▁vulnerable 3900
▁expressly 3899
GE 3897
▁loan 3897
▁preferred 3897
▁raising 3897
▁Object 3894
▁beforehand 3894
リ 3893
INC 3892
oli 3892
▁BUT 3892
▁tournament 3892
▁360 3891
▁Output 3891
cel 3890
phone 3890
▁injury 3890
6% 3889
▁Michael 3889
▁pilot 3887
▁zoom 3885
▁Telescope 3884
▁SC 3883
▁Laboratory 3881
▁loud 3881
• 3880
▁prosecution 3880
▁rating 3880
▁Shinto 3879
▁surely 3879
▁Promoter 3878
▁satisfy 3877
▁consist 3875
▁def 3875
▁supplier 3875
Let 3874
bashi 3874
lies 3871
▁agreements 3871
▁engineer 3870
▁enemy 3869
▁fingers 3868
ert 3866
▁Tra 3866
▁utilizing 3866
ising 3865
▁2012. 3865
▁reproduction 3864
wer 3863
▁Reference 3863
▁electro 3862
▁nervous 3862
▁beat 3861
▁biological 3861
▁codes 3860
▁Panel 3859
▁proposal 3859
▁11. 3858
▁Around 3858
also 3857
▁KO 3855
▁LE 3855
▁indication 3855
▁op 3855
ulated 3854
▁Nuclear 3854
▁contributed 3854
▁lean 3854
▁Wa 3853
▁dried 3853
▁enforce 3852
▁football 3851
▁arbitration 3850
▁legendary 3850
tron 3848
▁grave 3848
ike 3847
▁Qi 3847
▁firmly 3847
▁countless 3846
cious 3845
▁10% 3845
Man 3844
▁CPU 3843
▁u 3843
har 3842
rie 3842
nal 3841
▁Afghan 3841
▁Setup 3841
Resistant 3840
▁difficulties 3840
▁borders 3839
▁emotional 3839
▁violent 3839
ICE 3837
▁residential 3837
▁Explanation 3834
▁Juli 3833
▁bone 3833
▁spending 3833
▁Adjust 3830
▁damages 3830
▁91 3829
▁Artec 3827
8% 3826
Album 3826
▁Yellow 3826
▁Brown 3825
▁documentary 3825
▁bacteria 3824
date 3823
ene 3823
saki 3823
▁Issue 3822
▁Nishi 3822
▁burst 3822
▁Mediterranean 3821
▁knock 3819
RON 3818
pin 3818
▁Aki 3818
▁Plaza 3817
▁Dance 3815
▁folders 3815
▁obviously 3815
▁39 3814
▁44 3814
▁forever 3814
media 3813
temp 3813
▁Hai 3813
▁INCLUDING 3813
NET 3812
▁fitness 3812
▁surfaces 3812
▁demonstrate 3811
▁suffered 3811
teen 3810
▁handler 3810
▁remarkable 3810
▁Points 3809
▁ceiling 3809
▁Cryptocurrencie 3808
▁steep 3808
BR 3807
▁Very 3807
RY 3806
TRA 3806
▁LIVE 3806
▁scenarios 3806
▁Especially 3804
▁shade 3804
▁Chief 3802
▁Panda 3802
Page 3799
arch 3799
▁Chairman 3798
HI 3797
rat 3797
▁prime 3796
▁showcase 3796
▁Sheet 3795
-15 3794
▁chemicals 3794
3/ 3793
▁rush 3793
▁whatsoever 3793
rich 3792
▁aside 3792
▁brick 3792
▁releases 3792
▁Flash 3791
▁Fre 3791
▁Student 3791
▁proven 3791
▁Manufacturing 3789
▁ending 3789
▁Jan 3788
▁headquarters 3788
▁molecular 3788
aba 3786
▁Ze 3785
▁airline 3785
▁slight 3784
pli 3783
▁Articles 3783
▁viruses 3783
▁Kawa 3782
▁strain 3782
▁31, 3781
▁fu 3780
▁journal 3780
▁Matt 3779
▁Federation 3778
▁romantic 3778
▁Point 3777
▁ko 3777
▁gathering 3776
▁interactive 3776
▁treasure 3776
▁instant 3774
▁printer 3774
▁Shan 3773
▁physics 3773
tting 3772
▁renowned 3772
▁20% 3771
▁Five 3771
▁combat 3771
▁combining 3771
▁derived 3771
▁sweat 3771
rating 3770
▁metres 3770
▁receives 3770
scape 3767
▁Visual 3767
▁Webmaster 3767
▁dramatic 3767
lines 3766
▁Setting 3766
▁adjusting 3766
▁arguments 3766
▁coastal 3766
pir 3765
▁PRP 3765
▁umbrella 3764
▁Self 3763
▁fellow 3763
▁2.5 3762
▁Sites 3762
hang 3761
▁tunnel 3761
▁navigate 3760
view 3759
▁converter 3759
▁numerical 3759
▁reside 3759
▁consequences 3758
▁crust 3758
action 3757
▁2- 3757
▁Def 3756
TR 3755
▁lesson 3755
az 3754
▁preserve 3753
▁sunrise 3753
ifying 3752
▁Inside 3752
▁Kita 3752
▁confidential 3752
▁honest 3752
Can 3751
EE 3751
▁LIMITED 3751
▁anonymous 3749
▁pipe 3749
▁combines 3748
▁outline 3748
3] 3747
▁slip 3747
ifies 3746
▁CoinRevolution 3746
▁merely 3746
▁poster 3746
CP 3745
One 3745
burg 3745
▁Directors 3744
▁WARRANTIES 3744
▁experimental 3744
▁hook 3744
▁Trang 3743
▁sheets 3743
▁smartphones 3743
▁III 3742
▁NTT 3741
▁envelope 3740
▁THESE 3739
▁efficiently 3739
▁stroll 3739
lea 3738
▁Sand 3738
▁Shopping 3738
▁dimension 3738
▁Para 3737
▁anticipated 3737
▁portfolio 3736
▁pressed 3736
dan 3735
sec 3734
BREITLING 3732
▁Bon 3732
▁Pictures 3731
▁debate 3731
▁tastes 3731
▁Delete 3730
▁Journal 3730
▁flour 3729
▁resulted 3729
▁temples 3729
▁WARRANTY 3727
▁administer 3727
▁globally 3727
▁hanging 3727
▁requirement 3727
▁minister 3725
▁telling 3724
▁prosperity 3723
ク 3723
▁12. 3721
▁2010. 3721
▁propose 3721
ume 3720
under 3720
▁meta 3720
▁secondary 3720
▁Aichi 3719
lat 3718
high 3717
▁indoor 3717
ural 3715
▁Communication 3715
▁Samsung 3715
▁spam 3715
En 3714
▁referring 3714
▁tiny 3712
9% 3711
▁41 3711
▁Ball 3711
▁float 3711
▁membrane 3711
▁stain 3711
▁Speed 3709
▁Complete 3708
▁Items 3708
▁actors 3708
▁objectives 3708
▁writer 3708
See 3707
▁achievement 3707
▁commit 3706
non 3705
▁Ling 3705
rest 3704
▁Cosplay 3704
▁RFID 3704
tte 3702
▁Mei 3702
▁ju 3702
▁festivals 3701
▁personality 3701
▁Message 3700
▁fade 3700
▁mat 3700
▁55 3698
▁profiles 3698
After 3697
▁evaluate 3697
▁royal 3697
▁PLEASE 3696
equ 3695
▁Alt 3695
▁permit 3695
IST 3694
most 3694
▁Tuesday 3694
▁admission 3690
▁licensed 3690
▁removing 3690
▁judge 3688
▁reader 3688
▁accelerate 3687
▁chest 3687
▁vice 3687
▁challenging 3686
▁arrange 3685
▁promptly 3685
Best 3684
▁Round 3684
▁fork 3684
watches 3683
▁00 3682
▁soap 3681
­ 3680
▁EN 3679
▁wealthy 3679
▁wider 3679
▁bits 3678
▁operator 3678
▁PI 3677
▁Easy 3675
▁Milan 3675
▁campus 3675
ching 3674
▁Corp 3674
▁involving 3674
▁Roll 3672
titu 3671
▁declare 3671
▁galaxies 3671
▁destroy 3670
▁Perhaps 3669
dium 3668
▁endless 3668
▁faced 3667
▁Cu 3666
▁somewhere 3666
▁Input 3665
▁Ye 3665
▁appointment 3665
▁Valentine 3664
▁bug 3663
▁ban 3662
▁Mongolia 3661
▁Bre 3660
▁Narita 3660
▁locals 3660
▁Sony 3659
UP 3658
arian 3658
▁essentially 3658
▁Nagasaki 3657
▁peaks 3657
▁rainy 3656
▁Cart 3655
▁Lifetime 3655
▁zones 3655
▁approaching 3654
▁commission 3654
▁employed 3654
lay 3652
machi 3652
▁arrow 3652
▁axis 3652
▁volcanic 3652
▁wisdom 3652
stop 3651
▁visibility 3651
bol 3650
▁twenty 3650
▁smoking 3647
achi 3646
▁Cambodia 3646
▁stakeholders 3646
KI 3645
▁county 3645
▁Ari 3644
▁Regarding 3643
▁abandoned 3643
▁transparency 3643
OU 3642
urge 3641
vy 3641
CD 3640
▁Staff 3640
cation 3639
▁Electronic 3639
▁Stop 3639
▁claimed 3638
▁logic 3638
▁privileges 3638
▁None 3637
▁Workspace 3637
▁Yasu 3637
▁aroma 3637
▁mar 3637
▁recommendation 3637
▁29, 3636
▁Indeed 3636
▁Wei 3636
▁declared 3636
sim 3635
▁currencies 3635
▁unlike 3635
AV 3634
▁buffet 3634
▁newsletters 3634
wai 3633
▁subsidiary 3633
ame 3631
▁Band 3631
▁Federal 3631
▁ages 3631
▁sins 3631
cket 3630
▁logging 3630
▁treatments 3630
Bo 3628
ique 3627
▁speakers 3627
▁Caribbean 3625
▁Ve 3625
▁kit 3625
ishi 3622
▁paying 3622
RS 3621
▁DivX 3619
▁rescue 3619
▁Tiffany 3618
▁distinctive 3618
▁speaker 3617
▁Tech 3615
▁Tian 3615
▁tongue 3615
▁IMPLIED 3614
▁Scenes 3614
▁terminals 3614
▁themes 3614
▁winds 3613
TP 3612
vel 3612
▁Bell 3612
▁attributes 3612
▁robust 3611
▁shuttle 3611
space 3610
▁Santa 3610
Our 3609
▁Dubai 3608
▁Requirements 3608
▁edited 3608
▁restrict 3608
dimensional 3607
▁aesthetic 3607
▁poverty 3607
▁resist 3606
▁Directory 3605
▁Municipal 3605
▁Remember 3605
▁Trust 3605
cher 3604
met 3604
▁Wallet 3604
▁celebration 3604
▁notifications 3604
ister 3603
▁2011. 3603
▁childhood 3603
Hi 3601
ically 3601
▁hills 3601
▁mineral 3601
▁neck 3601
poli 3599
▁diving 3599
▁hp 3599
▁horizon 3596
▁Francisco 3594
▁Equipment 3593
craft 3592
▁corruption 3592
▁protocol 3591
▁sacred 3591
▁safely 3591
▁Zhu 3590
▁excess 3589
▁rh 3589
▁2013. 3588
▁sought 3588
gro 3587
▁binary 3587
▁friendship 3585
▁priest 3582
▁promise 3582
▁Tab 3581
▁gu 3581
▁situated 3581
ole 3580
▁shaped 3580
▁Would 3579
actic 3578
▁owns 3578
▁texts 3578
▁Mill 3577
▁「 3577
▁recall 3576
▁screening 3576
ax 3575
▁Module 3575
▁checks 3575
ani 3574
▁13, 3574
oon 3573
▁Terminal 3573
▁hardly 3573
▁tissue 3573
ifier 3572
▁Cy 3571
▁Ethereum 3571
▁OUT 3571
SH 3570
▁Col 3569
▁Born 3568
▁poll 3568
▁ICO 3566
▁jewelry 3565
bl 3564
qi 3564
▁Dynamic 3564
▁Insight 3564
▁Vietnamese 3564
▁steadily 3564
▁tele 3564
▁probe 3563
▁refined 3561
gate 3560
▁800 3560
▁Annual 3560
▁Yong 3560
▁liver 3560
▁EMF 3558
▁accounting 3558
▁directors 3558
▁steady 3558
▁duties 3557
▁proximity 3557
2019 3556
▁surge 3556
pul 3555
▁neuro 3555
▁violence 3555
SU 3554
ug 3554
▁aiming 3554
▁luxurious 3554
▁substance 3553
:10 3552
phil 3552
▁Latin 3552
▁Major 3552
▁amendments 3552
▁exhibited 3552
main 3551
▁threshold 3551
FC 3549
GO 3549
▁Fine 3549
▁kick 3549
▁2003, 3548
▁joining 3548
▁washed 3548
bon 3547
piece 3547
-9 3546
▁nano 3546
▁screw 3546
▁75 3545
▁Ly 3545
▁permanently 3545
▁Jong 3543
▁brass 3543
▁slot 3543
▁Within 3542
ART 3541
▁prominent 3541
erate 3540
ジ 3540
Material 3539
ups 3539
▁Prior 3539
▁campaigns 3539
▁dr 3539
▁fifth 3539
▁optional 3539
▁cho 3538
▁exclusively 3538
▁institution 3538
▁Cover 3537
▁Provide 3537
▁answered 3537
▁Climate 3536
▁cliff 3536
▁compete 3534
▁sing 3534
▁conc 3533
▁cry 3533
tar 3532
▁Height 3532
ering 3531
inal 3531
▁judgment 3531
▁Current 3530
▁darkness 3530
▁harmony 3530
ox 3529
shed 3529
▁consisting 3529
▁retrieve 3529
flu 3528
▁Cut 3527
▁Del 3527
▁Heat 3526
▁aging 3526
▁carries 3526
▁exquisite 3524
▁tro 3524
▁contractual 3523
▁principal 3523
▁executed 3522
▁skies 3522
Mon 3521
и 3521
▁--- 3521
▁65 3521
▁consultation 3521
▁pig 3521
▁presentations 3520
ESS 3519
▁muscle 3519
EA 3518
spec 3516
▁Side 3516
▁dioxide 3516
▁CC 3515
▁Unlike 3515
▁buried 3515
▁exceed 3515
▁geo 3515
tta 3514
▁Farm 3514
▁max 3514
▁25, 3511
▁Dharma 3509
lash 3508
▁alter 3507
▁minimize 3507
HD 3506
Pacific 3506
▁Deep 3506
▁Cur 3505
▁lucky 3503
▁concluded 3502
▁settlement 3502
▁talent 3502
▁blank 3500
▁logistics 3500
▁crazy 3499
/12 3498
▁protecting 3498
▁z 3498
IE 3497
▁Bri 3497
▁dependent 3497
▁influenced 3496
▁Inn 3494
▁beds 3494
▁grain 3494
▁startup 3494
str 3491
▁leak 3491
▁waveform 3491
▁distinct 3490
▁lying 3490
▁Resources 3489
▁malware 3489
る 3489
eri 3488
▁Birthday 3488
▁21, 3487
▁bedroom 3487
store 3486
▁Battle 3485
▁planted 3485
▁flowing 3484
▁updating 3481
hor 3480
▁Hoa 3480
▁Iwa 3479
▁Session 3479
By 3478
▁Backup 3478
:15 3477
▁backpack 3477
▁puts 3477
▁witness 3477
mes 3475
2% 3474
rou 3474
▁routine 3473
rig 3471
state 3470
▁focuses 3469
▁negotiations 3469
▁pushing 3469
Is 3468
PRO 3468
only 3468
▁twin 3467
▁dense 3466
▁Britain 3465
Not 3464
▁Peninsula 3464
▁Rules 3462
▁Oyster 3461
lent 3460
▁analysts 3460
▁boats 3460
▁stylish 3459
▁winding 3459
▁Giant 3458
▁excellence 3458
▁jet 3458
▁acceptable 3457
▁buyers 3457
▁experiments 3457
BU 3456
OM 3456
▁Single 3455
▁corporations 3455
▁waterfall 3455
defined 3454
kh 3454
▁180 3454
▁anyway 3454
▁junior 3454
▁vaccine 3454
▁Included 3453
▁Miss 3453
▁cruise 3453
▁transmitted 3453
▁correction 3452
▁injection 3452
Portal 3450
TT 3450
tail 3450
▁surgery 3450
aga 3448
len 3448
▁Given 3448
▁herself 3448
서 3448
ille 3447
lio 3446
▁Ann 3446
▁gender 3446
▁opposition 3446
▁porcelain 3446
▁probability 3446
▁365 3445
▁Oct 3445
▁CAGR 3444
pet 3443
rink 3443
!) 3442
▁prediction 3442
▁sheep 3442
▁stack 3441
な 3439
note 3438
▁drain 3438
▁14, 3437
▁mi 3436
iao 3435
radi 3435
▁consciousness 3435
▁Cons 3434
▁Holiday 3434
▁palm 3433
ado 3432
ages 3432
▁deployment 3430
▁fog 3430
▁14. 3429
Shi 3428
phon 3428
▁sal 3428
▁slide 3428
▁mounted 3427
▁sleeping 3427
▁Thursday 3426
▁cables 3426
▁Zhang 3425
▁emphasis 3425
▁blowing 3424
▁slope 3424
▁Tourist 3423
▁58 3422
▁DT 3422
▁engagement 3421
▁subscribe 3421
▁nose 3420
▁stereo 3420
▁demonstrated 3419
▁losses 3419
SL 3418
gas 3418
erie 3417
▁bold 3417
▁destinations 3417
▁resin 3416
▁villa 3415
ATE 3414
▁Angel 3413
▁recovered 3413
▁Representative 3412
▁apparent 3412
Time 3411
ask 3410
▁4- 3410
ional 3409
rent 3409
▁CIA 3409
▁attach 3409
▁hum 3408
taka 3407
ush 3407
▁foreigners 3407
II 3406
JP 3406
cgi 3406
▁JBIC 3406
▁Opening 3406
▁Sta 3406
▁characterized 3406
▁diagram 3406
GB 3405
bru 3405
▁2009, 3405
ao 3404
▁5- 3404
▁Par 3403
stwatches 3402
▁beam 3402
▁highlighted 3402
▁AT 3401
▁Risk 3401
▁architectural 3401
▁lectures 3401
▁Disaster 3400
▁ISIS 3400
aging 3399
о 3399
▁vector 3398
▁vegetable 3398
▁Girl 3397
▁specialty 3396
▁Naga 3395
▁pharmaceutical 3394
▁segments 3394
▁valve 3394
▁Metro 3393
▁George 3391
▁deeper 3391
▁2008, 3390
▁construct 3390
▁pit 3390
▁terrorism 3390
she 3388
▁sensitivity 3388
▁crime 3387
▁attribute 3386
agon 3385
zz 3385
▁wake 3384
CK 3383
IV 3383
ashi 3383
▁cooked 3383
▁mud 3383
▁switching 3383
eli 3382
▁Chrome 3382
▁Contract 3382
▁Target 3382
▁dam 3382
▁managers 3382
▁tries 3381
-17 3379
▁Little 3378
▁jurisdiction 3377
DD 3376
▁James 3376
▁accessed 3376
▁OTHERWISE 3375
▁spreading 3373
mentioned 3372
▁shi 3372
▁registry 3371
▁computing 3370
▁Construction 3368
bility 3367
size 3367
` 3366
▁LCD 3366
ches 3365
▁investigations 3365
▁teeth 3365
▁trusted 3365
eu 3364
▁nights 3363
▁optimized 3363
▁Camera 3362
▁Kyushu 3362
▁winner 3361
YO 3360
^ 3360
rai 3360
▁cra 3360
▁earned 3360
▁powers 3360
▁BTC 3359
▁Expo 3359
▁Ukraine 3359
▁molecules 3359
ben 3358
version 3358
aste 3357
▁Function 3357
▁connectivity 3357
▁noble 3357
▁mount 3353
▁accidents 3352
▁afford 3351
▁missile 3351
▁Tor 3350
▁grip 3350
▁holder 3349
▁imagination 3349
▁tutorial 3349
page 3348
▁Nov 3348
▁reflects 3347
▁ye 3347
del 3346
▁Angeles 3346
1% 3345
uchi 3345
wo 3345
▁Train 3345
▁bulk 3345
▁shine 3345
▁worst 3345
try 3344
kyu 3343
▁durable 3343
asis 3342
dies 3342
▁MATERIAL 3342
▁edits 3342
▁46 3341
▁Browser 3341
▁stuck 3341
▁Abe 3339
▁headers 3339
RD 3338
▁candidate 3338
▁portable 3338
▁telescope 3338
▁Tree 3337
▁Value 3336
▁seller 3336
▁shelter 3336
OT 3335
▁Ranking 3335
▁bonus 3335
▁linear 3335
▁Need 3334
▁integrate 3333
▁lakes 3333
▁staying 3333
Work 3332
▁addressed 3332
▁armed 3332
▁drill 3332
▁jacket 3331
▁Others 3330
▁Partner 3330
resolution 3329
▁LINKS 3329
▁acceptance 3329
▁47 3328
▁Operation 3328
▁proved 3328
▁Mc 3327
▁specialists 3327
zawa 3326
▁trains 3325
real 3324
▁pointing 3324
)? 3322
UC 3322
odo 3322
▁Close 3321
▁Toyota 3321
▁Vienna 3321
▁Walk 3321
▁fr 3321
▁dB 3320
▁handled 3320
dict 3319
▁Championship 3319
▁bend 3319
▁reactions 3319
Li 3318
building 3318
far 3318
Edit 3317
Ra 3317
stra 3317
▁1970 3317
▁blossom 3317
▁$4.95 3316
▁PRE 3316
▁Recovery 3316
▁blade 3316
▁bundle 3316
▁pine 3316
LS 3315
▁Luc 3315
▁fairly 3315
▁incredible 3315
▁lightning 3315
mid 3314
▁tempo 3314
ffer 3313
▁Early 3313
▁Example 3313
▁sapphire 3313
▁Officer 3312
UM 3311
GI 3310
step 3310
▁Comments 3310
▁assess 3310
Open 3309
▁Shows 3307
▁holders 3307
▁inventory 3307
raw 3306
▁Could 3306
▁producer 3306
▁sculpture 3306
▁ethnic 3305
▁fried 3305
▁pri 3305
▁titles 3305
ELL 3304
▁dashboard 3304
▁gi 3304
▁sick 3304
à 3303
▁affordable 3302
▁Instruments 3301
▁Ray 3301
▁tin 3301
▁upcoming 3301
emi 3300
▁circuits 3300
▁literature 3300
▁Hard 3299
▁Several 3298
yuki 3297
▁Sep 3297
▁pulse 3297
carbon 3295
▁Karate 3295
▁col 3295
▁volunteer 3295
ison 3294
▁Hua 3294
ret 3293
▁Manual 3293
▁sad 3293
▁mag 3292
▁pottery 3292
▁profits 3292
DF 3291
▁Until 3291
via 3290
▁Discount 3290
▁preset 3290
tz 3289
▁crossing 3289
▁emerged 3289
▁Manufacture 3288
▁Ripple 3288
ava 3287
▁Gulf 3286
▁Texas 3285
▁melt 3284
▁Huangshan 3282
BC 3281
commerce 3281
ido 3281
▁DRM 3281
▁excavation 3281
▁harmful 3280
▁officers 3280
▁promoted 3280
bel 3279
ula 3279
▁alliance 3279
ways 3278
▁clauses 3277
0% 3276
SR 3276
▁trucks 3275
lim 3274
▁estimate 3273
▁verse 3273
yaki 3272
▁excitement 3272
▁shipment 3272
inate 3271
▁CARE 3271
そ 3271
▁noon 3270
roid 3269
▁JavaScript 3269
▁Shinjuku 3269
▁nodes 3268
▁ur 3266
ü 3265
▁Menu 3265
▁hate 3265
▁streams 3265
nel 3264
▁1994 3264
rine 3262
▁TEL 3261
▁virtually 3261
▁lovely 3260
▁microphone 3259
flow 3258
▁INFORMATION 3258
▁bearing 3258
▁emotions 3258
▁foam 3258
▁pour 3258
jia 3257
pel 3257
▁bra 3257
▁trials 3257
▁worker 3257
▁frames 3256
▁vessel 3256
ulator 3255
▁sentence 3253
» 3252
▁newspaper 3249
mis 3248
▁quietly 3248
UI 3247
а 3247
▁Consulate 3246
phy 3243
レ 3243
High 3242
▁Factory 3242
▁creativity 3241
▁deny 3241
▁grace 3241
ink 3239
▁Six 3239
▁adjusted 3239
▁dancing 3239
▁enhancing 3239
▁predictions 3238
▁significance 3238
hood 3237
▁TSMC 3237
▁Works 3237
▁adjustments 3237
▁authorization 3237
Ca 3236
▁(4 3235
position 3234
▁bouquet 3234
▁pixel 3234
▁vacuum 3234
▁prototype 3232
Type 3231
▁rarely 3231
▁holy 3230
Min 3229
▁restored 3229
▁coat 3228
pers 3227
▁cargo 3226
▁departments 3226
▁rack 3226
vit 3225
▁Editing 3225
bro 3224
▁Reg 3224
▁crowded 3224
▁decreased 3224
▁panda 3224
edit 3223
▁modes 3223
▁Fish 3222
▁bracelet 3222
▁Think 3221
los 3220
▁instruction 3220
▁linking 3220
▁Capital 3219
▁intend 3219
▁namespace 3219
▁Sapphire 3218
▁28, 3216
▁Cas 3215
▁glance 3215
▁invitation 3214
▁worried 3214
▁DAY 3213
▁Flo 3213
▁hereby 3213
▁stem 3213
FI 3212
▁finger 3212
▁lovers 3212
▁sacrifice 3211
▁Muslim 3210
▁identical 3210
▁impacts 3210
▁wi 3210
▁wise 3210
▁collections 3209
bank 3208
▁binding 3208
▁reproduce 3208
▁heading 3206
File 3205
IX 3205
▁popup 3205
International 3204
uous 3204
using 3204
▁AUROTEK 3204
▁Finance 3204
▁fulfill 3204
▁publishing 3203
emia 3202
▁Currency 3202
▁apparently 3202
▁(18 3201
▁enormous 3201
▁Civil 3200
▁Miya 3200
▁packed 3200
▁picked 3199
▁debris 3198
NK 3197
▁AR 3197
▁bot 3197
▁minds 3196
▁succeeded 3196
Tokyo 3195
▁absorb 3195
▁ultimately 3195
▁assured 3194
▁compounds 3194
▁nail 3193
▁paragraph 3193
▁accumulated 3192
▁offset 3192
urg 3191
▁Solutions 3191
▁timely 3191
▁accompanying 3190
▁Saving 3189
nai 3188
▁700 3188
▁Mel 3188
▁unsubscribe 3188
abi 3187
▁Drum 3187
▁Simply 3187
▁elections 3187
▁fe 3186
HT 3185
▁Maybe 3185
color 3184
▁satellites 3184
gr 3183
▁hypo 3183
▁Supreme 3182
▁Vari 3182
▁largely 3182
▁variations 3182
▁Retention 3180
▁CH 3179
▁Consul 3179
/11 3178
SK 3178
zy 3178
▁Ito 3178
▁streaming 3178
▁Minh 3177
▁Robert 3177
▁relaxed 3177
circ 3176
▁Documents 3175
-30 3174
▁Wo 3174
heat 3172
tine 3172
ö 3172
▁restoration 3172
▁afterwards 3171
▁regime 3171
ford 3170
▁LO 3170
▁browsers 3170
▁barely 3168
Ba 3167
guchi 3167
lets 3167
▁Stores 3167
SD 3164
▁Parts 3164
▁Sim 3164
▁Navy 3162
▁Guests 3161
▁spray 3161
▁substantial 3161
▁99 3160
▁Vision 3160
▁belonging 3160
▁flame 3160
▁accommodations 3159
▁soba 3159
▁Apply 3158
nate 3157
▁09 3157
▁Technologies 3156
5.00 3155
active 3155
word 3155
700 3154
▁Provincial 3154
▁conclude 3154
▁melting 3154
Ad 3153
cco 3153
▁gently 3153
▁optimize 3153
た 3153
▁3.0 3152
▁revolution 3152
▁Saturdays 3151
▁governance 3151
▁labels 3151
▁silence 3151
tone 3150
▁Position 3150
▁Villa 3150
pper 3149
▁optimization 3148
▁pa 3148
▁tens 3148
▁Workshop 3146
▁pond 3145
world 3144
▁balanced 3144
rri 3143
▁dough 3143
▁lawful 3143
で 3143
▁cement 3142
▁disposal 3140
▁hoping 3140
▁Zu 3139
▁requiring 3139
duct 3138
▁04 3138
▁clan 3138
▁modulation 3138
ux 3137
▁beaches 3137
▁diagnosis 3137
▁ramen 3137
UE 3136
▁affecting 3136
▁polymer 3136
▁proteins 3136
fold 3135
} 3135
▁26, 3135
▁accurately 3134
▁continually 3134
▁Administrator 3133
▁Off 3133
▁rhythm 3133
▁hy 3132
▁occasionally 3132
els 3131
second 3131
▁translated 3130
▁24, 3129
▁elementary 3129
▁refreshing 3129
▁16, 3128
▁SQL 3128
▁Preferences 3127
▁Recent 3127
▁encountered 3127
sca 3126
▁compatibility 3126
▁debut 3126
ico 3125
▁grasp 3125
▁Mor 3124
▁fewer 3124
▁mg 3124
▁Creative 3123
▁graphical 3122
cial 3121
▁murder 3121
▁clubs 3120
▁External 3119
▁cyber 3118
▁fragrance 3118
▁trained 3118
▁warehouse 3118
▁Army 3117
▁Ber 3117
▁1.2 3116
▁Wide 3116
▁bond 3116
▁collecting 3116
▁drops 3116
▁05 3115
▁Parks 3115
▁catalyst 3115
▁racing 3115
▁Tax 3114
▁emission 3114
parties 3113
▁Permission 3113
▁theatre 3113
▁cart 3112
▁corresponds 3112
ん 3112
▁Chamber 3111
▁indicating 3111
▁Starting 3110
▁affairs 3110
▁quantities 3110
ened 3109
pho 3109
sea 3109
▁Fun 3109
▁compile 3109
▁euro 3109
▁exhaust 3109
▁savings 3109
fr 3108
▁Things 3108
▁praise 3108
▁Sale 3106
that 3104
▁Arabia 3104
▁individually 3104
▁spacious 3104
.* 3103
nn 3103
▁17, 3103
▁30% 3102
▁Dam 3102
▁ties 3102
▁Ana 3101
▁#1 3100
▁exercises 3100
▁scholarship 3100
ag 3099
▁Chile 3099
▁sermon 3099
▁tasty 3098
mari 3097
▁Hours 3096
▁boasts 3096
▁invalid 3096
group 3094
turn 3094
▁Theme 3094
▁archive 3094
▁creator 3094
▁specialist 3094
mori 3093
▁Putin 3093
▁prison 3093
▁drunk 3092
sub 3091
▁Brother 3091
▁CORPORATION 3091
▁glad 3091
▁Records 3090
▁qualified 3090
ド 3090
RAM 3089
▁batteries 3089
▁reward 3089
morph 3087
▁Originally 3087
▁derivative 3087
▁ge 3087
capped 3086
iff 3086
source 3086
tian 3086
▁Nevertheless 3086
▁elegance 3086
▁incorporated 3086
mph 3085
▁Task 3085
▁cultivation 3085
▁; 3084
▁SU 3084
▁Hangzhou 3083
▁distinguish 3083
▁heavily 3083
▁moderate 3083
▁Wood 3082
▁motorcycle 3082
▁ignored 3080
▁ownership 3080
▁Liu 3079
core 3077
▁Sk 3077
▁Audit 3076
▁Tele 3076
▁rows 3075
▁welfare 3075
dor 3074
▁tokens 3074
▁Dream 3073
▁healthcare 3073
▁notify 3073
▁pulling 3073
▁PARTNERS 3072
First 3071
east 3071
▁variant 3071
kata 3070
▁till 3070
Holiday 3069
CT 3068
▁Complaints 3068
▁Sustainable 3068
▁Links 3067
▁mystery 3067
YA 3066
▁affiliated 3066
▁titled 3066
suit 3065
▁Driver 3064
▁bitch 3064
▁lifting 3064
▁Lady 3063
▁Purposes 3063
▁excessive 3063
▁stayed 3063
▁XML 3062
▁alphabet 3062
▁gods 3062
▁refugees 3062
▁ti 3062
▁Hesse 3061
▁infant 3061
▁Theater 3060
▁flavors 3060
▁mapping 3060
used 3059
▁Portugal 3059
▁occasions 3059
▁pairs 3059
▁puzzle 3059
▁radar 3059
▁× 3059
▁ARE 3058
▁Instagram 3058
▁Clip 3057
▁collective 3056
▁makeup 3056
▁1992 3055
▁Functions 3055
▁hip 3054
▁hurt 3054
▁ignore 3054
▁proportions 3053
▁farming 3052
▁refresh 3052
Blu 3051
uation 3051
▁NI 3051
▁evolved 3050
▁lively 3050
▁Cool 3049
▁pride 3049
▁hyper 3048
▁prestigious 3048
▁19, 3047
▁Hold 3047
▁Moms 3047
▁alongside 3047
pil 3046
▁aged 3046
aya 3045
▁resolved 3045
▁Story 3044
kou 3043
▁underlying 3043
▁woods 3041
▁Additional 3040
▁43 3039
▁convention 3039
▁screens 3039
▁Sri 3038
▁Mitsubishi 3037
▁civilization 3037
▁diver 3036
▁hungry 3036
▁Talk 3035
CS 3034
▁06 3034
▁70% 3034
ora 3033
▁Load 3033
gram 3032
▁illness 3032
▁preserved 3032
▁sen 3032
mov 3031
▁Treatment 3030
▁monster 3030
▁viewer 3029
▁22, 3028
▁indicator 3028
br 3027
▁consecutive 3027
▁mall 3027
▁potatoes 3027
▁vicinity 3027
▁Forecasts 3026
▁Str 3026
▁lady 3026
▁spare 3026
▁Switch 3025
nar 3024
▁Va 3024
▁Cash 3023
▁lit 3023
▁gratitude 3022
▁crops 3021
▁Lang 3020
▁Onsen 3020
▁Associate 3019
▁Republican 3019
▁lemon 3019
af 3018
fix 3018
▁fails 3018
▁volumes 3018
▁2009. 3017
▁Adam 3017
▁complement 3016
▁instances 3016
▁recipients 3016
▁bridges 3013
▁cor 3013
USA 3012
▁Cre 3012
▁Hira 3012
▁cow 3012
▁healing 3012
▁Framework 3011
▁jewel 3011
▁identifier 3010
PORT 3009
▁strike 3009
▁considerable 3008
▁flesh 3008
▁preceding 3008
▁Customers 3007
▁Toyo 3007
▁arc 3007
▁develops 3007
▁electromagnetic 3007
▁HRM 3006
▁Opt 3006
カ 3006
From 3005
▁Democratic 3003
▁loose 3003
▁margin 3003
▁Visitors 3002
mir 3000
rail 3000
ATA 2999
▁generating 2999
being 2998
post 2997
▁Method 2997
auth 2996
▁ranges 2996
▁Kazu 2994
cker 2993
▁Fee 2993
▁logs 2993
front 2992
inch 2992
Net 2991
▁AGREE 2991
▁PE 2991
▁lands 2991
▁fake 2990
▁Arctic 2989
▁Internal 2989
▁erotic 2988
▁missed 2988
▁disappeared 2986
▁federal 2986
Per 2985
▁GT 2985
ility 2983
▁grab 2983
▁possess 2983
▁refused 2983
shirt 2982
▁2007, 2982
ロ 2982
ddle 2981
▁Storage 2981
ees 2980
▁Mass 2980
▁adverse 2980
▁deliveries 2980
▁wanting 2980
▁Wild 2979
▁affiliates 2979
▁citizen 2979
▁unfortunately 2979
が 2979
elle 2978
▁Continue 2977
▁inland 2977
▁references 2977
▁warned 2977
ira 2976
4) 2975
▁Mountains 2975
▁alleged 2975
▁Companies 2974
away 2973
▁Avoid 2973
▁disabilities 2973
aw 2972
치 2972
▁(* 2971
▁1017 2971
▁silent 2971
Qu 2970
▁notebook 2970
▁Below 2969
▁Pearl 2968
▁Pra 2968
▁factories 2968
▁fossil 2968
▁drawings 2966
▁liked 2966
▁sushi 2965
▁union 2965
00,000 2964
GP 2964
▁Chiba 2964
▁Mal 2964
▁boards 2964
▁eruption 2964
pic 2963
yuan 2963
Dis 2961
iving 2961
▁TT 2961
▁glory 2961
MU 2960
▁Police 2960
▁acoustic 2960
yoshi 2959
▁Converter 2959
▁TAKE 2959
▁creatures 2959
ough 2958
system 2958
▁Galaxy 2958
▁doctors 2958
▁emperor 2958
▁unlikely 2958
lot 2957
▁DA 2957
▁bones 2957
quir 2956
▁Near 2956
▁Reserve 2956
▁improves 2956
▁designing 2955
▁Ali 2954
▁Cast 2953
▁lining 2952
▁papers 2952
▁tablets 2952
Chopard 2951
▁Days 2951
▁catalog 2951
▁connector 2951
▁protective 2951
▁Window 2950
▁shoulder 2950
▁wheels 2950
▁Noh 2949
▁Configuration 2948
▁Job 2948
▁fleet 2948
▁Devices 2947
▁Sweden 2947
▁Views 2947
▁guitar 2946
▁Hide 2945
▁copying 2945
▁separation 2945
し 2945
text 2944
▁Competent 2943
▁humidity 2943
▁23, 2942
▁grateful 2942
▁thereof 2941
▁Il 2940
▁Upon 2940
▁Zoom 2940
▁exported 2940
▁galleries 2940
-25 2939
▁cosplay 2939
tr 2938
▁13. 2938
▁Ultimately 2938
▁dogs 2938
wave 2937
▁RS 2937
▁Registration 2937
▁SM 2937
▁TR 2937
▁analyse 2937
▁companion 2937
▁virgin 2937
ination 2936
▁perception 2936
▁namely 2935
direct 2933
▁momentum 2933
▁Philip 2932
▁[1 2932
▁locate 2931
▁lung 2931
▁smoothly 2931
ago 2930
▁1993 2930
▁architect 2930
▁mesh 2930
▁sustainability 2930
▁workspace 2930
▁Chan 2929
▁periodically 2929
▁snacks 2929
▁HP 2928
▁gem 2928
▁insight 2928
itive 2927
▁chamber 2927
▁roughly 2926
▁Copyright 2925
▁Otherwise 2925
▁Beautiful 2924
▁bands 2924
▁graduated 2923
▁sustain 2923
▁unclear 2923
▁Native 2922
▁sec 2922
▁somehow 2922
▁Senior 2921
▁settled 2921
▁financing 2920
▁€10... 2920
▁€11... 2920
▁€12... 2920
▁€7... 2920
present 2919
▁Pat 2919
▁evident 2919
pl 2918
▁fits 2918
ema 2917
▁ecosystem 2917
▁wrist 2915
lk 2914
▁Hat 2914
▁Ren 2914
▁anxiety 2914
▁ibis 2914
▁Mono 2913
▁OIST 2913
▁cooperative 2913
▁hero 2913
▁roller 2913
▁rocket 2912
▁finishing 2911
▁vibration 2911
lang 2909
▁AL 2909
▁launching 2909
Go 2907
Th 2907
▁Indo 2907
0.0 2906
CHI 2906
▁10,000 2906
▁attempting 2904
LM 2903
rav 2903
▁Comm 2903
▁Herengracht 2903
▁beneficial 2903
▁occurrence 2903
▁spirits 2903
proof 2902
▁moral 2902
▁MOSHI 2901
▁Feedback 2900
▁possession 2900
▁prop 2900
▁scattered 2900
▁Martin 2899
▁Cri 2898
sch 2897
▁collaborative 2897
▁neighboring 2897
▁teenagers 2897
▁Sin 2896
▁Usage 2896
law 2895
▁ES 2895
▁Memorial 2895
▁abolish 2895
host 2894
▁Eli 2894
▁597, 2892
▁LOTTE 2892
▁Stone 2891
▁copied 2891
▁loves 2891
▁rope 2891
▁unauthorized 2891
▁Present 2890
▁realistic 2890
.2. 2888
▁27, 2888
▁Publication 2888
▁eaten 2888
Water 2887
▁Khanh 2887
root 2886
▁Individual 2886
▁candidates 2885
▁officer 2885
▁penalty 2885
▁volunteers 2885
▁Living 2884
▁martial 2884
▁wh 2884
▁literally 2883
▁precautions 2883
▁representations 2883
▁wouldn 2883
Comp 2882
▁Shimo 2882
▁shield 2882
▁tech 2882
IDE 2881
asse 2881
ele 2881
▁Challenge 2881
▁Dual 2881
▁mothers 2881
Link 2880
zer 2880
▁vulnerability 2880
ski 2879
▁Fortunately 2879
▁Scientific 2879
▁ACCESS 2878
▁Disc 2878
▁Opera 2878
▁metadata 2878
coin 2877
▁favorable 2877
▁reveals 2877
fire 2875
▁Christians 2875
▁Floor 2875
dal 2874
omwa 2874
lder 2873
oku 2873
▁defeat 2873
▁matrix 2873
▁generator 2872
service 2871
í 2871
▁adjacent 2871
▁blast 2871
▁Bali 2870
▁Spec 2869
▁logical 2869
▁Alliance 2868
▁Match 2868
FF 2867
▁circular 2867
▁floors 2867
ying 2866
▁130 2866
처 2866
oy 2865
▁Password 2865
▁attending 2865
hereinafter 2864
▁(5 2864
▁intent 2864
▁qualities 2864
▁Unix 2863
▁beans 2863
▁chemistry 2863
▁pork 2863
sky 2862
▁welding 2862
▁Pack 2861
▁accomplish 2861
▁Contents 2860
▁Moto 2860
▁circulation 2859
▁compound 2858
▁tent 2858
▁constraints 2857
▁kindly 2857
eva 2856
▁Wen 2854
▁piano 2853
▁rod 2853
▁Ultra 2852
nut 2851
▁restricted 2850
▁Dutch 2849
▁grows 2849
These 2848
each 2848
е 2848
▁1989 2848
byte 2847
ddy 2847
▁Cancel 2847
タ 2847
clo 2846
dol 2846
▁1960 2846
▁carved 2846
▁confusion 2846
▁followers 2846
▁introduces 2846
olo 2845
▁MOL 2844
lecommunications 2843
▁Economy 2843
▁guided 2843
▁troops 2843
▁violate 2843
▁Jacob 2842
▁attendance 2842
▁KA 2841
▁singer 2841
KA 2840
ander 2840
▁prevents 2840
▁signing 2840
▁Important 2839
▁리 2839
▁Eye 2838
▁Pavilion 2837
▁belief 2837
MX 2836
ock 2836
Chi 2835
▁discontinue 2835
▁patch 2835
Lo 2834
▁BMW 2834
5,000 2833
dd 2832
▁loyalty 2832
▁tanks 2832
exe 2831
▁Dictionary 2831
▁controlling 2831
▁endeavor 2831
limit 2830
▁velocity 2830
just 2829
omi 2829
▁BOX 2829
▁guru 2829
fall 2828
▁CV 2828
▁Campaign 2828
-16 2827
▁GR 2827
▁Root 2827
▁Route 2827
eau 2826
▁containers 2826
rates 2825
▁LET 2825
yeong 2824
▁1:30 2824
ト 2824
▁genome 2822
▁locally 2822
magnetic 2821
value 2821
▁blocking 2821
▁sensation 2821
▁2,000 2820
▁beautifully 2820
▁generates 2820
▁plugin 2820
dian 2819
▁Jiang 2819
▁concerts 2819
▁edges 2819
▁kingdom 2819
-13 2818
▁Baseball 2818
▁bottles 2818
scope 2817
▁Sil 2817
▁confused 2817
tum 2816
▁span 2816
▁stays 2816
ici 2815
▁producers 2815
THE 2813
▁blessed 2813
▁inquiries 2813
▁utilization 2813
ERS 2811
▁TH 2811
▁opera 2811
▁grounds 2810
▁incoming 2810
네이 2810
▁Default 2809
大 2809
Or 2807
▁footage 2807
▁BO 2806
▁breathing 2806
▁vintage 2806
trans 2805
▁breeze 2805
excluding 2804
▁110 2804
▁revisions 2804
▁Stream 2803
SSI 2802
MD 2801
▁Various 2801
▁positioned 2801
CON 2800
body 2800
gel 2800
ector 2798
▁fairest 2798
▁LAW 2796
▁purple 2796
▁LAN 2795
▁organ 2795
feng 2794
last 2794
udemars 2794
▁overhead 2794
▁mixing 2793
▁writes 2793
▁Deputy 2791
▁Lion 2791
▁Military 2791
▁Princess 2791
▁abilities 2791
▁enhancement 2791
ACE 2790
▁Seven 2790
▁foster 2790
▁involvement 2790
▁24- 2789
▁ICU 2789
▁questionnaire 2789
▁remind 2788
▁depression 2787
▁networking 2787
▁jo 2786
books 2785
▁humanity 2785
▁manifest 2785
▁weapon 2785
▁lap 2784
▁Pink 2782
▁LOCAL 2781
shop 2780
▁missions 2780
▁scanner 2780
▁stimulate 2780
ibly 2779
lum 2779
▁PU 2779
▁poison 2779
▁substrate 2779
Press 2778
hr 2778
▁BA 2778
▁sentient 2778
▁voices 2778
▁dear 2777
▁Fig 2776
▁advertisement 2776
AKA 2775
▁Languages 2775
▁Supplier 2775
▁Tube 2775
▁URLs 2775
▁der 2775
こ 2775
System 2774
aged 2774
eller 2774
night 2774
▁polar 2773
▁💐 2773
▁2003. 2772
▁indispensable 2772
▁offerings 2772
▁pregnant 2772
▁whereas 2772
LL 2771
▁Ink 2771
▁Plug 2771
▁workplace 2771
▁casino 2770
▁cease 2770
▁2257 2769
▁arising 2769
▁lion 2769
▁photographer 2769
▁surround 2769
▁wizard 2769
VA 2768
performance 2768
▁waiver 2768
mag 2767
▁ITS 2767
▁Sato 2767
▁disciples 2767
▁proposals 2767
RR 2765
ache 2765
itter 2765
▁08 2765
▁bathtub 2765
mble 2764
▁assistant 2764
▁Newborn 2763
▁appreciation 2763
END 2762
▁Geo 2762
▁Pool 2762
▁Retail 2762
▁insist 2762
▁Client 2761
bble 2758
▁barrier 2758
▁contrary 2758
▁imaging 2758
/01 2757
▁Pattern 2757
▁chains 2757
▁incidents 2757
▁ritual 2757
▁silicon 2757
▁subtle 2757
▁buffer 2756
▁institute 2756
▁chips 2755
▁explicitly 2755
▁Combined 2754
▁erected 2754
▁purchases 2754
▁Includes 2753
Wa 2751
▁Newsletter 2751
▁retained 2751
▁suck 2751
▁bilateral 2750
▁30- 2749
▁Activity 2749
▁pose 2749
▁proportion 2749
kei 2748
▁cal 2748
▁galaxy 2748
▁thrown 2748
mpo 2747
▁Projects 2747
GS 2746
flex 2746
▁mon 2746
▁Huang 2745
▁Survey 2745
▁independently 2745
▁violation 2744
/2 2743
▁53 2742
▁ci 2742
▁harsh 2742
-14 2741
▁divide 2741
▁fatigue 2741
▁reign 2741
▁Moncler 2740
channel 2739
▁corn 2739
▁robots 2739
▁Arch 2738
▁Assistant 2737
▁NT 2737
▁Spot 2737
▁dynasty 2737
▁ghost 2737
▁ga 2736
▁hostels 2736
▁methane 2736
▁patience 2736
▁fashionable 2735
▁stroke 2735
▁Again 2734
▁fortune 2734
▁skilled 2734
▁wires 2734
▁Lecture 2733
▁Final 2732
▁Making 2732
AG 2731
ONE 2731
▁exploring 2731
▁alignment 2730
▁cafe 2730
elli 2729
TU 2728
▁banner 2728
▁wrapped 2728
nit 2727
▁rainfall 2727
tou 2726
▁Wine 2725
▁shake 2725
▁utilized 2725
▁Hell 2724
ま 2724
▁fed 2723
Fri 2722
▁Pure 2722
▁facilitating 2722
▁marble 2722
▁bases 2721
▁invasion 2721
▁mist 2721
▁sponsor 2721
ali 2720
rong 2720
▁filename 2720
phi 2719
▁breaks 2719
▁ri 2719
GEN 2718
▁automobile 2718
▁chances 2718
▁salad 2718
TL 2717
bing 2717
dio 2717
▁carbide 2717
▁limitations 2717
▁vo 2715
force 2714
▁Lock 2714
▁Strategy 2714
▁pearl 2714
▁platinum 2714
▁Sar 2713
▁minimal 2713
iro 2712
▁handles 2712
▁independence 2712
oh 2711
EST 2710
▁Hara 2710
watch 2709
▁phy 2709
2.5 2708
▁tie 2708
▁upward 2708
▁52 2707
▁generous 2707
▁Ob 2706
▁settle 2706
▁Gorge 2705
▁Planning 2705
▁blossoms 2705
local 2704
▁dramatically 2704
▁Faculty 2703
▁Hostel 2702
▁shortly 2702
▁bro 2701
è 2700
▁charming 2700
▁Feng 2699
ended 2698
▁bay 2698
▁bull 2698
▁kidney 2698
▁Tam 2697
▁meaningful 2697
▁pasta 2697
▁rings 2697
information 2696
tile 2696
▁Florida 2696
▁Meetup 2696
▁terrible 2695
INE 2694
logical 2694
▁EXPRESS 2694
▁Engage 2694
▁consulting 2694
▁drift 2694
▁suited 2694
▁07 2693
▁UNIQLO 2693
▁interactions 2693
▁teen 2692
bat 2691
lai 2691
Read 2690
tang 2690
▁incorporate 2690
▁lava 2690
▁mistakes 2690
oki 2689
▁SSL 2689
▁regards 2689
tani 2687
pac 2686
scribe 2686
▁Kit 2686
▁incorrect 2685
▁periodic 2685
▁Shen 2684
▁deepen 2684
▁router 2684
iki 2683
▁minerals 2683
case 2681
▁Chicago 2681
▁Scene 2681
ml 2680
outs 2680
▁2004, 2680
Ko 2679
▁Together 2679
▁mercy 2679
commercial 2678
▁Jing 2678
▁personalized 2678
amine 2677
▁anime 2677
▁crafts 2677
▁switches 2677
USE 2676
▁Invest 2676
▁suspect 2676
▁navigator 2675
▁rays 2675
AU 2674
▁Electro 2674
▁Ever 2674
umble 2673
▁freeze 2672
▁Industries 2671
▁realm 2671
▁Instrument 2670
▁digit 2670
dar 2669
mount 2669
▁Bin 2669
▁eligible 2668
▁profound 2668
▁Mary 2667
▁Path 2667
900 2666
▁translate 2666
hiko 2665
▁Designer 2665
▁Inspector 2665
▁Front 2664
▁Wan 2664
▁gaming 2664
oriented 2663
plan 2663
▁Still 2663
▁vol 2663
cultural 2662
▁Topics 2662
▁Yuan 2662
▁provinces 2662
▁struck 2662
▁wrap 2662
ACK 2661
Search 2661
▁descriptions 2661
▁impressed 2661
▁dynamics 2659
▁Iranian 2658
▁Ran 2658
▁SW 2658
▁Palm 2657
▁Trip 2657
▁VR 2657
▁tomato 2657
hou 2655
▁frozen 2655
▁expressions 2654
▁ham 2654
▁(10 2653
▁asteroid 2653
▁equally 2653
lla 2652
▁accidentally 2652
▁theoretical 2652
claim 2651
tary 2651
▁CR 2651
▁bucket 2651
▁Sport 2650
▁ecological 2650
▁shorter 2650
▁Voice 2649
bur 2648
▁Browse 2648
BL 2647
DM 2647
▁Pla 2647
▁activation 2647
tant 2646
▁Theatre 2646
▁fold 2646
▁pursuan 2646
check 2645
chin 2645
nam 2645
▁projection 2644
▁weekly 2644
axis 2643
ello 2643
▁Arbitration 2643
▁Pin 2643
▁Ruby 2642
▁airplane 2641
▁wheat 2641
dot 2640
hama 2640
pop 2640
▁abstract 2640
▁leverage 2640
▁parks 2640
web 2639
▁discounts 2639
▁Jewish 2638
▁Submit 2638
▁Wal 2638
ITA 2637
PATEK 2637
▁Mizu 2637
▁cinema 2637
▁beneath 2636
▁integrity 2636
▁supplement 2636
▁urgent 2636
▁visualize 2636
▁PHILIPPE 2635
▁revised 2635
▁storing 2635
▁Bed 2634
▁Soft 2634
▁champion 2634
chen 2633
▁Stay 2633
▁boundaries 2633
▁chairman 2633
▁chronic 2633
▁killing 2633
▁photographers 2633
Now 2632
▁Accessories 2631
▁Functional 2631
▁Taichung 2631
▁habit 2631
▁machining 2631
▁termination 2631
.3. 2630
▁Ross 2630
▁Tama 2630
▁diplomatic 2630
▁lounge 2630
▁FU 2629
▁Sur 2629
▁publicly 2629
ARI 2628
SON 2628
▁542 2628
▁Fin 2628
▁Used 2628
▁schematic 2628
LT 2627
▁KITCHEN 2627
▁Okayama 2627
▁Pot 2627
▁preference 2627
Di 2626
▁onlinesaleus 2626
plo 2624
▁Providing 2624
▁ext 2624
▁surprising 2624
▁CREATIVE 2623
▁Maximum 2623
▁varied 2623
▁Foreigners 2622
▁celebrated 2622
▁forecasts 2622
▁shocking 2622
:20 2621
fl 2621
▁Puppet 2620
▁clarifying 2620
▁outputs 2620
▁insights 2619
▁mileage 2619
▁rewards 2619
bre 2618
ii 2618
▁calculations 2618
ô 2616
GN 2615
▁Sydney 2615
▁corrupt 2615
alia 2614
▁XS 2614
▁Unity 2613
▁Zo 2613
▁eternal 2613
RF 2612
]: 2612
ean 2612
▁Bear 2612
▁Grid 2612
▁LIABILITY 2612
▁approx 2612
▁interfaces 2612
▁tubes 2612
oe 2611
▁2-3 2611
▁examined 2611
▁Bracelet 2610
▁Bro 2610
▁Perform 2610
FL 2609
person 2609
▁horny 2609
▁yard 2609
▁59 2608
▁comet 2608
▁timeline 2608
vation 2607
▁1991 2607
▁Qui 2607
▁angry 2607
▁dawn 2607
▁Rec 2606
▁actor 2606
DL 2605
Sat 2605
market 2605
▁Everything 2605
▁Sapporo 2605
▁thy 2605
greg 2604
▁Chain 2604
▁tender 2604
effective 2603
▁TA 2603
▁recipes 2603
ered 2602
iber 2602
▁promotes 2602
▁Annunaki 2601
▁consume 2601
Ka 2600
TX 2600
oke 2600
▁2005, 2600
ram 2599
▁ce 2599
▁solved 2599
▁› 2599
▁2006, 2598
▁SYSTEM 2598
▁William 2598
▁demanding 2598
▁expense 2598
▁fertilizer 2598
uki 2597
▁prompted 2597
Panerai 2596
count 2596
eria 2596
▁Perfect 2596
▁conflicts 2596
▁existed 2596
▁Adding 2595
▁shed 2595
▁Luxembourg 2594
▁legislation 2594
▁travellers 2594
▁Integration 2593
▁wholesale 2593
2017 2592
jun 2592
▁Barcelona 2592
▁Remote 2592
▁SICILIAN 2592
Bu 2591
ä 2591
▁Jay 2590
▁Prevention 2590
▁atmospheric 2590
▁faint 2590
▁annually 2589
▁determines 2589
▁endure 2589
▁filed 2589
▁seminars 2589
ONG 2588
▁1- 2588
▁Transportation 2588
▁appearing 2588
8) 2587
weight 2587
▁Between 2587
▁exploration 2587
▁radical 2587
HDL 2586
HR 2586
▁adapted 2586
▁inclusive 2586
▁Shibuya 2585
▁friction 2585
▁Ladies 2584
▁downtown 2584
▁deploy 2583
▁Prediction 2582
▁oils 2582
▁pregnancy 2582
▁slider 2582
▁Width 2581
▁infections 2581
▁Sol 2580
▁emphasize 2580
▁garlic 2580
▁museums 2580
▁wines 2580
standing 2579
▁1080 2579
▁tears 2579
▁Fix 2578
/8 2577
meric 2577
▁makers 2577
▁oral 2577
▁variation 2577
xia 2576
▁fur 2576
▁Yuki 2575
フ 2575
▁Fra 2574
▁Schaffhausen 2574
▁UNESCO 2574
▁abuse 2574
▁accordingly 2574
▁coordinate 2574
▁Intel 2573
▁favourite 2573
▁Problem 2572
yi 2571
▁jp 2571
▁rehabilitation 2571
master 2570
▁Gospel 2570
▁Structure 2570
-21 2569
1.1 2569
Car 2568
▁presses 2568
▁Left 2567
▁quote 2566
▁HR 2565
▁Permanent 2565
7) 2564
▁Dear 2564
▁jam 2564
▁Mayor 2563
Box 2562
NG 2562
▁Bath 2562
▁enemies 2562
▁extends 2562
List 2561
berry 2561
▁Apart 2561
▁lord 2561
▁organs 2561
▁duck 2560
▁astronomers 2559
▁deadline 2559
vas 2558
▁Usually 2558
▁transformed 2558
▁Performing 2557
▁completing 2557
▁dirty 2557
▁portrait 2557
▁YIDFF 2556
▁café 2556
hotel 2555
▁adhere 2555
RIS 2554
▁DPRK 2554
▁ruins 2554
▁unpleasant 2554
▁́ 2554
Product 2553
▁2019, 2553
▁correspondence 2553
▁wipe 2553
▁Measures 2552
▁san 2552
tig 2551
▁balls 2551
▁batch 2551
▁classroom 2551
▁thirty 2551
LIC 2550
▁(+34 2550
▁62 2550
▁Inner 2550
▁Types 2550
▁encouraging 2549
▁isolated 2549
▁suspend 2549
MT 2548
nie 2548
▁contributes 2548
▁environmentally 2548
▁Must 2547
▁Ref 2547
▁lamp 2547
▁scrap 2547
para 2546
▁forums 2546
▁terrorist 2546
▁unnecessary 2546
IES 2545
▁Abstract 2545
▁Poland 2545
▁backed 2544
▁timetables 2544
▁coral 2542
▁muscles 2542
▁slave 2542
▁Character 2541
▁Cost 2541
▁Leader 2541
▁admit 2541
▁amateur 2541
▁malfunction 2541
▁stressed 2541
▁variants 2541
lou 2540
▁identifying 2540
oms 2539
▁curtain 2539
▁widespread 2539
▁curious 2538
▁deletion 2538
▁mess 2538
▁Legend 2536
▁Resource 2536
▁wage 2536
▁Enable 2535
▁chef 2535
▁plasma 2535
▁dressed 2534
▁lobby 2534
▁speeds 2534
▁JP 2533
▁Money 2533
▁Tudor 2533
▁admitted 2533
▁dick 2533
▁encryption 2533
▁49 2532
▁winners 2532
▁MJ 2531
▁Philippine 2531
▁SDL 2531
▁coil 2531
▁cub 2531
▁eager 2531
lac 2530
▁simultaneous 2530
▁tide 2530
▁Writer 2529
▁Specify 2528
▁fa 2528
dine 2527
▁BAUNAT 2527
▁inch 2527
▁supermarket 2527
▁Trac 2526
▁combinations 2526
▁durability 2526
▁encrypted 2526
..." 2525
▁Dist 2525
▁Lanka 2525
▁Want 2525
▁denied 2525
Part 2524
▁Sanya 2524
▁bandwidth 2523
▁surveys 2523
▁thrill 2523
▁Accept 2522
except 2521
▁Ceremony 2521
▁musicians 2521
▁Jack 2520
▁Pad 2520
▁Person 2520
▁SHALL 2520
▁Renderpeople 2519
▁delegation 2519
▁symposium 2519
▁Eva 2518
▁confidentiality 2518
▁illegally 2518
chang 2517
▁Catholic 2517
▁Vulnerability 2517
▁pursuit 2517
▁evaluated 2516
▁folding 2516
track 2513
▁orchestra 2513
▁sunny 2513
TF 2512
onia 2512
▁3,000 2512
▁Kanji 2512
▁SUCH 2512
▁THAT 2512
▁artwork 2511
▁keyword 2511
▁traditions 2511
▁wafer 2511
nge 2509
▁Emei 2509
▁presenting 2509
18~ 2508
▁founding 2508
▁knife 2508
▁obligations 2508
uo 2507
▁Partnership 2507
▁physically 2507
dam 2506
inu 2506
▁Des 2506
▁stickers 2506
▁Developer 2505
▁attempted 2505
▁treaty 2505
▁cord 2504
PER 2503
▁Quartz 2503
▁bind 2503
cheng 2502
▁EC 2502
▁Tungsten 2502
▁exchanged 2502
▁offline 2502
▁sincerely 2502
▁Competition 2501
▁Scholarship 2501
▁suppress 2501
▁dome 2500
▁faithful 2500
▁subsequently 2500
▁tennis 2500
▁uninstall 2500
▁Generally 2499
▁Operating 2499
▁Visa 2499
▁maneuver 2499
vio 2498
▁bubble 2498
▁cure 2497
sight 2496
▁2008. 2495
▁Disney 2495
▁shareholders 2495
sale 2494
▁Guilin 2494
▁ISS 2494
▁naked 2494
▁stuffed 2494
▁toxicity 2492
pond 2491
▁Jewel 2491
▁Scan 2491
▁gym 2491
▁icons 2491
▁interval 2491
ius 2490
▁conjunction 2490
▁fiction 2490
▁trap 2490
kon 2489
▁fallen 2489
▁puppet 2489
cyc 2488
▁fraction 2487
▁specialised 2487
▁CSS 2486
LF 2484
Size 2484
▁Documentation 2484
▁interference 2483
PH 2482
▁brightness 2482
▁conform 2482
▁2007. 2481
▁frequencies 2481
▁suicide 2481
video 2479
▁Actually 2479
▁Klocwork 2479
▁Tim 2479
▁Tre 2479
model 2477
▁Op 2477
▁torn 2477
▁Kumamoto 2476
▁maritime 2476
▁organisations 2476
Add 2475
English 2475
▁Kii 2475
▁directories 2475
▁Commerce 2474
▁dozens 2474
▁tiger 2474
Cartier 2473
▁handed 2473
lumin 2472
▁hazards 2472
▁rises 2472
mber 2470
rang 2470
▁(6 2470
▁RAM 2470
▁Harry 2469
▁MB 2469
▁Photography 2469
▁baggage 2469
2007 2468
Cosplay 2468
uga 2468
▁Agriculture 2468
▁Ask 2468
▁DATA 2468
▁fabrics 2468
▁Doing 2467
BT 2466
▁Kamakura 2466
▁wings 2466
-01 2465
▁deployed 2465
▁echo 2465
LD 2464
▁0.0 2464
▁Desktop 2464
▁conversations 2464
▁lined 2464
▁rated 2464
mai 2463
▁buses 2463
▁laugh 2463
coming 2462
▁imply 2462
▁submission 2462
▁swirl 2462
▁5: 2461
▁basin 2460
り 2460
▁bezel 2459
▁misuse 2459
▁uploading 2459
▁volcano 2459
▁11:00 2458
▁MAR 2458
▁duplicate 2458
dem 2457
posi 2457
▁Rio 2457
VC 2456
itz 2456
tage 2456
▁courage 2456
month 2455
▁FX 2455
▁Trading 2455
DER 2454
▁Anniversary 2454
▁shifting 2454
/4 2453
doc 2453
lev 2453
▁Venezuela 2453
▁heated 2453
▁oxide 2453
▁tomatoes 2453
CHE 2452
▁Push 2452
▁protest 2452
enter 2451
wind 2451
▁rep 2451
▁Alex 2450
▁Bel 2450
▁Feb 2450
▁beta 2450
▁enjoyable 2450
▁spotted 2450
▁triggered 2449
▁memorable 2448
▁IPS 2447
▁(2017 2446
▁16:30-20 2446
▁Honda 2446
▁Phil 2446
▁Rice 2446
▁menus 2446
▁shutter 2446
▁ね 2446
LU 2445
duction 2445
gie 2445
lift 2445
▁motivation 2445
10-13:30 2444
unnamed 2444
▁Pressing 2444
▁ruler 2444
2016 2443
▁Solid 2443
▁rank 2443
▁rotate 2443
▁horn 2442
▁jewellery 2442
-22 2441
rium 2441
story 2441
tec 2441
zaki 2441
▁bal 2441
▁handy 2441
▁poles 2441
▁Fri 2440
▁spoken 2440
▁steal 2440
mei 2439
▁lacquer 2439
green 2438
▁fastest 2438
▁flavour 2438
▁tan 2438
RN 2437
cade 2437
copy 2437
▁Pet 2437
▁lib 2437
▁survivors 2437
▁void 2437
▁wore 2437
days 2436
▁Pump 2436
▁hospitality 2436
▁Cheap 2435
▁Movie 2435
ception 2434
wash 2434
▁ceramics 2434
▁connects 2434
▁synthetic 2434
▁vivid 2434
▁1983 2433
▁Netflix 2433
▁exam 2433
aire 2432
▁POMWA 2432
▁sling 2432
SF 2431
▁Happy 2431
▁NATO 2431
▁shrimp 2431
▁ja 2430
▁limiting 2430
▁ware 2430
uda 2429
▁Preview 2429
▁beside 2429
▁camps 2429
▁compromise 2429
▁waist 2429
▁char 2428
▁estimates 2428
Up 2427
▁bun 2427
▁immense 2427
Wind 2426
▁Different 2426
▁Egyptian 2426
▁cattle 2426
▁miracle 2426
iwa 2425
▁Jeju 2425
▁SHI 2425
ily 2424
▁Ginza 2424
▁Phase 2424
▁Shenzhen 2424
▁drilling 2423
▁reject 2423
IWC 2422
emon 2422
▁Architecture 2422
▁Hiroshi 2422
▁Knowledge 2422
▁forgotten 2422
Investigative 2421
Properties 2421
charge 2421
lly 2421
▁Campus 2421
▁Math 2421
▁tabs 2421
och 2420
▁retro 2419
▁Soviet 2417
▁spell 2417
▁0.5 2416
▁Abu 2416
▁Branch 2416
▁Norway 2416
▁Thani 2416
▁disciple 2416
▁procurement 2416
▁COMPUTER 2415
▁attendees 2415
▁blame 2415
▁enclosure 2415
▁molecule 2415
▁watchmaker 2415
▁promotional 2414
where 2413
▁Flow 2413
▁displaying 2413
▁passionately 2413
▁Carbon 2412
▁Fall 2412
▁Fer 2412
▁dirt 2411
▁Beyond 2410
▁anger 2410
▁authenticity 2410
▁theories 2410
aught 2409
▁deleting 2409
▁transmitting 2409
IMI 2408
▁Dialog 2408
▁Kami 2408
▁Victoria 2408
▁builds 2408
▁innovations 2408
▁px 2408
▁Instructions 2407
logy 2406
▁Americans 2406
▁fluorescence 2406
▁Gan 2405
rance 2404
▁Script 2403
▁dare 2403
Case 2402
▁Holder 2402
▁seeks 2402
▁Kura 2401
▁adapter 2401
Date 2400
Out 2400
matsu 2400
▁MD 2400
▁bending 2400
▁brake 2400
▁funny 2400
EAR 2399
▁` 2399
▁pie 2399
▁steering 2399
▁cleanse 2398
▁landscapes 2398
▁workflow 2398
Got 2397
current 2397
▁balcony 2397
▁readily 2397
ppo 2396
▁Ishi 2396
▁Kon 2395
▁Monte 2395
▁dim 2395
▁iconic 2395
▁infrared 2395
▁vendor 2395
Da 2394
р 2394
▁Consulting 2394
▁Diego 2394
▁accepting 2394
▁lately 2394
Ar 2393
RG 2393
▁disorder 2393
ウ 2393
rain 2392
▁Created 2392
▁Grant 2392
▁promised 2392
▁Patent 2391
▁bin 2391
▁clinic 2391
grad 2390
/3 2389
2015 2389
RISING 2389
profit 2389
▁Governor 2389
▁LNG 2389
▁consistently 2389
▁Nagano 2388
▁expire 2388
▁lightweight 2388
▁sells 2388
▁tolerance 2388
ZA 2387
factor 2387
tun 2387
▁Revolution 2387
▁dive 2387
▁fixing 2387
▁prescribed 2387
▁retreat 2387
▁varies 2387
▁investing 2386
saving 2385
▁Term 2384
▁pla 2384
▁stadium 2384
/5 2383
▁Half 2383
PDF 2382
national 2382
▁Ice 2382
▁indicators 2382
▁interpret 2382
▁Gre 2381
▁courtyard 2381
▁dropping 2381
▁bitter 2380
▁floods 2380
▁Xin 2379
▁id 2379
▁Rather 2378
▁differently 2378
▁(16 2377
▁Technavio 2377
▁recipient 2377
EU 2376
layer 2376
▁Loop 2376
▁coastline 2376
▁cylinder 2376
▁scripting 2376
▁injured 2375
▁invention 2375
ANCE 2374
ANT 2374
fun 2374
▁Kawasaki 2374
▁neso 2374
rom 2373
▁USER 2373
▁democracy 2373
▁handmade 2373
▁masses 2373
▁waterproof 2373
++ 2371
▁FreeBSD 2371
▁Poker 2371
▁Rate 2371
▁dialect 2371
mann 2370
polis 2370
▁Publications 2370
▁employer 2370
▁malfunctioned 2370
▁stake 2370
▁threw 2370
OUR 2369
plicat 2369
▁Thi 2369
▁acceleration 2369
▁Bad 2368
▁Cable 2368
▁headed 2368
▁wondering 2368
▁cum 2367
▁guardian 2367
▁legacy 2367
▁Char 2366
ote 2365
▁FE 2365
▁align 2365
▁mainstream 2363
▁relaxation 2363
▁vent 2363
▁Kar 2362
than 2361
▁KIND 2361
▁baseball 2361
▁shoots 2361
▁concentrate 2360
▁repository 2360
▁torque 2360
▁wavelength 2360
▁monks 2359
hon 2357
pur 2357
▁hence 2357
▁hits 2357
▁inputs 2357
▁Added 2356
▁Daedalus 2356
▁Outline 2356
▁titanium 2356
ORI 2355
▁78 2355
▁Secure 2355
▁Wash 2355
▁anticipate 2355
▁coupon 2355
▁hint 2355
▁strings 2355
HAN 2354
▁Aug 2354
▁CM 2354
▁Wizards 2354
▁ct 2354
▁reactor 2354
▁repaired 2353
▁Cafe 2352
▁addressing 2352
▁invested 2352
▁painter 2352
▁confer 2351
▁peel 2351
▁trunk 2351
gmail 2350
▁Ceramic 2350
▁devoted 2350
▁sweets 2350
5) 2349
▁0.1 2349
▁Capacity 2349
▁monitors 2349
▁Cyprus 2348
▁Insurance 2348
▁[2 2348
▁churches 2348
▁inhibit 2348
▁nerve 2348
assi 2347
▁donation 2347
▁immigration 2347
Wi 2346
cient 2346
▁Hanoi 2346
▁Tiger 2346
う 2346
的 2346
▁Bat 2345
▁Fax 2345
▁Lao 2345
▁Simple 2345
▁obtaining 2345
▁recognise 2345
ILL 2344
vari 2344
▁85 2344
▁conditioner 2344
▁downloadable 2344
▁Cer 2343
▁Himeji 2343
▁gaining 2343
▁permissions 2343
RK 2342
▁Limit 2342
▁performs 2342
▁tub 2342
▁UAE 2341
▁defines 2341
▁invoice 2341
▁terrain 2341
▁rub 2340
▁thinks 2340
LOG 2339
dori 2339
▁AVI 2339
▁Taking 2339
▁convinced 2339
▁wound 2338
▁Ancient 2337
▁cro 2337
▁parcel 2337
wel 2336
▁regulator 2336
stick 2335
▁Blood 2335
▁colon 2335
Solid 2334
▁amplifier 2334
▁mobility 2334
▁nutrition 2334
▁Gene 2333
▁Jam 2333
▁PV 2333
▁attain 2333
ム 2333
▁Leg 2332
▁Tsugaru 2332
▁courts 2332
▁gateway 2332
▁maximize 2332
fine 2331
gang 2331
gress 2331
▁reflecting 2331
▁rival 2331
zai 2330
▁Build 2330
▁Rating 2330
▁hoped 2330
▁disorders 2329
▁nationwide 2329
▁proxy 2329
▁spark 2329
AZ 2328
Fu 2328
ich 2328
▁phrases 2328
オ 2328
▁Bluetooth 2327
▁WE 2327
▁trillion 2327
hard 2326
▁Aftertime 2326
▁FC 2326
▁Protect 2326
▁WhatsApp 2326
care 2325
fit 2325
▁appliances 2325
▁opposed 2325
▁analyzed 2324
▁promises 2324
▁resume 2324
MIC 2323
soft 2323
▁Snap 2323
▁scar 2323
kka 2322
▁fotologue 2322
▁harder 2322
sar 2321
▁<< 2321
▁Ed 2321
▁IR 2321
▁Define 2320
▁PT 2320
▁algorithms 2320
World 2319
lov 2319
▁Sightseeing 2319
▁genre 2319
▁realization 2319
YAMA 2318
lessly 2318
viv 2318
▁knee 2318
▁timestamp 2318
:12 2317
▁bump 2317
▁seedlings 2317
process 2316
purpose 2316
▁Guidelines 2316
▁tableware 2316
HER 2315
bei 2315
ked 2315
sawa 2315
▁Definition 2315
▁jade 2315
vertical 2314
▁Balance 2314
▁traces 2314
▁350 2313
▁NEW 2313
▁behaviour 2313
▁specifies 2313
▁urge 2313
1.00 2312
data 2312
keeping 2312
responsibilities 2312
▁cuts 2312
▁promising 2312
▁soy 2312
▁Honolulu 2311
▁amongst 2311
tag 2310
white 2310
▁Ireland 2310
▁Updates 2310
▁delight 2310
▁threatening 2310
]] 2309
▁loving 2309
▁presets 2309
て 2309
Ga 2308
OO 2308
frame 2308
static 2308
▁Perpetual 2308
▁chill 2308
▁tooth 2308
*1 2307
▁Normal 2307
▁conferences 2307
▁roadside 2307
▁Bao 2306
▁Kuro 2306
▁psychological 2306
▁virtue 2306
▁yeast 2306
arm 2305
▁fascinating 2304
▁Concept 2303
▁auction 2303
▁travelling 2303
Log 2302
lab 2302
trip 2302
▁Bracelets 2302
▁Macro 2302
▁tumor 2302
atic 2301
ssa 2301
zza 2301
▁Copper 2301
▁Vehicle 2301
▁rational 2301
▁aggressive 2300
▁antenna 2300
▁besides 2300
▁drought 2300
▁asks 2299
▁diesel 2299
▁packet 2299
▁targeting 2299
Estate 2298
▁Controls 2298
▁Jakarta 2298
▁Yangshuo 2298
▁printable 2298
▁Issues 2297
▁Olympics 2297
▁improper 2297
▁keywords 2297
▁Bodyguard 2296
▁gains 2296
▁loans 2296
▁receptor 2296
GR 2295
chemical 2295
▁welcoming 2295
connect 2294
▁comb 2294
▁lasting 2294
▁imperial 2293
▁DISCLAIMER 2292
▁PayPal 2292
▁indirectly 2292
▁unlock 2292
▁EV 2291
▁enters 2291
▁Aka 2290
▁SIP 2290
▁compressed 2290
▁viewpoint 2290
HUBLOT 2289
Yuki 2289
▁Books 2289
▁Crown 2289
▁atomic 2289
▁polio 2289
makers 2288
mini 2288
naka 2288
nami 2288
too 2288
▁Ryo 2288
▁cats 2288
▁lineup 2288
▁seas 2288
[1] 2287
▁resident 2287
aka 2286
flower 2286
▁abnormal 2286
▁attracting 2285
▁intensive 2285
shiki 2284
yard 2284
▁Airlines 2284
▁Bird 2284
▁Casino 2284
▁hash 2284
▁preparations 2284
forest 2283
pid 2283
▁Bang 2283
▁Fort 2283
▁Indonesian 2283
▁apple 2283
▁florist 2283
▁tile 2283
icular 2282
▁Hub 2282
▁emphasized 2282
▁RESULTS 2281
▁accelerometer 2281
quest 2280
▁DB 2280
▁Syn 2280
▁kernel 2280
▁onion 2280
▁complain 2279
▁complexity 2279
▁glow 2279
▁skip 2279
▁traveled 2279
Some 2278
▁Shizuoka 2278
▁justice 2278
2.1 2277
dir 2277
got 2277
▁Cyber 2277
▁IE 2277
▁bypass 2277
▁coloring 2277
× 2276
▁Controller 2276
▁detergent 2276
▁refrigerator 2276
▁Jean 2274
Christmas 2273
▁Asked 2273
▁Dy 2273
▁thorough 2273
▁trapped 2273
▁pat 2272
▁Pick 2271
▁textile 2271
azar 2269
▁paradise 2269
▁transit 2269
AA 2268
horizontal 2268
▁Motherfuckers 2268
▁ditch 2268
▁dominant 2268
▁pavilion 2268
▁stolen 2268
thy 2267
▁Dating 2267
▁SkyDesk 2267
▁donated 2267
▁secrets 2267
▁Animation 2266
▁essay 2266
▁Beer 2265
▁Organic 2265
▁Ping 2265
▁Transformation 2265
▁syntax 2264
PROJ 2263
Windows 2263
uni 2263
▁Premier 2263
ANG 2262
saka 2262
▁(8 2262
▁behave 2262
▁equi 2262
▁VPN 2261
▁faculty 2261
▁mad 2261
▁relate 2260
OME 2259
▁Era 2259
▁associate 2259
▁equation 2259
▁Cook 2258
▁Drop 2258
▁NE 2258
▁flare 2258
▁oceans 2258
▁shallow 2258
illo 2257
start 2257
▁98 2257
▁Metropolitan 2257
▁audiences 2257
▁Autumn 2256
▁CL 2256
▁DS 2255
▁IV 2255
マ 2255
▁nitrogen 2254
▁widget 2254
astic 2253
▁Consider 2253
They 2252
▁Gui 2252
▁crimes 2252
▁embrace 2252
▁mere 2252
▁rentals 2252
▁unprecedented 2252
▁Bangladesh 2251
▁Getting 2251
▁MediaWiki 2251
▁Often 2251
▁Toshi 2251
▁evolve 2251
▁hose 2251
▁kimono 2251
▁Consultation 2250
▁SUV 2250
バ 2250
etic 2249
leg 2249
▁posture 2249
▁schemes 2249
BVLGARI 2247
ushi 2247
▁Craft 2247
▁RatingEye 2247
▁SITES 2247
▁carriers 2247
▁manga 2247
▁Hair 2246
▁bonds 2246
▁lofty 2246
▁negotiation 2246
Should 2245
clear 2245
/7 2244
▁Chuo 2244
▁accent 2244
▁positioning 2244
▁1950 2243
▁definitions 2243
▁signify 2243
▁3.5 2242
▁Conduct 2242
▁Tempo 2242
▁deem 2242
▁nylon 2242
section 2241
▁SSI 2241
▁exports 2241
▁swiss 2241
rack 2240
▁triple 2240
cular 2239
oba 2239
▁Bor 2238
▁Boy 2238
▁Cuba 2238
▁tune 2238
lv 2237
▁Sync 2237
▁assumes 2237
▁pedestrian 2237
GAMES 2236
▁engaging 2236
gam 2235
gami 2235
1.5 2234
▁Console 2234
▁curves 2234
▁speaks 2234
▁tu 2234
▁venues 2234
き 2234
▁CHI 2233
▁Suzuki 2233
▁embed 2233
▁infinite 2233
▁lighter 2233
▁sour 2233
▁viewers 2233
▁Schedule 2232
Book 2231
Taiwan 2231
▁Woman 2231
self 2230
▁Models 2230
▁Solo 2230
▁conditioning 2230
▁Ash 2229
▁overwhelming 2229
▁prefix 2229
▁tackle 2229
5.6 2228
ffle 2228
▁Bei 2228
▁Lan 2228
▁canvas 2228
▁institutional 2228
▁Iceland 2227
TB 2226
▁Generation 2226
▁OBTAIN 2226
▁manages 2226
▁partnerships 2226
une 2225
▁Had 2225
▁Hence 2225
uted 2224
▁Focus 2224
▁bunch 2224
▁MM 2223
▁reviewed 2223
▁sanctions 2223
▁touched 2223
2012 2222
FX 2222
round 2222
▁Symposium 2222
▁boutique 2222
▁correlation 2222
▁dig 2222
▁pumps 2222
)), 2221
NAME 2221
wiki 2221
▁abundance 2221
▁cru 2221
▁lotus 2221
▁Resident 2220
▁dignity 2220
▁locked 2220
▁rip 2220
uli 2219
▁synthesis 2219
▁Boston 2218
▁Tong 2218
▁UV 2218
onym 2217
▁Infrastructure 2217
▁Stage 2217
▁Shape 2216
▁deaths 2216
▁detector 2216
▁punch 2216
.4. 2215
▁VIOLATION 2214
▁Yunnan 2214
▁overlooking 2214
PU 2213
▁Popular 2213
▁decorative 2213
▁magical 2213
ides 2212
▁Macedonian 2212
▁Universal 2212
▁ingredient 2212
▁intends 2212
コ 2212
Your 2211
atur 2211
▁90% 2211
▁sponge 2211
dust 2210
etsu 2210
winding 2210
yen 2210
▁BoysForcingM 2210
▁bidding 2210
Char 2209
gia 2208
▁(4) 2208
▁63 2208
▁concentrated 2208
▁travels 2208
▁sail 2207
▁sticky 2207
fec 2206
▁Prague 2206
▁craftsmanship 2206
▁hell 2206
▁1985 2205
▁Winston 2205
▁sorts 2205
▁compliant 2204
hol 2203
rel 2203
▁Chef 2203
ounce 2202
▁PST 2202
▁Pangaea 2202
▁sorted 2202
▁Propert 2201
▁VIA 2201
▁ranked 2201
udi 2200
▁technician 2200
4.00 2199
change 2199
ext 2199
▁crab 2199
▁hospitals 2199
▁1987 2198
▁Backpack 2198
▁magazines 2198
▁chick 2197
▁populations 2197
▁fitted 2196
▁passionate 2196
▁saint 2196
▁statues 2196
Welcome 2195
▁FI 2195
▁Orchestra 2195
▁appetite 2195
▁disadvantage 2195
▁volcanoes 2195
2] 2194
▁4) 2194
▁exterior 2194
/15 2193
VM 2193
▁Chord 2193
▁Employee 2193
▁Literature 2193
▁denial 2193
cub 2192
▁32- 2192
▁Disclaimer 2192
looking 2191
▁Argentina 2191
▁Pic 2191
▁chaos 2191
▁pipeline 2190
▁Agile 2189
▁Bezel 2189
▁PIGUET 2189
▁Years 2189
▁incense 2189
▁jumped 2189
▁medal 2189
mmer 2188
▁1988 2188
▁stating 2188
Tu 2187
safe 2186
▁Authority 2186
▁Smooth 2186
▁Volume 2186
▁finest 2186
▁Certainly 2185
▁Label 2185
▁painful 2185
▁promotions 2185
▁superb 2185
config 2184
gna 2184
▁breed 2184
▁radius 2184
---------------- 2183
▁56 2183
▁wing 2183
Sp 2182
▁Arita 2182
▁autonomous 2182
...). 2181
▁Hero 2181
▁Jews 2181
▁Reservations 2181
▁Robot 2181
▁defects 2181
Gen 2180
first 2180
▁160 2180
▁Cause 2180
▁NY 2180
bal 2179
▁80% 2179
▁Charles 2179
▁consolidated 2179
▁formerly 2179
▁civilian 2178
anda 2177
▁Partners 2177
▁dressing 2177
▁episode 2177
▁ranks 2177
▁Collect 2176
▁enthusiasm 2176
ャ 2176
ographic 2175
rad 2175
▁Response 2175
▁centered 2175
▁overflow 2175
0.5 2174
▁Gro 2174
▁projected 2174
▁woke 2174
say 2173
▁Pope 2173
▁Shinonome 2173
▁interviews 2173
arily 2172
▁sperm 2172
▁traders 2172
ern 2171
▁Players 2171
▁striking 2171
Rear 2170
ground 2170
▁FO 2170
▁Give 2170
▁fusion 2170
race 2169
▁LORD 2169
▁Membership 2169
▁Token 2169
▁configurations 2169
▁pointer 2169
▁Emergency 2168
▁latitude 2168
▁liberal 2168
Br 2167
URA 2167
▁Competitors 2167
▁Kra 2167
▁Slide 2167
▁bat 2167
▁divine 2167
▁outcomes 2167
▁pursuing 2167
▁Observatory 2166
▁Weather 2166
▁depths 2166
▁arriving 2165
▁facial 2165
▁rolled 2165
▁sixth 2165
▁Background 2164
▁Iron 2164
▁Tomo 2164
▁Tro 2164
▁Waytostay 2164
▁battles 2164
▁plea 2164
8.00 2163
cil 2163
ika 2163
vil 2163
▁Programme 2163
▁plateau 2163
▁57 2161
▁Pal 2161
▁balloon 2161
▁overlap 2161
▁Islam 2160
т 2159
▁Mie 2159
▁rubbing 2159
▁wallets 2159
れ 2159
agi 2158
▁Thomas 2158
▁landmark 2158
pol 2157
sses 2157
▁Safari 2157
▁bite 2157
▁pub 2157
▁trim 2157
▁Feel 2156
▁Graphic 2156
▁Rooms 2156
▁gel 2156
Dual 2155
▁lane 2155
gua 2154
holder 2154
▁acute 2154
course 2153
▁Whatever 2153
▁Worldwide 2153
▁composite 2153
▁Bronze 2152
▁Overseas 2152
▁Relations 2152
▁Anyone 2151
▁Yamagata 2151
▁alley 2151
▁letting 2151
▁notable 2151
▁rendering 2151
▁Detail 2149
▁Listen 2149
▁Promoters 2149
▁calcium 2149
Art 2148
▁bush 2148
▁exceeds 2148
▁substitute 2148
base 2147
▁draws 2147
▁hunting 2147
LAND 2146
db 2146
▁Layer 2146
▁NEWS 2146
▁NYK 2146
▁Protocol 2146
▁comparing 2146
▁myth 2146
:45 2145
ryu 2145
▁Finland 2145
▁Mercedes 2145
▁WILL 2144
▁honored 2144
▁Thy 2143
▁el 2143
lle 2142
▁Clo 2142
▁Pop 2142
▁Rental 2142
▁masterpiece 2142
▁scent 2142
▁socket 2142
FR 2141
ark 2141
▁Jerusalem 2141
▁Wire 2141
▁competitiveness 2141
▁macros 2141
▁stir 2141
▁closest 2140
▁leap 2140
▁masters 2140
▁prospects 2140
rape 2139
▁Kha 2139
▁Symbol 2139
▁burned 2139
▁ART 2138
▁screenshot 2138
▁dozen 2137
▁inclusion 2137
▁passport 2137
▁sym 2137
hei 2136
▁Alien 2136
▁Hope 2136
▁Israeli 2136
▁opponent 2136
▁pets 2136
▁wherever 2136
UB 2135
taro 2135
▁hyperlink 2135
▁CF 2134
▁intuitive 2134
▁Outlet 2133
▁PID 2133
▁acted 2133
▁bass 2133
▁distinguished 2133
▁hardened 2133
reference 2132
▁EMP 2132
▁aka 2132
▁failures 2132
▁lid 2132
▁preservation 2132
Ni 2131
osa 2131
▁Katsu 2131
▁cellular 2131
▁exploit 2131
▁rolls 2131
May 2130
▁2005. 2130
▁isolation 2130
{ 2129
▁Lou 2129
▁approached 2129
▁corrosion 2129
▁households 2129
▁keypad 2129
▁Determines 2128
▁absorption 2128
▁biomass 2128
▁poetry 2128
▁11: 2127
▁interfere 2127
▁consultant 2126
▁germ 2126
▁glue 2126
▁mega 2126
▁organizing 2126
EV 2125
yun 2125
▁Coupon 2125
▁sealed 2125
▁vibrant 2125
▁Concert 2124
▁sightings 2124
/19 2123
ssel 2123
▁1.0 2123
▁Taiwanese 2123
▁fires 2123
▁raft 2123
▁rejected 2123
ITY 2122
RM 2122
igo 2122
reach 2122
▁Nik 2122
▁exhibits 2122
Te 2121
Thank 2121
▁boundary 2121
▁vegetation 2121
fra 2120
▁HIV 2120
▁Rich 2120
▁Translation 2120
▁stopping 2120
eno 2119
gyo 2119
▁disturb 2119
▁flooded 2119
▁Taisha 2118
▁countryside 2118
▁Monitor 2117
▁oscillator 2117
tax 2116
trac 2116
▁1.1 2116
▁Manage 2116
▁Jia 2115
▁corners 2115
▁enrich 2115
▁neighbors 2115
▁Dia 2114
tunes 2113
▁Guan 2113
▁Lounge 2113
cid 2112
izz 2112
▁versatile 2112
▁Integrated 2111
▁Tickets 2111
▁nursing 2111
▁wars 2111
本 2111
lysis 2110
▁Alaska 2110
▁Break 2110
▁infringing 2110
▁pathway 2110
eck 2109
▁Purchase 2109
▁quit 2109
there 2108
▁correspond 2108
▁twist 2108
▁workout 2108
pack 2107
н 2107
▁peer 2107
2013 2106
ata 2106
die 2106
▁Leaders 2106
▁compress 2106
▁databases 2106
▁dwarf 2106
miss 2105
standard 2105
touch 2105
▁Buyer 2105
▁fireworks 2105
bell 2104
▁Always 2104
▁Gang 2104
▁foil 2104
▁tiles 2104
▁unified 2104
▁captures 2103
▁solving 2103
bian 2102
▁validity 2102
Col 2101
▁VIP 2101
▁cranes 2101
▁flock 2101
▁lush 2101
▁respected 2101
RAN 2100
▁Bla 2100
▁Carrera 2100
▁initiated 2100
▁integer 2100
hibi 2099
stock 2099
▁5% 2099
▁Supply 2099
▁backward 2098
▁pal 2098
▁relatives 2098
nomi 2097
▁Seconds 2097
▁competitors 2097
▁implied 2097
人 2097
▁(0 2096
▁boots 2096
▁mAh 2096
▁norm 2096
after 2095
osphere 2095
▁confortable 2095
▁relay 2095
electric 2094
▁68 2094
▁Cel 2094
▁depart 2094
yaku 2093
▁Interview 2093
▁Offers 2093
▁PD 2093
▁biodiversity 2093
▁ox 2093
▁surcharges 2093
:13 2092
vor 2092
▁Dun 2092
▁diabetes 2092
mil 2091
▁alike 2091
▁diagnostic 2091
▁renovation 2091
wl 2090
▁1-2 2090
▁CRM 2090
▁antique 2090
▁feeding 2090
▁Doctor 2089
▁Kansai 2089
▁Kenya 2089
▁STO 2089
▁progressive 2089
▁Bring 2088
▁GNU 2088
▁insulation 2088
▁snack 2088
owned 2087
tour 2087
▁Chair 2087
▁offshore 2087
▁persist 2086
rough 2085
▁Colour 2085
▁therapeutic 2085
▁Cab 2084
▁Interest 2083
▁assembled 2083
▁fears 2083
▁freight 2083
▁loads 2083
2:00 2081
pit 2081
▁VAT 2081
▁gasoline 2081
▁infringement 2081
▁meditation 2081
▁reforms 2081
▁compiler 2080
quan 2079
▁Notification 2079
▁corridor 2079
▁declaration 2079
▁revise 2079
▁alternate 2078
▁politicians 2078
▁scores 2078
VR 2077
fill 2077
▁Feature 2077
API 2076
rrh 2076
▁316 2076
▁designation 2076
▁extracted 2076
▁pane 2076
WD 2075
ensive 2075
will 2075
▁Chiang 2075
▁vacancies 2075
▁Mind 2074
▁shining 2074
wang 2073
▁1.3 2073
▁Dor 2073
▁Nor 2073
▁couples 2073
▁defect 2073
▁trash 2073
Keeping 2072
left 2072
lian 2072
▁1979 2072
▁designations 2072
▁panoramic 2072
▁stairs 2072
く 2072
年 2072
storm 2071
▁Ethernet 2071
▁Historical 2071
▁functioning 2071
tus 2070
▁admire 2070
▁asphalt 2070
▁origins 2070
hin 2069
quet 2069
▁Ham 2069
▁defective 2069
▁hydraulic 2069
Hoimi 2068
▁Kabuki 2068
▁worthy 2068
2010 2067
▁Spi 2067
▁accomplished 2067
▁pricing 2067
▁surroundings 2067
▁tends 2067
月 2067
4] 2066
▁arrest 2066
▁farms 2066
▁march 2066
AKE 2065
▁Cancer 2065
▁Flu 2065
▁Thu 2065
▁clone 2065
KB 2064
gaku 2064
hel 2064
▁(2015 2064
▁Recommended 2064
▁idol 2064
▁mate 2064
▁140 2063
▁Franc 2063
▁Holland 2063
▁recycled 2063
▁renewed 2063
▁sleeve 2063
▁vocal 2063
icul 2062
▁Parliament 2062
▁accompany 2062
▁fame 2062
▁ribbon 2062
around 2061
nova 2061
▁airports 2061
▁gang 2061
▁glyco 2061
wall 2060
▁Interface 2060
▁pots 2060
2014 2059
block 2059
▁Kiev 2059
▁occupied 2059
Click 2058
install 2058
▁Nao 2058
▁advocate 2058
▁corporation 2058
▁influences 2058
▁sciences 2058
West 2057
add 2057
▁Tao 2057
▁researcher 2057
Back 2056
▁Ur 2056
▁anchor 2056
▁bugs 2056
▁dying 2056
home 2055
troph 2055
▁Warming 2055
▁ash 2055
▁practicing 2055
▁shoe 2055
▁stance 2055
▁Drawing 2054
▁Dress 2054
▁distortion 2054
▁elected 2054
▁storms 2054
cross 2053
▁Gift 2053
▁SAME 2053
▁council 2053
▁fate 2053
escent 2052
▁voucher 2052
imi 2051
integ 2051
▁1984 2051
▁advancement 2051
▁crane 2051
▁renovated 2051
qing 2050
▁Register 2050
Front 2049
▁SEA 2049
▁coordinates 2049
▁intra 2049
▁Immediately 2048
▁WITH 2048
▁corrupted 2048
▁transferring 2048
KE 2047
▁Clan 2047
▁Pol 2047
▁Scheme 2047
▁cam 2047
▁syndrome 2046
▁Shira 2045
▁Admin 2044
▁Moving 2044
▁scream 2044
▁symbolic 2044
naga 2043
▁86 2043
▁Hack 2043
▁wo 2043
▁Photograph 2042
▁RF 2042
▁intermediate 2042
▁salvation 2042
bori 2041
▁fountain 2041
▁reminder 2041
kaku 2040
normal 2040
▁Greeks 2040
▁maker 2040
▁remembered 2040
▁treasures 2040
:14 2039
pad 2039
▁Mining 2039
▁Residence 2039
▁Tracking 2039
▁boast 2039
▁contractor 2039
▁districts 2039
▁mandatory 2039
▁merge 2039
▁newer 2039
▁stalls 2039
NN 2038
therapy 2038
vir 2038
▁Bull 2038
▁strengths 2038
oxy 2037
▁Ecliptic 2037
▁Policies 2037
▁Tutorial 2037
▁preaching 2037
▁Daniel 2036
▁Jiu 2036
▁breeding 2036
TEC 2035
zumi 2035
▁AG 2035
▁ALICE 2035
lide 2034
product 2034
Trans 2033
crypt 2033
share 2033
▁Wireless 2033
▁furnace 2033
▁protects 2033
▁66 2032
▁Saga 2032
▁bore 2032
▁electron 2032
South 2031
▁Reduction 2031
▁TRAVEL 2031
▁swallow 2031
▁Hz 2030
▁Kay 2030
▁elephant 2030
▁perspectives 2030
▁tremendous 2030
▁tribe 2030
▁warnings 2030
hydr 2029
▁Commercial 2029
▁ICT 2029
▁bean 2029
▁dealt 2029
▁motors 2029
※ 2028
▁Ferr 2028
▁Lead 2028
▁Quark 2028
▁harbor 2028
▁pants 2028
▁Jacket 2027
▁drying 2027
▁Forbidden 2026
▁candle 2026
▁provincial 2026
▁releasing 2026
▁societies 2026
あ 2026
spiring 2025
▁Syrian 2025
▁cultivated 2025
▁purity 2025
▁stretched 2025
door 2024
▁collaborate 2024
HS 2023
▁Discussions 2023
▁Unless 2023
hong 2022
▁Phoenix 2022
▁exceeding 2022
▁feudal 2022
▁gotten 2021
▁habitat 2021
▁souvenir 2021
lemont 2020
zing 2020
▁Cave 2020
▁Frequently 2020
▁Gla 2020
▁royalty 2020
▁warmth 2020
▁2006. 2019
▁leisurely 2019
▁Neither 2017
▁iPod 2017
Web 2016
huang 2016
▁Intelligence 2016
▁gates 2016
▁ke 2016
Sensors 2015
cover 2015
▁avoided 2015
▁trick 2015
▁Facilities 2014
▁Past 2014
▁render 2014
▁verified 2014
MR 2013
jing 2013
▁Proxy 2013
▁milestone 2013
1.0 2012
▁Oracle 2012
▁distress 2012
▁garbage 2012
Single 2011
▁municipal 2011
oni 2010
▁Beauty 2010
▁Discover 2010
▁Nepal 2010
▁harness 2010
LK 2009
Sports 2009
Step 2009
▁Built 2009
▁Say 2009
▁poet 2009
info 2008
▁HOLIC 2008
▁Score 2008
▁thou 2008
▁voting 2008
▁AirWatch 2007
▁Parties 2007
▁RT 2007
▁potato 2007
▁rotating 2007
▁shots 2007
▁sincere 2007
▁villagers 2007
MIN 2006
metric 2006
▁Philippe 2006
▁UI 2006
creat 2005
make 2005
▁pins 2005
Game 2004
lux 2004
talk 2004
▁Laser 2004
▁MY 2004
3.00 2003
mino 2003
▁PL 2003
▁clarity 2003
▁ref 2003
▁undertake 2003
PD 2002
▁OFFERING 2002
▁socio 2002
▁translator 2002
show 2001
▁(15 2001
▁daemon 2001
▁describing 2001
▁documented 2001
▁publishers 2001
▁slices 2001
lb 2000
▁54 2000
▁EmEditor 2000
▁elaborate 2000
▁incarnation 2000
▁inscription 2000
fur 1999
gata 1999
▁AK 1999
▁Anime 1999
▁Certificate 1999
▁Ven 1999
▁psycho 1999
▁switched 1999
2.00 1998
She 1998
▁Geneva 1998
▁Gun 1998
▁Noah 1998
▁consensus 1998
▁Leave 1997
▁aggregated 1997
▁hiding 1997
▁responding 1997
▁souvenirs 1997
Download 1996
glo 1996
office 1996
shift 1996
wen 1996
▁dragging 1996
▁nest 1996
▁weekends 1996
▁Cold 1995
▁SERVICE 1995
▁chic 1995
▁dock 1995
▁lenses 1995
▁toast 1995
▁Participants 1994
▁planes 1994
9.00 1993
dera 1993
▁MUST 1993
▁PER 1993
▁Takeda 1993
enza 1992
▁athletes 1992
▁che 1992
▁cheer 1992
▁horizontally 1992
member 1991
▁1986 1991
▁assault 1991
▁dishwasher 1991
Tech 1990
lee 1990
udge 1990
▁pillars 1990
▁Ichi 1989
▁Practice 1989
▁partly 1989
▁subsidiaries 1989
▁Physical 1988
game 1987
▁67 1987
▁Rob 1987
▁TRAKTOR 1987
▁auctions 1987
▁coefficient 1987
accelerometer 1986
▁Archive 1986
▁Automation 1986
▁Die 1986
▁imposed 1986
▁preliminary 1986
photo 1985
title 1985
▁(7 1985
▁Forces 1985
▁halls 1985
▁tailor 1985
sheet 1984
▁Except 1984
▁shrink 1984
▁wins 1984
▁asleep 1983
PF 1982
gest 1982
ré 1982
▁Photoshop 1982
▁excluding 1982
▁picking 1982
▁races 1982
▁Detective 1981
▁Managing 1981
▁Scenic 1981
▁allies 1981
▁observatory 1981
▁temp 1981
▁Normally 1980
▁Pyongyang 1980
▁Race 1980
▁inflammatory 1980
▁irregular 1980
▁mixer 1980
Service 1979
rap 1979
▁Feed 1979
▁desires 1979
▁maintains 1979
▁realizing 1979
▁regulate 1979
▁2004. 1978
▁Folder 1978
▁MC 1978
▁generic 1978
▁tasting 1978
bai 1977
▁EXP 1977
▁dated 1977
▁deserves 1977
MV 1976
pose 1976
▁Austria 1976
▁Cisco 1975
▁Compared 1975
▁Sweet 1975
mut 1974
▁DELIVERED 1974
▁yo 1974
ona 1973
▁CT 1973
▁Mall 1973
▁Medi 1973
▁coconut 1973
▁gar 1973
▁mosaic 1973
▁pads 1973
utter 1972
6,000 1971
Sha 1971
▁88 1971
▁JC 1971
▁RA 1971
▁underwater 1971
▁wrapper 1971
▁Bldg 1970
▁{ 1970
raku 1969
â 1969
▁Lunch 1969
▁associations 1969
▁considers 1969
▁illnesses 1969
watt 1968
▁remarks 1968
▁engraved 1967
▁tobacco 1967
か 1967
WI 1966
agno 1966
rb 1966
▁Venue 1966
▁brutally 1966
▁pizza 1966
plant 1965
▁clue 1965
▁curry 1965
▁sho 1965
ener 1964
▁Ei 1964
▁Pages 1964
▁Purse 1964
▁Ram 1964
▁bounce 1964
▁struggling 1964
▁supervision 1964
▁adaptation 1963
▁outlets 1963
▁thermo 1963
cheon 1962
zhu 1962
▁sect 1962
Openload 1961
▁ferry 1961
▁Admission 1960
▁revolutionary 1960
▁unstable 1960
ride 1959
▁Ctrl 1959
▁Joseph 1959
▁broadcasting 1959
▁humanitarian 1959
%) 1958
120 1958
pal 1958
▁Elements 1958
▁cocks 1958
▁commemorate 1958
▁fever 1958
empt 1957
▁Changing 1957
▁compensate 1957
▁insects 1957
control 1956
▁Cream 1956
▁Polar 1956
glass 1955
item 1955
▁Aqua 1955
▁Georgia 1955
▁Installation 1955
▁descend 1955
▁snake 1955
▁suburb 1955
エ 1955
rma 1954
▁Perry 1954
▁certificates 1954
▁lamps 1954
▁neighbor 1954
etti 1953
have 1953
▁Empress 1953
▁Urban 1953
▁unity 1953
▁440 1952
▁creators 1952
▁queue 1952
▁tides 1952
ULT 1951
▁fool 1951
▁showers 1951
ogram 1950
peak 1950
▁OKI 1950
サ 1950
▁EVEN 1949
▁Ok 1949
▁ambition 1949
Sun 1948
▁Munich 1948
▁hurry 1948
ら 1948
▁Creators 1947
▁Repeat 1947
other 1946
▁Acquisition 1946
▁suspended 1946
Mar 1945
liness 1945
▁Rent 1945
▁guns 1945
▁modeling 1945
▁quantum 1945
▁sponsored 1944
MAP 1943
fusion 1943
▁FL 1943
▁Wear 1943
▁damp 1943
▁intimate 1943
▁pid 1943
▁Adult 1942
▁Trail 1942
▁broker 1942
▁determining 1942
▁windshield 1942
dou 1941
famous 1941
▁CZ 1941
▁Prices 1941
▁Satan 1941
▁deposits 1941
▁exceptions 1941
ブ 1941
won 1940
emp 1939
chuan 1938
▁CS 1938
▁DI 1938
▁EOS 1938
▁Impact 1938
▁Qin 1938
▁Ticket 1938
▁Vista 1938
▁appropriately 1938
▁installer 1938
▁rains 1938
▁sampling 1938
5] 1937
mel 1937
▁Clock 1937
▁unification 1937
themed 1936
▁herbs 1936
▁simulations 1936
sheng 1935
▁hormone 1935
▁licenses 1935
▁pledge 1935
Why 1933
oil 1933
pie 1933
▁Ger 1933
▁tailored 1933
match 1932
▁Diesel 1932
▁arrives 1932
▁seating 1932
Figure 1931
quin 1931
writing 1931
▁Complimentary 1931
▁Designed 1931
▁Hol 1931
▁Nano 1931
▁WS 1931
More 1930
RED 1930
▁Sumitomo 1930
▁memorial 1930
▁tones 1930
▁Cru 1929
▁DSO 1929
▁Ura 1929
▁slopes 1929
▁tray 1929
GL 1928
shot 1928
▁Bob 1928
▁discussing 1928
▁unfold 1928
:40 1927
▁Upload 1927
▁Yantai 1927
▁recognizes 1927
▁retailers 1927
▁wounded 1927
▁Login 1926
▁Toronto 1926
▁packing 1926
▁shutdown 1926
▁teachings 1926
pla 1925
uv 1925
▁GUIDE 1925
▁Orange 1925
▁proceeding 1925
lated 1924
orous 1924
▁Lift 1924
▁bubbles 1924
▁sucking 1924
Jo 1923
mix 1923
mont 1923
▁Rin 1923
▁explaining 1923
▁fifty 1923
▁scans 1923
oct 1922
▁95 1922
▁Memory 1922
▁deity 1922
▁replacing 1922
through 1921
▁ATM 1921
▁manipulation 1921
▁Operations 1920
▁commitments 1920
▁earliest 1920
▁stepped 1920
▁tribute 1920
iva 1919
wise 1919
▁Drag 1919
▁Entertainment 1919
▁Fuck 1919
▁Tar 1919
▁conductor 1919
▁lyrics 1919
▁Draw 1918
▁Dry 1918
▁upgraded 1918
-23 1917
iano 1917
▁Kara 1917
▁Oku 1917
▁pound 1917
1: 1916
▁desperate 1916
▁recruit 1916
▁Alternatively 1915
▁Blu 1915
▁Richard 1914
▁inhabitants 1914
▁shaft 1914
▁tale 1914
AIN 1913
plex 1913
▁Denmark 1913
▁Saitama 1913
▁footprint 1913
▁incentive 1913
▁structured 1913
rp 1912
▁Counter 1912
▁analyses 1912
▁analyzing 1912
2.0 1911
FO 1911
eye 1911
▁costumes 1911
▁outlined 1911
▁tracker 1911
AB 1910
▁Reviews 1910
▁habits 1910
▁portions 1910
辞典 1910
▁Gong 1909
▁Jones 1909
▁Oxford 1909
bie 1908
imo 1908
▁GDP 1908
▁Pala 1908
▁RI 1908
▁ministry 1908
▁nurture 1908
▁twelve 1908
JA 1907
ologists 1907
▁grassland 1907
▁programmes 1907
▁Goals 1906
Off 1905
▁Wonder 1905
▁cabinet 1905
▁distributor 1905
▁equity 1905
▁tuna 1905
▁victim 1905
ib 1904
▁8:00 1904
▁barriers 1904
nder 1903
xing 1903
▁Sendai 1903
▁importantly 1903
▁lips 1903
· 1902
▁Much 1902
▁Ty 1902
▁considerably 1902
▁violations 1902
\' 1901
glia 1901
gai 1900
human 1900
▁Expert 1900
▁Louvre 1900
▁Programs 1900
▁cancelled 1900
▁gospel 1900
▁ripe 1900
▁traditionally 1900
▁armor 1899
▁jumping 1899
▁midnight 1899
Air 1898
National 1898
▁Extra 1898
▁Roger 1898
▁tick 1898
熟語 1898
BM 1897
Script 1897
▁Mur 1897
▁beloved 1897
▁hiking 1897
▁tendency 1897
▁Cent 1896
▁Tin 1896
▁Treaty 1896
▁counted 1896
▁inevitable 1896
▁pp 1896
ishing 1895
▁Mao 1894
▁SMS 1894
▁Strategic 1894
▁cooler 1894
quo 1893
▁Quan 1893
▁Xiang 1893
▁parliament 1893
▁towers 1893
7.00 1892
desk 1892
economic 1892
▁cycling 1892
▁nickel 1892
▁recordings 1892
▁sculptures 1892
▁simplicity 1892
▁invisible 1891
6.00 1890
:18 1890
▁identifiers 1890
▁integrating 1890
▁organisation 1890
▁partially 1890
学 1890
▁Presentation 1889
▁Sister 1889
▁consistency 1889
▁extending 1889
▁fingerprint 1889
▁polished 1889
▁poured 1889
Exp 1888
▁DISCO 1888
▁PLA 1888
▁accumulate 1888
▁crawl 1888
▁slim 1888
TON 1887
cost 1887
▁330 1887
▁advertise 1887
▁amenities 1887
▁attorney 1887
▁Apps 1886
▁JSR 1886
▁Ky 1886
gil 1885
kind 1885
▁criticism 1885
▁greeting 1885
▁originated 1885
▁reluctant 1885
▁scare 1885
Top 1884
chain 1884
▁Likewise 1884
▁foundations 1884
▁hometown 1884
▁inherent 1884
▁needle 1884
▁sunshine 1884
▁wardrobe 1884
rey 1883
▁Liko 1883
▁Dead 1882
▁Extreme 1882
▁Wat 1882
▁allergic 1882
▁interpreted 1882
▁attacked 1881
▁dealer 1881
▁formatting 1881
▁marking 1881
▁renamed 1881
Photo 1880
▁punished 1880
▁senses 1880
▁Mega 1879
▁Swa 1879
▁alpha 1879
▁talents 1879
lier 1878
▁Examples 1878
▁artifacts 1878
▁distances 1878
▁exclude 1878
▁monuments 1878
▁stocks 1878
▁uncensored 1878
▁Independent 1877
▁ambassador 1877
▁survived 1877
▁yu 1877
awa 1876
▁Breakfast 1876
▁Frank 1875
▁NOW 1875
▁Receive 1875
▁carriage 1875
▁executable 1875
▁helicopter 1875
▁horror 1875
▁ridge 1875
▁zip 1875
foot 1874
laughs 1874
▁125 1874
▁Nigeria 1874
▁Sau 1874
▁hack 1874
▁seemingly 1874
AF 1873
wal 1873
▁DIY 1873
▁Extract 1873
▁Ward 1873
▁segmentation 1873
haul 1872
▁Kitchen 1872
▁advances 1872
▁coated 1872
▁drainage 1872
▁longest 1872
--- 1871
▁Jung 1871
▁Magnetic 1871
▁Revision 1871
▁Whenever 1871
Inter 1870
ania 1870
aunt 1870
▁controllers 1870
▁drove 1870
▁hostel 1870
▁pools 1870
EMS 1869
▁Ferrari 1869
▁Mongolian 1869
▁grapes 1869
▁recorder 1869
▁soccer 1869
▁transplant 1869
DN 1868
lateral 1868
your 1868
▁9:00 1868
▁Fla 1868
▁dismiss 1868
▁overnight 1868
▁threatened 1868
LR 1867
▁Declaration 1867
▁bullet 1867
▁donations 1867
▁fax 1867
Duodecad 1866
zhen 1866
▁Justice 1866
▁Offer 1866
▁boil 1866
▁cakes 1866
▁evacuation 1866
▁exotic 1866
▁prints 1866
LB 1865
▁Dao 1865
▁Document 1865
▁Lines 1865
▁Petro 1865
▁Rod 1865
▁Updated 1865
▁Wedding 1865
▁revival 1865
▁cabbage 1864
▁grind 1864
GU 1863
HC 1863
▁1.6 1863
▁AdRoll 1862
▁Going 1862
▁abandon 1862
▁headache 1862
▁league 1862
▁Ingredients 1861
▁LG 1861
▁Monitoring 1861
▁coupled 1861
▁inspire 1861
▁reef 1861
▁talented 1861
▁105 1860
▁Preparation 1860
▁Never 1859
▁Soon 1859
▁checkbox 1859
▁checker 1859
▁filtering 1859
▁spoon 1859
▁Ol 1858
▁String 1858
▁moms 1857
ón 1856
▁ambitious 1856
▁labour 1856
▁miserable 1856
▁spiral 1856
▁UP 1855
▁eliminating 1855
▁nutrients 1855
▁unsafe 1855
▁Reset 1854
▁fragrant 1854
▁hath 1854
▁prefectures 1854
▁unwanted 1854
ACH 1853
▁Autofocus 1853
▁lover 1853
▁sprinkle 1853
▁Guard 1852
▁Sab 1852
▁basket 1852
▁cleaner 1852
▁molding 1852
会 1852
Article 1851
bert 1851
▁Antarctica 1851
▁IBM 1851
▁angles 1851
Video 1850
dependent 1850
▁101 1850
▁Displays 1850
▁NA 1850
▁comic 1850
▁horseback 1850
▁touching 1850
oso 1849
▁Flat 1849
▁Murata 1849
▁shifts 1849
graphic 1848
▁Commons 1848
▁Mad 1848
▁crossed 1848
▁monk 1848
▁tract 1848
EAN 1847
usr 1847
▁Nothing 1847
▁Scale 1847
▁flip 1847
tek 1846
what 1846
▁CB 1846
▁Muslims 1846
▁Yin 1846
▁gazing 1846
▁15:00 1845
▁Recording 1845
▁Tokugawa 1845
▁flowering 1845
▁surf 1845
ilfs 1844
▁40% 1844
▁APP 1844
▁beacons 1844
▁claiming 1844
▁prophet 1844
▁slice 1844
ogni 1843
▁Luxury 1843
▁firmware 1843
▁unforgettable 1842
Mark 1841
mae 1841
▁Asakusa 1841
▁Strength 1841
▁baked 1841
▁intake 1841
▁sphere 1841
▁Develop 1840
▁Jim 1840
▁Manila 1840
▁dip 1840
▁patents 1840
▁geometric 1839
▁odor 1839
▁Springs 1838
▁Tier 1838
▁Zhao 1838
▁fairy 1838
▁manuscripts 1838
▁stall 1838
▁Xian 1837
▁cultivate 1837
Control 1836
▁TRAINING 1836
▁funded 1836
▁lightly 1836
▁69 1835
▁Anyway 1835
▁Hainan 1835
▁NC 1835
▁Seat 1835
▁grinding 1835
▁portray 1835
▁soak 1835
▁tear 1835
▁withstand 1835
abilities 1834
▁Count 1834
▁Wing 1834
▁null 1834
2,000 1833
Key 1833
Last 1833
pool 1833
▁1978 1833
▁Configure 1833
▁Formula 1833
▁constitutes 1833
▁frost 1833
NP 1832
▁1920 1832
▁Cheng 1832
▁Compact 1832
▁Websites 1832
▁mainland 1832
▁reuse 1832
▁subway 1832
oyaki 1831
▁useless 1831
maker 1830
▁Complex 1830
loss 1829
oop 1829
▁keen 1829
▁liters 1829
▁publications 1829
chlor 1828
ichiro 1828
kar 1828
uration 1828
▁SI 1828
▁accumulation 1828
Image 1827
Tel 1827
▁Au 1827
▁Beat 1827
▁Effects 1827
▁cycles 1827
▁gauge 1827
▁spicy 1827
born 1826
▁Ama 1826
▁dash 1826
▁tighten 1826
▁Animal 1825
▁Halal 1825
▁aligned 1825
▁cosmetics 1825
▁declined 1825
も 1825
▁reliance 1824
리 1824
fen 1823
▁charity 1823
▁checkout 1823
▁desirable 1823
▁Kuni 1822
▁PVC 1822
▁differs 1822
▁safer 1822
▁strengthened 1822
▁undertaken 1822
DVD 1821
Price 1821
anti 1821
▁bent 1821
▁clash 1821
▁iCloud 1821
Star 1820
▁Coffee 1820
▁Layout 1820
▁deactivated 1820
▁incorporating 1820
shita 1819
yong 1819
▁Andy 1819
▁Letter 1819
▁bathing 1819
▁warn 1819
▁whale 1819
-24 1818
NY 1818
angle 1818
▁DM 1818
▁Juan 1818
▁Previous 1818
▁stretching 1818
▁Beth 1817
▁NIPPON 1817
▁Progress 1817
▁ch 1817
▁cigarette 1817
▁groove 1817
miya 1816
▁applicants 1816
▁approve 1816
▁fin 1816
▁replenish 1816
▁Chemistry 1815
▁Quest 1815
▁boiling 1815
▁organizer 1815
school 1814
▁Logo 1814
▁Mine 1814
▁Nanjing 1814
▁chop 1814
titude 1813
▁100,000 1813
▁2002, 1813
▁Vacation 1813
▁awesome 1813
▁liter 1813
▁peninsula 1813
corn 1812
▁CSV 1812
▁Yamaha 1812
▁collapsed 1812
▁passwords 1812
▁solvent 1812
1] 1811
▁Ero 1811
▁Jian 1811
asso 1810
mune 1810
▁GP 1810
▁Origin 1810
Yes 1809
lid 1809
▁Outside 1809
▁Palestinian 1809
▁Udemy 1809
▁emotion 1809
▁reinstall 1809
▁sweep 1809
▁consumed 1808
▁smallest 1808
▁superuser 1808
VAL 1807
Weight 1807
flo 1807
▁JAL 1807
▁Kunming 1807
ail 1806
▁contactees 1806
▁bearings 1805
▁notified 1805
▁thunder 1805
-60 1804
Project 1804
▁Audi 1804
▁courtesy 1804
▁parade 1804
▁scam 1804
▁scholars 1804
▁Citizen 1803
▁GA 1803
▁Markets 1803
▁sustained 1803
▁Kur 1802
▁PHP 1802
▁Precision 1802
▁attachment 1802
▁clearance 1802
▁domains 1802
▁rides 1802
guan 1801
▁Hideyoshi 1801
▁Xu 1801
▁engraving 1801
▁observing 1801
EAT 1800
LEX 1800
▁slower 1800
▁synchronization 1800
rank 1799
▁Ian 1799
▁Polish 1799
▁modular 1799
virus 1798
▁Mileage 1798
▁Same 1798
▁affiliation 1798
▁puja 1798
▁violated 1798
Circ 1797
avour 1797
image 1797
▁Yoko 1797
▁implant 1797
▁Provider 1796
▁Sort 1796
▁disability 1796
▁invites 1796
▁tricks 1796
▁Hyogo 1795
▁Maru 1795
▁herbal 1795
▁intervals 1795
▁malaria 1795
▁observes 1795
▁specializing 1795
▁vapor 1795
プ 1795
aria 1794
fast 1794
goku 1794
▁palette 1794
▁pillar 1794
▁democratic 1793
▁kid 1793
zhi 1792
▁additive 1792
▁assert 1792
▁respiratory 1792
Specials 1791
poly 1791
rush 1791
▁Edge 1791
▁Kana 1791
▁Panasonic 1791
▁apache 1791
mote 1789
tha 1789
▁3000 1789
▁Belgian 1789
▁Hobby 1789
▁USGS 1789
▁freedoms 1789
▁hurricane 1789
▁installations 1789
▁mal 1789
▁migrants 1789
▁molybdenum 1789
immer 1788
west 1788
▁References 1788
▁metrics 1788
▁necessity 1788
CAP 1787
DIA 1787
That 1787
fest 1787
shui 1787
▁accepts 1787
▁shortage 1787
▁Conf 1786
▁Diet 1786
▁importing 1786
▁pier 1786
▁timepieces 1786
▁2030 1785
▁Benefits 1785
▁Peru 1785
▁Simon 1785
▁commented 1785
▁gravitational 1785
▁suggesting 1785
▁goat 1784
2009 1783
ACT 1783
Australian 1783
center 1783
tention 1783
▁Almost 1783
▁YO 1783
▁barrel 1783
stein 1782
▁2002. 1782
▁Lotus 1782
▁Nobu 1782
▁dosage 1782
▁enthusiastic 1782
▁toxic 1782
Bi 1781
Info 1781
▁Warranty 1781
▁renewal 1781
HL 1780
License 1780
▁Bot 1780
▁Canva 1780
▁VMware 1780
▁booked 1780
▁expects 1780
▁lifted 1780
▁sensing 1780
▁sights 1780
お 1780
▁Density 1779
▁FBI 1779
▁Frequency 1779
▁Nihon 1779
▁acids 1779
▁altitudes 1779
▁avoiding 1779
▁ladies 1779
▁argue 1778
▁connectors 1778
▁destructive 1778
▁instructor 1778
▁integral 1778
▁slides 1778
▁Merge 1777
▁SSD 1777
▁differentiate 1777
▁investigated 1777
▁silhouette 1777
訳 1777
ENG 1776
mile 1776
pixel 1776
▁Mississippi 1776
▁cabin 1776
▁granting 1776
▁tidal 1776
CAD 1775
raz 1775
ugu 1775
dae 1774
lie 1774
ono 1774
▁(@ 1774
▁beads 1774
▁cups 1774
plane 1773
▁XRP 1773
▁applicant 1773
▁fence 1773
▁infectious 1773
▁undergo 1773
▁Canary 1772
▁IDs 1772
▁Instant 1772
▁Majesty 1772
▁Unique 1772
▁bride 1772
▁turbine 1772
ナ 1772
▁Cherry 1771
▁Empire 1771
▁Speaker 1771
▁berries 1771
▁hung 1771
▁μ 1771
bid 1770
flat 1770
▁Yen 1770
▁deliberately 1770
▁deviation 1770
▁graduation 1770
▁prevail 1770
▁suspected 1770
▁Burn 1769
▁Engineer 1769
▁Logic 1769
▁performers 1769
erator 1768
fei 1768
▁incorporates 1768
▁incredibly 1768
park 1767
rip 1767
▁82 1767
▁Picture 1767
▁worms 1767
AMI 1766
ista 1766
▁EL 1766
▁MU 1766
▁Bond 1765
▁Fuku 1765
▁Mens 1765
▁Rest 1765
▁administrators 1765
Rent 1764
oodle 1764
stream 1764
▁BU 1764
▁Christianity 1764
▁DecoNetwork 1764
▁Swirls 1764
▁geological 1764
▁OEM 1763
▁attributed 1763
▁deer 1763
uan 1762
▁Creation 1762
▁Dar 1762
Pay 1761
Sub 1761
▁TM 1761
▁deciphered 1761
▁depicted 1761
▁gases 1761
▁queries 1761
any 1760
help 1760
zon 1760
▁Agricultural 1760
▁Ah 1760
▁Contemporary 1760
▁Juni 1760
▁Persian 1760
▁attracts 1760
▁blessings 1760
▁explanations 1760
ミ 1760
▁1982 1759
▁CAMPS 1759
▁Las 1759
▁Logistics 1759
▁Stars 1759
▁supplements 1759
KEY 1758
lapse 1758
▁LI 1758
▁Viet 1758
▁competent 1758
▁discipline 1758
▁injuries 1758
▁rebel 1758
ept 1757
location 1757
tier 1757
vie 1757
▁OFF 1757
▁passive 1757
1000 1756
masa 1756
▁arrested 1756
▁cafes 1756
▁expectation 1756
▁revealing 1756
WO 1755
uka 1755
▁geometry 1755
-35 1754
/2016 1754
BER 1754
▁Binh 1754
▁Role 1754
▁Sh 1754
▁decreases 1754
▁grants 1754
OLD 1753
dder 1753
prop 1753
▁1974 1753
▁chronometer 1753
▁rounds 1753
/05 1752
Si 1752
num 1752
qiao 1752
▁Mil 1752
▁simplify 1752
▁Broadcast 1751
▁Coco 1751
▁Hoodie 1751
▁MOV 1751
▁Pai 1751
▁blessing 1751
▁curl 1751
▁hop 1751
▁ki 1751
▁retirement 1751
▁Effect 1750
▁Maria 1750
▁disconnect 1750
▁findable 1750
▁hiring 1750
▁proceedings 1750
▁triangle 1750
FILE 1749
bun 1749
▁Understanding 1749
▁upgrading 1749
「 1749
ologies 1748
▁Favorite 1748
▁china 1748
▁nude 1748
Color 1747
Ref 1747
ZU 1747
▁Ying 1747
▁comparable 1747
▁tissues 1747
Asia 1746
▁25% 1746
▁noodle 1746
▁supervisor 1746
exclusive 1745
love 1745
▁burial 1745
チ 1745
2003 1744
Auto 1744
▁Consumer 1744
▁DAAD 1744
:19 1743
▁Jen 1743
▁Scheduled 1743
▁illustration 1743
▁simulator 1743
▁throne 1743
hot 1742
▁clarify 1742
▁demonstrates 1742
▁pale 1742
テ 1742
▁Alpha 1741
▁Keio 1741
▁Orders 1741
Information 1740
burn 1740
metre 1740
▁Chun 1740
▁Handling 1740
▁biology 1740
▁hostname 1740
Inari 1739
TOKYO 1739
fil 1739
л 1739
▁usability 1739
/1 1738
▁implements 1738
▁kilo 1738
▁stew 1738
format 1737
wed 1737
▁listened 1737
▁reservoir 1737
▁rumors 1737
fact 1736
▁Oktober 1736
▁Fitness 1735
▁Manufacturers 1735
▁mushrooms 1735
ISO 1734
▁50,000 1734
▁explosive 1734
▁worsen 1734
【 1734
2000 1733
▁READ 1733
▁Stand 1733
▁counsel 1733
motion 1732
ologist 1732
▁5,000 1732
▁Highway 1732
Prestige 1731
depth 1731
lex 1731
▁Medium 1731
▁lacking 1731
▁lip 1731
▁sits 1731
San 1730
▁energetic 1730
▁lend 1730
▁voluntary 1730
jong 1729
three 1729
▁Growth 1729
▁failing 1729
▁shortcut 1729
HE 1728
▁bother 1728
▁critic 1728
▁quartz 1728
▁sponsorship 1728
Filter 1727
▁Samuel 1727
▁assure 1727
▁drew 1727
▁illustrations 1727
▁moist 1727
▁(2016 1726
▁MPM 1726
▁metro 1726
support 1725
▁Phu 1725
▁RSS 1725
▁strongest 1725
▁uncle 1725
▁+81 1724
▁Fiscal 1724
▁Hills 1724
▁affection 1724
▁premier 1724
Ta 1723
aver 1723
▁Physics 1723
▁Political 1723
▁Stable 1723
▁comprises 1723
▁persistent 1723
▁plunge 1723
▁protocols 1723
vision 1722
▁Selected 1722
▁Sensor 1722
▁assassination 1722
▁dots 1722
▁fierce 1722
** 1721
personal 1721
▁Bodhisattva 1721
▁atoms 1721
▁rotor 1721
▁scanned 1721
9) 1720
LES 1720
lc 1720
xin 1720
▁Cheney 1720
▁carpet 1720
▁dividend 1720
▁excluded 1720
▁Disk 1719
▁Established 1719
▁Marubeni 1719
▁curiosity 1719
▁prizes 1719
▁restrain 1719
▁subconscious 1719
shiro 1718
▁Mexican 1718
▁Ryu 1718
▁Write 1718
▁firewall 1718
▁solder 1718
▁suites 1718
▁Athens 1717
▁Researchers 1717
▁Slack 1717
▁Unreal 1717
▁flags 1717
▁infringe 1717
▁rods 1717
▁warranties 1717
harm 1716
wheel 1716
▁Teacher 1716
▁publicity 1716
▁seamless 1716
LLE 1715
cio 1715
walk 1715
▁Minami 1715
▁Pur 1715
▁Standards 1715
▁Steps 1715
▁boring 1715
▁earnings 1715
▁treating 1715
▁EMS 1714
▁Mackerel 1714
▁beginners 1714
▁clutch 1714
▁dinosaur 1714
▁productive 1714
▁scanners 1714
DEN 1713
Since 1713
lec 1713
▁Supported 1713
▁behaviours 1713
3.4 1712
John 1712
ocyte 1712
с 1712
▁Constellation 1712
2011 1711
GH 1711
▁Boot 1711
▁Interior 1711
▁Todoist 1711
▁absorbed 1711
▁adopting 1711
▁grey 1711
▁inappropriate 1711
AKU 1710
Bass 1710
suexec 1710
▁outlook 1710
▁primitive 1710
ett 1709
fly 1709
sui 1709
▁Females 1709
▁magma 1709
▁oriented 1709
▁tang 1709
▁tightly 1709
▁Chris 1708
▁FileMaker 1708
▁Fit 1708
▁Fujiwara 1708
▁Headquarters 1708
▁constellation 1708
▁mailing 1708
▁rushed 1708
▁typing 1708
people 1707
▁Etsy 1707
▁Hor 1707
▁Month 1707
▁ancestors 1707
▁coincide 1707
GM 1706
WS 1706
riff 1706
zaka 1706
▁Breeding 1706
▁Marker 1706
▁Salt 1706
▁Strong 1706
▁formatted 1706
▁ramp 1706
XX 1705
▁Contains 1705
▁Matthew 1705
▁delays 1705
kami 1704
Contact 1703
▁Dust 1703
▁FR 1703
▁rounded 1703
▁searched 1703
/30 1702
▁1981 1702
▁Drug 1702
▁intact 1702
▁mouths 1702
▁Secret 1701
▁manipulate 1701
▁motive 1701
▁Announcement 1700
▁Leadership 1700
▁Leonardo 1700
▁diagonal 1700
▁dies 1700
▁hectares 1700
▁override 1700
▁phases 1700
Sho 1699
▁SPECIAL 1699
▁eliminated 1699
ASH 1698
OC 1698
hide 1698
▁Portuguese 1698
▁Qua 1698
▁commander 1698
▁obstacles 1698
seki 1697
▁Malta 1697
▁bills 1697
▁unlawful 1697
/6 1696
kari 1696
▁UL 1696
▁Wai 1696
▁sisters 1696
People 1695
XL 1695
▁DNS 1695
8,000 1694
IAL 1694
ZO 1694
▁energies 1694
▁WBSC 1693
▁joke 1693
▁spy 1693
▁(17 1692
▁(21 1692
▁alternatives 1692
▁billing 1692
▁legally 1692
▁peripheral 1692
▁regulated 1692
さ 1692
▁Walking 1691
▁endorsement 1691
▁submitting 1691
▁Monster 1690
▁Teams 1690
▁nobody 1690
rec 1689
▁1971 1689
▁1976 1689
▁banned 1689
▁config 1689
▁fitting 1689
▁meteor 1689
▁newspapers 1689
nin 1688
▁Fur 1688
▁Kanazawa 1688
▁outage 1688
coup 1687
▁Deck 1687
▁feeds 1687
デ 1687
lessness 1686
▁Maker 1686
▁multimedia 1686
▁purely 1686
▁invented 1685
▁municipalities 1685
▁suppose 1685
IAN 1684
rene 1684
xian 1684
▁Eve 1684
▁Measurement 1684
▁lin 1684
▁clusters 1683
▁idle 1683
Make 1682
▁Jordan 1682
▁localization 1682
▁notch 1682
▁pagoda 1682
▁scales 1682
Mac 1681
▁emit 1681
▁glimpse 1681
▁supporters 1681
nto 1680
small 1680
▁Yahoo 1680
▁hail 1680
▁liquor 1680
▁flee 1679
▁sinner 1679
▁southwest 1679
▁squ 1679
▁Disease 1678
▁Marina 1678
▁Ota 1678
▁craftsmen 1678
▁executing 1678
▁rot 1678
Yu 1677
structure 1677
▁Estate 1677
▁Moses 1677
▁Cards 1676
▁SOHO 1676
▁Sara 1676
▁Winding 1676
▁crisp 1676
▁crush 1676
▁neat 1676
fuku 1675
quer 1675
▁caps 1675
▁cope 1675
-03 1674
▁Seo 1674
▁assisted 1674
▁competitions 1674
▁inspect 1674
▁meantime 1674
▁modifications 1674
▁vest 1674
-50 1673
8] 1673
Over 1673
▁Nobel 1673
▁Tyco 1673
▁altered 1673
6] 1672
▁Ikeda 1672
▁Speech 1672
▁closure 1672
▁confront 1672
▁entrepreneur 1672
▁salmon 1672
1.4 1671
Every 1671
Forecast 1671
hoe 1671
nium 1671
stage 1671
▁Kaohsiung 1671
▁stiff 1671
▁clocks 1670
▁devastating 1670
▁fixes 1670
ICS 1669
when 1669
▁+82 1669
▁Minato 1669
▁bathrobe 1669
▁immigrants 1669
▁surprises 1669
▁Toyotomi 1668
▁curved 1668
▁employ 1668
▁pastor 1668
▁Pokémon 1667
▁Reduce 1667
▁breakthrough 1667
▁erosion 1667
▁internship 1667
▁inviting 1667
▁prevented 1667
firm 1666
tribute 1666
uge 1666
▁Shui 1666
▁Steve 1666
▁bud 1666
▁populated 1666
▁spill 1666
rious 1665
whether 1665
▁Previously 1665
▁Rubber 1665
▁Strip 1665
▁arena 1665
▁incorporation 1665
▁lamb 1665
▁revenues 1665
▁sliding 1665
culture 1664
▁Calibre 1664
▁eBook 1664
▁occupation 1664
▁pumpkin 1664
▁stranger 1664
▁(12 1663
▁Siberia 1663
▁peculiar 1663
▁penetrate 1663
▁validation 1663
rab 1662
spiration 1662
▁Antarctic 1662
▁Obviously 1662
▁arbitrary 1662
▁capsule 1662
▁sauna 1662
▁whilst 1662
gio 1661
owner 1661
project 1661
▁caring 1661
▁dresses 1661
▁impulse 1661
▁ward 1661
▁Boutique 1660
▁Martial 1660
▁altar 1660
▁conditional 1660
▁expressing 1660
Check 1659
▁COP 1659
▁Jupiter 1659
▁Luggage 1659
▁Minimum 1659
▁Tip 1659
▁linger 1659
Lab 1658
ality 1658
keeper 1658
▁answering 1658
▁honour 1658
▁Brun 1657
▁Disable 1657
▁JAVHD 1657
▁Zenith 1657
▁advancing 1657
▁affiliate 1657
WG 1656
abe 1656
lem 1656
ogenic 1656
▁Sell 1656
▁assurance 1656
▁decay 1656
▁feast 1656
▁pharma 1656
CF 1655
export 1655
lap 1655
tering 1655
▁Blossom 1655
▁POS 1655
▁Wars 1655
▁pleasantly 1655
agent 1654
conduct 1654
▁elder 1654
WP 1653
▁Assistance 1653
▁HAS 1653
▁grill 1653
▁slots 1653
▁vitamin 1653
50,000 1652
▁Electrical 1652
▁Refer 1652
▁Virgin 1652
▁bake 1652
中 1652
fan 1651
▁92 1651
▁PX 1651
▁compilation 1651
▁deciding 1651
▁grilled 1651
▁sewage 1651
ech 1650
▁Aeroflot 1650
▁BI 1650
▁Budget 1650
▁Charge 1650
▁Der 1650
▁Guangdong 1650
▁disappointed 1650
▁sharpen 1650
▁widen 1650
LEDConnectivity 1649
▁Esc 1649
▁Printing 1649
▁assumptions 1649
▁chant 1649
▁confirming 1649
▁hover 1649
▁rob 1649
liev 1648
toxic 1648
▁hierarchy 1648
▁licence 1648
▁melody 1648
▁midst 1648
▁resized 1648
Non 1647
operation 1647
▁Nar 1647
▁Rogue 1647
▁fulfilled 1647
▁vine 1647
▁Academic 1646
▁Aden 1646
▁Luo 1646
▁expose 1646
▁practiced 1646
India 1645
ROM 1645
▁adhesive 1645
look 1644
▁preach 1644
▁reasonably 1644
Don 1643
agged 1643
garde 1643
▁4.0 1643
▁Experts 1643
▁banquet 1643
▁pastry 1643
▁rig 1643
▁shame 1643
▁stabilize 1643
▁timeframe 1643
ISE 1642
Start 1642
▁Hana 1642
▁Hang 1642
▁entertain 1642
winning 1641
▁Chart 1641
▁Commander 1641
▁Delicious 1641
▁empower 1641
:4 1640
Design 1640
INT 1640
rice 1640
▁77 1640
▁Soul 1640
▁bare 1640
▁disrupt 1640
▁fig 1640
▁vague 1640
prev 1639
▁Pier 1639
▁Secrets 1639
▁blackout 1639
▁chairs 1639
101 1638
GC 1638
ivo 1638
tama 1638
▁Libya 1638
▁qualification 1638
▁rap 1638
▁turtle 1638
▁vertically 1638
TEM 1637
knot 1637
metry 1637
▁Sure 1637
▁amino 1637
▁dispatch 1637
▁printers 1637
TY 1636
▁1963 1636
▁60% 1636
▁Eni 1636
▁Mechanical 1636
▁Melbourne 1636
▁Treasure 1636
▁gesture 1636
▁suspicious 1636
▁// 1635
▁Februar 1635
▁Sum 1635
▁clearing 1635
▁implications 1635
▁pipes 1635
▁rebuilt 1635
especially 1634
▁PB 1634
▁majestic 1634
▁nurse 1634
▁parental 1634
▁sequences 1634
▁soldier 1634
NB 1633
lag 1633
▁Colombia 1633
▁inflammation 1633
atu 1632
▁Applicant 1632
▁MATCHA 1632
▁Mitsu 1632
▁broader 1632
▁customization 1632
▁internally 1632
▁transceiver 1632
▁viral 1632
Content 1631
bia 1631
▁Adventure 1631
▁climbed 1631
▁convince 1631
▁elect 1631
▁premises 1631
▁specifying 1631
Get 1630
▁Hitachi 1630
▁Speaking 1630
▁allocation 1630
▁anxious 1630
▁herein 1630
▁participant 1630
2.3 1629
▁Masters 1629
▁Mekong 1629
▁Temp 1629
의 1629
▁hitting 1628
▁latency 1628
Item 1627
▁Fushimi 1627
▁SEC 1627
Global 1626
▁cling 1626
▁feather 1626
▁ruled 1626
8.5 1625
▁CAR 1625
▁Carl 1625
▁Mun 1625
▁enshrined 1625
APP 1624
Place 1624
ench 1624
▁Miyagi 1624
▁aluminium 1624
▁brewery 1624
▁deactivate 1624
▁ruin 1624
▁warrior 1624
xiang 1623
▁APK 1623
▁Ker 1623
▁throbbing 1623
▁witnessed 1623
MOD 1622
▁Eight 1622
▁NPO 1622
▁lasted 1622
一 1622
▁0.2 1621
▁Component 1621
▁baths 1621
▁homo 1621
▁hyaluronan 1621
▁pinch 1621
め 1621
Config 1620
▁allocated 1620
▁archives 1620
▁legends 1620
▁mathematical 1620
▁vegetarian 1620
ニ 1620
due 1619
established 1619
kov 1619
▁DIS 1619
▁Suddenly 1619
▁responded 1619
▁shorten 1619
efficient 1618
eur 1618
kko 1618
lut 1618
▁AAA 1618
▁Colorado 1618
▁Inagi 1618
▁SV 1618
▁corrected 1618
▁pirates 1618
▁pockets 1618
▁towel 1618
Show 1617
eight 1617
▁Late 1617
▁booker 1617
▁incidence 1617
▁restriction 1617
▁vitamins 1617
Ki 1616
Term 1616
working 1616
▁Attack 1616
▁breathtaking 1616
▁cutoff 1616
▁toys 1616
MW 1615
RL 1615
▁Colors 1615
▁Dog 1615
▁Pharmaceutical 1615
▁Via 1615
▁backdrop 1615
▁fatal 1615
▁organisms 1615
▁tipped 1615
Of 1614
auto 1614
kel 1614
▁Labor 1614
▁polls 1614
▁residue 1614
spire 1613
▁baking 1613
▁brave 1613
▁freeware 1613
▁surprisingly 1613
▁tournaments 1613
blast 1612
▁Tone 1612
▁innocent 1612
▁Dinner 1611
▁IMF 1611
▁Plain 1611
▁indirect 1611
1,000 1610
hill 1610
▁MAKE 1610
▁Monaco 1610
▁Phineas 1610
▁bears 1610
▁compassion 1610
▁constitution 1610
▁mines 1610
▁unchanged 1610
▁FTP 1609
▁XR 1609
▁informs 1609
approx 1608
▁disruption 1608
▁leakage 1608
▁predecessor 1608
▁profitable 1608
author 1607
iga 1607
▁Aya 1607
▁Too 1607
/2015 1606
tent 1606
▁chopped 1606
▁patrons 1606
▁pear 1606
agawa 1605
▁Kiyo 1605
▁Specifications 1605
▁complimentary 1605
▁flew 1605
▁referenced 1605
found 1604
mode 1604
pathy 1604
▁Columbia 1604
▁Meet 1604
▁Parameters 1604
▁Transform 1604
▁instructors 1604
▁launches 1604
▁sorting 1604
▁spacecraft 1604
Rock 1603
language 1602
▁Harajuku 1602
▁Hyper 1602
▁Programming 1602
▁colonial 1602
▁deserve 1602
▁governor 1602
▁lithium 1602
▁peach 1602
▁1972 1601
▁Zhong 1601
▁inhibitor 1601
▁lonely 1601
AX 1600
HP 1600
Select 1600
drive 1600
risk 1600
tti 1600
ó 1600
▁Cabinet 1600
▁PP 1600
▁Rail 1600
▁Silicon 1600
▁heal 1600
scopic 1599
▁61 1599
▁beast 1599
▁caution 1599
▁comprised 1599
▁doses 1599
▁feat 1599
▁hollow 1599
▁pic 1599
▁skeleton 1599
0.4 1598
▁Mariana 1598
▁Screw 1598
▁governed 1598
▁resonance 1598
RES 1597
ook 1597
▁128 1597
▁Candace 1597
▁Doc 1597
viewer 1596
▁Apr 1596
▁Eurasian 1596
▁Falls 1596
▁Quantize 1596
▁gross 1596
▁sq 1596
メ 1596
▁1% 1595
▁adjustable 1595
▁boiled 1595
▁leaning 1595
▁ADC 1594
▁Messenger 1594
▁executives 1594
▁interruption 1594
▁pandas 1594
Na 1593
▁Nick 1593
▁creature 1593
▁enzyme 1593
▁imagined 1593
Share 1592
inating 1592
▁Exit 1592
▁Overall 1592
▁Sym 1592
▁Yesterday 1592
▁contributor 1592
▁impose 1592
▁splash 1592
FM 1591
▁Primary 1591
▁landed 1591
▁randomly 1591
/04 1590
LIN 1590
inator 1590
▁CI 1590
▁Niigata 1590
▁bargain 1590
▁bleeding 1590
▁demons 1590
▁homework 1590
▁progression 1590
▁suggestion 1590
▁warmer 1590
enabled 1589
▁Imp 1589
▁tonight 1588
▁trails 1588
▁utilizes 1588
▁whereby 1588
▁Horizon 1587
▁WW 1587
▁securities 1587
▁Battery 1586
▁Places 1586
▁Provides 1586
▁affirm 1586
▁fuse 1586
▁northwest 1586
/16 1585
hashi 1585
pedia 1585
▁911 1585
▁Biology 1585
▁elevator 1585
▁patented 1585
lightproximity 1584
▁1968 1584
▁Automotive 1584
▁Haru 1584
▁Higher 1584
▁Kiri 1584
▁Similarly 1584
▁monastery 1584
▁wikis 1584
FU 1583
▁Finder 1583
▁Tomb 1583
▁blanket 1583
▁disclosed 1583
▁optimum 1583
▁vibrations 1583
-02 1582
9] 1582
ARA 1582
Master 1582
engine 1582
western 1582
▁WPS 1582
▁drown 1582
▁satisfactory 1582
▁sediment 1582
▁shelf 1582
ANA 1581
▁merit 1581
esse 1580
▁approximate 1580
▁attachments 1580
▁courteous 1580
▁evolving 1580
However 1579
uji 1579
▁carving 1579
▁forgot 1579
▁thumbnail 1579
▁Spyder 1578
▁judges 1578
▁notion 1578
▁securely 1578
150 1577
mill 1577
▁Countries 1577
▁Jade 1577
▁emergence 1577
▁tires 1577
/2014 1576
ISS 1576
-07 1575
7] 1575
DATE 1575
hair 1575
wu 1575
▁Effective 1575
▁Expression 1575
▁Quarter 1575
▁Soros 1575
▁Specifically 1575
▁badge 1575
▁dataset 1575
▁exhausted 1575
▁simplified 1575
alis 1574
▁acknowledged 1574
▁mechanics 1574
▁straw 1574
▁tram 1574
LAN 1573
▁Enamel 1573
▁believers 1573
▁hammer 1573
▁medicines 1573
▁polishing 1573
▁Seattle 1572
ige 1571
▁Flood 1571
▁expiration 1571
▁perceived 1571
3.5 1570
Fixed 1570
IZE 1570
htaccess 1570
omo 1570
string 1570
▁artisans 1570
▁hints 1570
▁lantern 1570
ール 1570
SW 1569
lg 1569
▁Andrea 1569
▁Spin 1569
▁Uni 1569
▁successor 1569
Language 1568
bang 1568
▁Asset 1568
▁Bru 1568
▁Fresh 1568
▁fortress 1568
▁imports 1568
▁reproduced 1568
▁strips 1568
/2011 1567
Cap 1567
▁Hase 1567
▁fired 1567
▁hypothesis 1567
▁merchant 1566
▁shoulders 1566
gif 1565
▁1930 1565
▁Liang 1565
▁Lower 1565
▁gall 1565
▁inherited 1565
▁quest 1565
▁spider 1565
/2017 1564
▁DIRECT 1564
▁Oda 1564
▁bustling 1564
▁harmonious 1564
▁laundry 1564
▁literary 1564
▁patches 1564
OUT 1563
▁Junior 1563
▁Zhou 1563
▁kits 1563
bad 1562
held 1562
▁Hemisphere 1562
Audio 1561
HAR 1561
centric 1561
tw 1561
▁Vegas 1561
▁facilitates 1561
▁incurred 1561
▁realism 1561
▁righteousness 1561
▁teaches 1561
▁visually 1561
Pe 1560
arrival 1560
▁BEFORE 1560
▁Traffic 1560
▁WITHOUT 1560
▁rugged 1560
Love 1559
VP 1559
hoku 1559
▁Agenda 1559
▁Gifu 1559
▁embryo 1559
▁motif 1559
7,000 1558
Ion 1558
VO 1558
▁Ace 1558
▁GUI 1558
▁Rates 1558
▁basketball 1558
▁grandmother 1558
▁rage 1558
▁vinegar 1558
designed 1557
▁Constitution 1557
▁buttocks 1557
▁contamination 1557
▁insect 1557
▁replied 1557
▁sutra 1557
chia 1556
telli 1556
▁2.2 1556
▁750 1555
▁discrimination 1555
▁rigid 1555
▁rooftop 1555
▁spite 1555
▁HI 1554
▁Hospitality 1554
▁Optional 1554
▁PVD 1554
▁antibiotic 1554
▁recon 1554
▁ruling 1554
▁tier 1554
▁JU 1553
▁changer 1553
▁vocabulary 1553
Take 1552
▁Benchmark 1552
▁JFS 1552
▁Morning 1552
▁filmmaker 1552
▁hillside 1552
▁photographed 1552
2008 1551
Bar 1551
IRA 1551
ggio 1551
▁Tweet 1551
▁buoy 1551
▁captain 1551
▁garment 1551
▁practically 1551
▁pulp 1551
250 1550
mono 1550
scence 1550
▁APIs 1550
▁Mala 1550
▁Offered 1550
▁Rift 1550
▁TB 1550
▁occasional 1550
Ne 1549
break 1549
maki 1549
mobil 1549
ody 1549
▁Smith 1549
chy 1548
third 1548
▁Desember 1548
▁MAN 1548
▁Pho 1548
▁decides 1548
▁expresses 1548
002 1547
Copyright 1547
tool 1547
▁Casa 1547
▁decorations 1547
1.2 1546
▁Bright 1546
▁Minebea 1546
▁dancers 1546
▁flux 1546
▁mute 1546
▁rsquo 1546
ENCE 1545
▁LLC 1545
▁Pharma 1545
▁bolt 1545
▁homepage 1545
▁rendered 1545
▁waterfalls 1545
ABI 1544
▁implies 1544
▁basement 1543
▁bushes 1543
▁pounds 1543
4.5 1542
▁Clearly 1542
▁Fox 1542
▁Genetics 1542
▁Intellectual 1542
▁Shell 1542
▁Sunda 1542
▁XL 1542
▁alumni 1542
▁conf 1542
▁counting 1542
▁crafted 1542
▁culinary 1542
▁enjoyment 1542
▁forty 1542
▁junk 1542
AO 1541
▁12:00 1541
▁Alternative 1541
▁Choice 1541
▁Registry 1541
▁carrot 1541
▁sized 1541
Vi 1540
▁CNN 1540
▁Fortress 1540
▁Pixels 1540
▁Sweeping 1540
▁kiss 1540
2006 1539
anza 1539
ngshan 1539
tane 1539
▁Tanaka 1539
▁babies 1539
▁beverage 1539
▁450 1538
▁abused 1538
▁sticks 1538
AIR 1537
ako 1537
▁Cai 1537
▁HARK 1537
▁Ride 1537
aux 1536
▁Female 1536
▁Reader 1536
▁Something 1536
▁Sugi 1536
▁Vancouver 1536
▁entrepreneurs 1536
▁screws 1536
▁specimens 1536
WORK 1535
length 1535
▁Testament 1535
▁boarding 1535
▁monitored 1535
▁scarce 1535
▁sodium 1535
▁wonders 1535
Made 1534
berries 1534
▁RES 1534
▁dropdown 1534
▁hunt 1534
NES 1533
ulous 1533
zzle 1533
▁Higashi 1533
▁flourish 1533
▁ml 1533
▁rinse 1533
TURE 1532
▁aggregate 1532
▁apparel 1532
▁discoveries 1532
Cheapest 1531
tem 1531
▁Leading 1531
▁Nearby 1531
▁Neo 1531
▁Tell 1531
▁aviation 1531
▁canceled 1531
▁inaccuracies 1531
▁patron 1531
▁prospect 1531
▁uncomfortable 1531
kr 1530
pay 1530
rak 1530
▁Kanto 1530
▁Measure 1530
▁Tha 1530
▁Yext 1530
▁spatial 1530
▁tariff 1530
MF 1529
bla 1529
black 1529
vian 1529
▁Bol 1529
▁DOWNLOAD 1529
▁Flight 1529
▁Guang 1529
▁Warning 1529
▁briefly 1529
▁gig 1529
▁institutes 1529
▁jar 1529
▁showering 1529
▁€15 1529
-05 1528
▁Conclusion 1528
▁Lesson 1528
▁Published 1528
▁drums 1528
▁encoded 1528
ック 1528
(0 1527
aca 1527
▁employs 1527
▁macOS 1527
▁severely 1527
▁yoga 1527
lining 1526
nomiya 1526
two 1526
▁96 1526
▁Nice 1526
▁nowadays 1526
▁pioneering 1526
▁Finish 1525
▁borrow 1525
▁journalist 1525
▁retired 1525
CU 1524
Even 1524
elevated 1524
▁dragged 1524
▁fri 1524
▁merchandise 1524
ICO 1523
boy 1523
brid 1523
nation 1523
they 1523
▁Bug 1523
▁Running 1523
▁presidential 1523
▁refuge 1523
cycle 1522
icate 1522
▁Skin 1522
▁cult 1522
▁knob 1522
▁tattoo 1522
▁texting 1522
Update 1521
bacter 1521
cyclo 1521
ication 1521
▁gradual 1521
▁rectangle 1521
Shin 1520
▁cushion 1520
▁gut 1520
-06 1519
CAM 1519
INFO 1519
▁Doofenshmirtz 1519
▁IEEE 1519
▁Weeks 1519
▁fucked 1519
ェ 1519
kha 1518
▁Detection 1518
▁Haneda 1518
▁migrate 1518
▁moons 1518
pxautofocusFlash 1517
▁Genuine 1517
▁costume 1517
▁expenditure 1517
750 1516
▁Michi 1516
▁webpage 1516
ū 1515
▁Evolution 1515
▁beliefs 1515
▁secretary 1515
▁streamline 1515
driven 1514
tica 1514
▁1973 1514
▁Reggae 1514
▁prayed 1514
▁stove 1514
▁upstream 1514
bag 1513
plug 1513
▁Ideal 1513
▁PARTY 1513
▁arbitra 1513
▁byte 1513
▁Restore 1512
▁formally 1512
ます 1512
NU 1511
utation 1511
▁announces 1511
▁broth 1511
▁clever 1511
▁fittings 1511
▁skirt 1511
ISH 1510
▁Maintenance 1510
▁Shige 1510
▁Silk 1510
▁Stadium 1510
▁fibers 1510
▁intern 1510
▁monkey 1510
▁queen 1510
▁Antalya 1509
▁breathe 1509
▁linguistic 1509
▁pilots 1509
▁recycle 1509
▁2.1 1508
▁Tank 1508
▁dye 1508
▁hardness 1508
▁Collaboration 1507
▁Resolution 1507
▁Thermal 1507
▁flagship 1507
▁girlfriend 1507
▁knit 1507
PART 1506
encing 1506
▁COM 1506
▁LIMITATION 1506
▁Laos 1506
▁Mozilla 1506
▁OWN 1506
▁Pie 1506
▁mapped 1506
▁refine 1506
▁Toyama 1505
▁bench 1505
▁buddy 1505
▁flick 1505
▁nuts 1505
▁shouldn 1505
/02 1504
dig 1504
▁Supporting 1504
▁evenly 1504
▁SN 1503
▁investor 1503
hun 1502
▁Artificial 1502
▁Budapest 1502
▁LP 1502
▁archaeological 1502
▁pension 1502
hop 1501
window 1501
▁Cosmo 1501
▁Html 1501
▁Slow 1501
▁devil 1501
▁incomplete 1501
▁outdoors 1501
キ 1501
▁throwing 1500
American 1499
trust 1499
▁Colla 1499
▁Lane 1499
▁Olive 1499
▁coordinated 1499
▁gifs 1499
▁gourmet 1499
▁induce 1499
▁methodology 1499
▁monetary 1498
▁pH 1498
px 1497
who 1497
▁dictionary 1497
▁registering 1497
▁reminded 1497
▁Busan 1496
▁Gender 1496
▁Guarantee 1496
▁Regulation 1496
▁TRI 1496
▁breathable 1496
▁clues 1496
▁dominated 1496
▁eclipse 1496
▁outbreak 1496
▁underneath 1496
Red 1495
▁juicy 1495
▁kings 1495
▁HOsPitality 1494
▁Latest 1494
▁Utiliz 1494
boat 1493
▁1975 1493
▁240 1493
▁hood 1493
▁lawn 1493
Ltd 1492
Main 1492
▁170 1492
▁Kabul 1492
▁allergies 1492
leading 1491
trum 1491
▁credentials 1491
▁relies 1491
LTD 1490
▁Dali 1490
▁enrolled 1490
▁organizational 1490
▁pause 1490
▁samurai 1490
▁synchronized 1490
♪ 1490
ッ 1490
zuka 1489
▁CAN 1489
▁Nguyen 1489
▁Pull 1489
▁Tru 1489
▁WORLD 1489
▁bombing 1489
ress 1488
▁Pagoda 1488
▁Wheel 1488
▁dedication 1488
▁electrons 1488
▁gaze 1488
▁initiate 1488
▁onboard 1488
▁trench 1488
スト 1488
▁$5 1487
▁Painting 1487
▁brew 1487
▁quantitative 1487
▁radioactive 1487
KEN 1486
▁MixConsole 1486
▁narrative 1486
▁salary 1486
ode 1485
▁Jet 1485
▁Kang 1485
▁profession 1485
bird 1484
gura 1484
skin 1484
▁1.8 1484
▁Ise 1484
▁Monument 1484
▁Netanyahu 1484
▁flush 1484
▁mentor 1484
▁sofa 1484
▁writers 1484
▁Bases 1483
▁Grey 1483
▁integrates 1483
wire 1482
▁Intelligent 1482
▁__ 1482
▁curriculum 1482
▁wandering 1482
▁wishing 1482
Hz 1481
having 1481
uer 1481
▁catalogue 1481
▁specializes 1481
▁transported 1481
hira 1480
▁Factor 1480
▁Plastic 1480
▁Secretariat 1480
▁Shoes 1480
▁computation 1480
▁favour 1480
▁renew 1480
▁€6. 1480
idi 1479
zzo 1479
▁Komatsu 1479
▁clicked 1479
▁grains 1479
▁punishment 1479
▁redeem 1479
▁1500 1478
▁€4. 1478
2.2 1477
BY 1477
Core 1477
tree 1477
▁Delhi 1477
▁Scotland 1477
▁butterfly 1477
▁junction 1477
▁occupy 1477
▁sickness 1477
▁unveiled 1477
terra 1476
▁1977 1476
▁filming 1476
▁skull 1476
▁submarine 1476
▁thrust 1476
▁weakness 1476
brand 1475
shore 1475
▁Apollo 1475
▁cleaned 1475
▁securing 1475
ciation 1474
▁Consequently 1474
▁Kannon 1474
▁electrodes 1474
이 1474
Economical 1473
max 1473
▁Answer 1473
▁Fly 1473
▁Quad 1473
▁Ueno 1473
▁relying 1473
▁shifted 1473
▁simulate 1473
▁homemade 1472
▁indigenous 1472
▁neural 1472
▁outward 1472
▁zoo 1472
▁€5. 1472
PLAY 1471
▁bunkers 1471
▁downstream 1471
▁ft 1471
RIC 1470
sort 1470
uru 1470
▁Meta 1470
▁STAR 1470
▁monkeys 1470
tei 1469
▁Bern 1469
▁likelihood 1469
▁poem 1469
ova 1468
ref 1468
▁Presets 1468
▁compass 1468
▁consequence 1468
▁underway 1468
▁71 1467
▁[1] 1467
▁beginner 1467
▁qualify 1467
▁Nori 1466
▁Spark 1466
▁magnetosphere 1466
▁sentiment 1466
▁108 1465
▁Century 1465
▁Entity 1465
▁Est 1465
▁roar 1465
▁€14. 1465
▁Assad 1464
▁Donald 1464
▁JST 1464
▁Mathematical 1464
▁Values 1464
▁pinpoint 1464
▁fader 1463
▁washes 1463
▁wax 1463
リー 1463
▁ACTION 1462
▁NEC 1462
▁Panama 1462
▁refrain 1462
▁salon 1462
▁somebody 1462
▁sparkling 1462
▁territories 1462
▁Certification 1461
▁Condition 1461
▁EQ 1461
▁ning 1461
▁wheelchair 1461
write 1460
▁Featured 1460
▁Friendship 1460
▁INTERNATIONAL 1460
▁gaps 1460
Contents 1459
▁Café 1459
▁Costa 1459
▁Federations 1459
▁Kono 1459
▁Pun 1459
▁SF 1459
▁Stereo 1459
▁Stick 1459
▁admitting 1459
▁auxiliary 1459
▁cartoon 1459
▁hygiene 1459
▁minus 1459
▁reboot 1459
built 1458
▁Accordingly 1458
▁Nine 1458
▁Spider 1458
▁earning 1458
▁prone 1458
▁ENG 1457
▁Include 1457
▁Kuma 1457
▁badges 1457
▁halo 1457
▁thereto 1457
▁undertaking 1457
mou 1456
▁Increase 1456
▁disassemble 1456
▁formulated 1456
▁routed 1456
Mu 1455
PAR 1455
XML 1455
▁4.6 1455
▁Arc 1455
▁Quantity 1455
▁brackets 1455
▁commerce 1455
▁varying 1455
minded 1454
▁Univ 1454
allow 1453
buk 1453
▁Similar 1453
▁capacitor 1453
▁caves 1453
▁packs 1453
▁processors 1453
▁tearing 1453
▁Disclosure 1452
▁Nuendo 1452
▁hemisphere 1452
▁mathematics 1452
▁Humble 1451
▁assumption 1451
▁calligraphy 1451
▁exceeded 1451
▁explorer 1451
▁extensively 1451
▁rubbed 1451
▁shells 1451
Jun 1450
▁LU 1450
▁jazz 1450
SHIN 1449
aro 1449
▁Emi 1449
▁IDE 1449
▁PURPOSE 1449
▁Rev 1449
▁Zero 1449
▁sneak 1449
▁wildlife 1449
SV 1448
lene 1448
rite 1448
usa 1448
▁Domain 1448
▁Excellent 1448
▁NUAC 1448
▁decentralized 1448
▁rainbow 1448
Cu 1447
INA 1447
▁Driving 1447
▁Hollywood 1447
▁rectangular 1447
▁roast 1447
:21 1446
serving 1446
think 1446
▁Mae 1446
▁Tochigi 1446
▁capturing 1446
▁fastened 1446
▁openly 1446
▁Paulo 1445
▁accord 1445
▁eighth 1445
▁glorious 1445
▁helmet 1445
▁journalists 1445
▁projector 1445
QUE 1444
drop 1444
nta 1444
▁Avenue 1444
▁GIF 1444
▁Maki 1444
▁initialize 1444
▁shaking 1444
nori 1443
▁accommodated 1443
▁conservative 1443
▁deceased 1443
▁formulation 1443
▁metallic 1443
BD 1442
chair 1442
kuni 1442
▁Lost 1442
▁Owner 1442
▁fantasy 1442
Create 1441
kita 1441
security 1441
▁FPGA 1441
▁Success 1441
▁fortunately 1441
▁regain 1441
*2 1440
YU 1440
logist 1440
synchronous 1440
▁Paint 1440
▁cautious 1440
▁riot 1440
JU 1439
myo 1439
▁Fellow 1439
▁LOVE 1439
▁delegates 1439
▁miniature 1439
)[ 1438
▁Boat 1438
▁Death 1438
▁SL 1438
▁breakdown 1438
▁coding 1438
▁banana 1437
▁composer 1437
▁fond 1437
▁labeled 1437
▁metabolism 1437
controlled 1436
rewrite 1436
▁220 1436
▁Alps 1436
▁Kind 1436
▁cozy 1436
▁graduates 1436
▁lick 1436
▁spreadsheet 1436
ubi 1435
▁Cycle 1435
▁Joe 1435
▁decreasing 1435
▁motivated 1435
▁― 1435
ュ 1435
ucci 1434
▁JPEG 1434
▁Mazda 1434
▁Nowadays 1434
▁Produce 1434
▁Regulations 1434
▁Yamamoto 1434
▁graduating 1434
▁heroes 1434
▁Brain 1433
▁Paste 1433
▁influential 1433
▁reel 1433
▁supposedly 1433
/2012 1432
glu 1432
has 1432
▁Inari 1432
▁Kobayashi 1432
▁SDGs 1432
▁Trademark 1432
▁Vector 1432
▁blamed 1432
▁insertion 1432
▁licensing 1432
▁ponds 1432
▁revert 1432
▁Sat 1431
▁exploiting 1431
▁fluctuations 1431
▁immuno 1431
▁marvel 1431
▁rocky 1431
Real 1430
▁Mirror 1430
▁apologize 1430
▁boyfriend 1430
▁colleges 1430
▁lunar 1430
▁Cow 1429
▁Seed 1429
▁crude 1429
▁equality 1429
▁okay 1429
hur 1428
▁Shine 1428
▁fiat 1428
3,000 1427
bbing 1427
rock 1427
▁Arabic 1427
▁Denver 1427
▁NGOs 1427
▁Temperature 1427
▁nuance 1427
▁perfection 1427
▁skiing 1427
Black 1426
Fig 1426
▁Fuel 1426
▁IEICE 1426
▁Olympia 1426
▁Rico 1426
▁Simulation 1426
▁Symphony 1426
▁mayor 1426
▁timepiece 1426
▁miso 1425
▁picturesque 1425
▁tuning 1425
Rights 1424
ril 1424
▁PROVIDED 1424
▁Welfare 1424
▁cu 1424
▁irrigation 1424
▁nut 1424
▁reportedly 1424
▁upright 1424
0.000 1423
:5 1423
pole 1423
xx 1423
▁accused 1423
▁profitability 1423
▁seventh 1423
Application 1422
XP 1422
▁Certified 1422
▁Cities 1422
▁DxO 1422
▁Expand 1422
▁Kao 1422
▁NON 1422
2005 1421
VS 1421
pair 1421
worth 1421
▁ACC 1421
▁Connectivity 1421
▁SEO 1421
▁challenged 1421
▁communicating 1421
▁resting 1421
was 1420
ç 1420
▁20,000 1420
▁arg 1420
▁piss 1420
▁(+ 1419
▁TOMODACHI 1419
▁charcoal 1419
▁framing 1419
▁tweet 1419
ダ 1419
▁straightforward 1418
▁utilities 1418
Cam 1417
▁JVN 1417
▁accessory 1417
▁dataprotection 1417
▁instructed 1417
▁lanes 1417
▁pur 1417
▁reinforced 1417
▁Af 1416
▁bitcoin 1416
▁camel 1416
▁hats 1416
▁piping 1416
▁GMT 1415
▁Hama 1415
▁Orion 1415
▁athletic 1415
▁delighted 1415
▁Dialogue 1414
▁reinforce 1414
▁relieve 1414
в 1413
▁1.4 1413
▁Arena 1413
▁Ground 1413
▁PCB 1413
▁Regular 1413
▁blown 1413
techno 1412
ua 1412
▁Celsius 1412
▁Foot 1412
▁abrasive 1412
9.5 1411
Connect 1411
▁15% 1411
▁Fourth 1411
▁Lie 1411
▁stems 1411
DT 1410
Play 1410
bio 1410
maru 1410
▁Evil 1410
▁Northeast 1410
▁assuming 1410
▁commissioned 1410
▁doubts 1410
▁swelling 1410
News 1409
WC 1409
tab 1409
ís 1409
▁Reason 1409
▁Thread 1409
▁Yangtze 1409
▁altogether 1409
▁differential 1409
▁inherit 1409
call 1408
▁flies 1408
▁uneven 1408
▁wherein 1408
uz 1407
▁Binance 1407
▁Surface 1407
▁XX 1407
▁flo 1407
▁forefront 1407
▁scared 1407
▁thankful 1407
▁unparalleled 1407
lau 1406
▁Alpine 1406
▁Jeff 1406
▁hackers 1406
▁wool 1406
alone 1405
olic 1405
▁endpoint 1405
▁humor 1405
▁invasive 1405
▁swept 1405
Head 1404
▁HOTEL 1404
▁Lau 1404
▁slowing 1404
▁1969 1403
▁PH 1403
▁defining 1403
▁reaffirm 1403
▁warrant 1403
shire 1402
▁Machinery 1402
▁RIGHTS 1402
▁Sala 1402
▁diminish 1402
▁extraction 1402
▁heater 1402
▁Basically 1401
▁Genesis 1401
▁Millennium 1401
▁Venice 1401
▁Vidro 1401
▁copyrighted 1401
▁enthusiasts 1401
▁guiding 1401
▁hatch 1401
▁lust 1401
▁tar 1401
▁trauma 1401
Path 1400
▁DHL 1400
▁Pit 1400
▁drip 1400
▁neurons 1400
▁outskirts 1400
▁prayers 1400
▁springy 1400
cchi 1399
graphy 1399
▁BBC 1399
▁NFC 1399
▁grape 1399
▁revelation 1399
[...]
